
const unsigned char model[] = {
  28, 0, 0, 0, 84, 70, 76, 51, 20, 0, 32, 0, 28, 0, 24, 0, 20, 0, 16, 0, 12, 0, 0, 0, 8, 0, 4, 0, 20, 0, 0, 0, 28, 0, 0, 0, 140, 0, 0, 0, 228, 0, 0, 0, 76, 46, 5, 0, 92, 46, 5, 0, 196, 53, 5, 0, 3, 0, 0, 0, 1, 0, 0, 0, 4, 0, 0, 0, 166, 208, 250, 255, 12, 0, 0, 0, 28, 0, 0, 0, 60, 0, 0, 0, 15, 0, 0, 0, 115, 101, 114, 118, 105, 110, 103, 95, 100, 101, 102, 97, 117, 108, 116, 0, 1, 0, 0, 0, 4, 0, 0, 0, 144, 255, 255, 255, 12, 0, 0, 0, 4, 0, 0, 0, 8, 0, 0, 0, 100, 101, 110, 115, 101, 95, 49, 51, 0, 0, 0, 0, 1, 0, 0, 0, 4, 0, 0, 0, 154, 209, 250, 255, 4, 0, 0, 0, 14, 0, 0, 0, 99, 111, 110, 118, 50, 100, 95, 54, 95, 105, 110, 112, 117, 116, 0, 0, 2, 0, 0, 0, 52, 0, 0, 0, 4, 0, 0, 0, 220, 255, 255, 255, 15, 0, 0, 0, 4, 0, 0, 0, 19, 0, 0, 0, 67, 79, 78, 86, 69, 82, 83, 73, 79, 78, 95, 77, 69, 84, 65, 68, 65, 84, 65, 0, 8, 0, 12, 0, 8, 0, 4, 0, 8, 0, 0, 0, 14, 0, 0, 0, 4, 0, 0, 0, 19, 0, 0, 0, 109, 105, 110, 95, 114, 117, 110, 116, 105, 109, 101, 95, 118, 101, 114, 115, 105, 111, 110, 0, 16, 0, 0, 0, 100, 45, 5, 0, 92, 45, 5, 0, 56, 45, 5, 0, 24, 6, 5, 0, 248, 5, 5, 0, 104, 5, 5, 0, 80, 5, 5, 0, 192, 2, 0, 0, 176, 0, 0, 0, 168, 0, 0, 0, 160, 0, 0, 0, 152, 0, 0, 0, 144, 0, 0, 0, 136, 0, 0, 0, 104, 0, 0, 0, 4, 0, 0, 0, 86, 210, 250, 255, 4, 0, 0, 0, 84, 0, 0, 0, 12, 0, 0, 0, 8, 0, 14, 0, 8, 0, 4, 0, 8, 0, 0, 0, 16, 0, 0, 0, 36, 0, 0, 0, 0, 0, 6, 0, 8, 0, 4, 0, 6, 0, 0, 0, 4, 0, 0, 0, 0, 0, 0, 0, 0, 0, 10, 0, 16, 0, 12, 0, 8, 0, 4, 0, 10, 0, 0, 0, 2, 0, 0, 0, 2, 0, 0, 0, 4, 0, 0, 0, 6, 0, 0, 0, 50, 46, 49, 50, 46, 48, 0, 0, 182, 210, 250, 255, 4, 0, 0, 0, 16, 0, 0, 0, 49, 46, 53, 46, 48, 0, 0, 0, 0, 0, 0, 0, 0, 0, 0, 0, 24, 204, 250, 255, 28, 204, 250, 255, 32, 204, 250, 255, 36, 204, 250, 255, 40, 204, 250, 255, 230, 210, 250, 255, 4, 0, 0, 0, 0, 2, 0, 0, 115, 201, 222, 190, 118, 27, 9, 62, 43, 229, 142, 62, 136, 206, 189, 61, 100, 5, 202, 190, 32, 252, 179, 190, 76, 59, 254, 189, 41, 235, 43, 62, 142, 179, 201, 62, 27, 253, 165, 189, 131, 9, 183, 190, 135, 10, 216, 60, 159, 201, 254, 61, 41, 205, 131, 62, 195, 20, 83, 61, 111, 15, 168, 190, 179, 161, 69, 190, 119, 27, 100, 189, 140, 101, 162, 62, 205, 108, 102, 62, 118, 117, 138, 62, 0, 184, 181, 62, 20, 11, 123, 190, 199, 150, 102, 190, 229, 3, 152, 190, 163, 184, 189, 190, 169, 60, 102, 62, 37, 218, 150, 189, 192, 102, 206, 188, 134, 4, 184, 190, 184, 166, 129, 189, 43, 54, 42, 60, 216, 46, 123, 62, 124, 133, 190, 189, 209, 88, 8, 190, 24, 17, 124, 190, 152, 86, 194, 62, 233, 126, 107, 62, 26, 58, 33, 62, 157, 50, 96, 190, 220, 171, 232, 61, 150, 113, 189, 62, 105, 132, 173, 190, 2, 68, 191, 62, 85, 133, 232, 190, 163, 60, 21, 62, 164, 170, 88, 190, 37, 72, 152, 190, 74, 144, 189, 190, 1, 219, 182, 62, 73, 77, 185, 188, 27, 56, 129, 189, 8, 158, 40, 62, 134, 129, 133, 59, 128, 226, 37, 62, 191, 184, 171, 190, 90, 3, 91, 189, 39, 19, 96, 62, 200, 151, 82, 190, 122, 32, 142, 60, 185, 231, 49, 62, 46, 251, 183, 62, 197, 134, 139, 190, 160, 58, 191, 62, 111, 8, 147, 60, 95, 138, 190, 60, 238, 52, 134, 62, 189, 150, 31, 190, 17, 38, 160, 62, 15, 59, 207, 62, 95, 241, 56, 62, 228, 229, 176, 190, 171, 123, 97, 62, 116, 130, 121, 187, 157, 150, 76, 190, 183, 103, 201, 61, 239, 212, 16, 62, 150, 96, 203, 62, 43, 251, 130, 190, 68, 22, 199, 61, 211, 40, 208, 189, 173, 58, 200, 62, 64, 83, 135, 61, 241, 0, 220, 189, 189, 226, 15, 189, 109, 81, 98, 61, 133, 226, 188, 190, 28, 139, 177, 62, 204, 254, 173, 62, 105, 22, 252, 189, 167, 29, 112, 61, 125, 89, 165, 190, 79, 234, 108, 189, 69, 213, 219, 189, 66, 150, 219, 62, 125, 172, 148, 61, 6, 197, 173, 62, 153, 146, 187, 62, 27, 11, 126, 190, 222, 187, 218, 189, 146, 57, 41, 61, 9, 0, 165, 190, 172, 236, 215, 189, 204, 148, 117, 61, 113, 94, 227, 188, 139, 10, 135, 190, 233, 171, 196, 62, 124, 231, 240, 61, 251, 4, 137, 62, 209, 116, 112, 189, 15, 4, 7, 61, 21, 123, 199, 188, 53, 136, 178, 190, 195, 178, 153, 189, 238, 70, 26, 62, 141, 82, 160, 62, 203, 175, 160, 62, 127, 253, 4, 62, 154, 202, 222, 190, 212, 138, 75, 190, 225, 218, 160, 62, 211, 57, 37, 190, 77, 168, 73, 189, 237, 97, 167, 190, 196, 217, 53, 190, 123, 8, 172, 62, 251, 127, 105, 190, 158, 17, 60, 190, 242, 212, 250, 255, 4, 0, 0, 0, 128, 2, 5, 0, 58, 244, 237, 188, 96, 97, 54, 187, 28, 52, 73, 60, 204, 62, 117, 188, 219, 121, 7, 61, 247, 142, 242, 188, 2, 255, 116, 61, 120, 246, 84, 188, 111, 145, 179, 188, 26, 167, 239, 59, 168, 205, 153, 188, 110, 155, 1, 189, 221, 99, 80, 187, 136, 89, 84, 61, 68, 236, 70, 61, 184, 49, 6, 189, 188, 240, 187, 60, 143, 210, 34, 61, 217, 12, 126, 189, 67, 246, 68, 60, 84, 177, 17, 61, 236, 42, 131, 189, 152, 196, 24, 61, 189, 6, 138, 189, 251, 219, 193, 61, 192, 73, 66, 187, 121, 53, 14, 187, 112, 97, 31, 187, 13, 118, 111, 189, 87, 235, 193, 61, 240, 205, 207, 59, 132, 60, 17, 60, 129, 75, 187, 59, 117, 213, 111, 188, 6, 149, 226, 61, 64, 93, 149, 60, 2, 249, 13, 61, 171, 219, 107, 189, 235, 139, 118, 189, 99, 115, 116, 61, 27, 102, 220, 188, 173, 206, 211, 60, 192, 134, 63, 186, 145, 244, 220, 61, 233, 71, 63, 61, 48, 136, 134, 60, 240, 243, 226, 57, 101, 74, 79, 60, 71, 107, 184, 61, 170, 227, 191, 189, 64, 102, 242, 186, 196, 243, 198, 60, 127, 68, 174, 188, 50, 160, 139, 60, 19, 125, 91, 188, 21, 72, 54, 189, 8, 243, 33, 188, 155, 148, 69, 60, 245, 84, 68, 61, 143, 104, 188, 188, 68, 138, 10, 188, 39, 12, 25, 61, 126, 194, 169, 188, 133, 230, 199, 61, 54, 203, 52, 58, 228, 202, 20, 189, 157, 187, 127, 188, 130, 246, 59, 189, 100, 14, 142, 60, 0, 1, 30, 61, 144, 232, 244, 60, 246, 143, 29, 188, 44, 210, 71, 188, 95, 34, 109, 61, 221, 17, 172, 61, 46, 149, 161, 188, 25, 172, 66, 187, 206, 234, 251, 60, 170, 144, 183, 60, 71, 149, 140, 60, 208, 152, 72, 60, 240, 254, 218, 60, 207, 6, 73, 59, 125, 251, 14, 61, 193, 141, 21, 61, 84, 138, 234, 60, 103, 191, 138, 188, 136, 145, 154, 60, 175, 239, 189, 61, 236, 154, 211, 60, 242, 78, 8, 61, 245, 138, 127, 61, 65, 118, 218, 187, 199, 89, 193, 61, 85, 43, 94, 59, 216, 111, 173, 60, 52, 59, 19, 188, 109, 73, 141, 61, 101, 108, 50, 60, 150, 75, 229, 59, 112, 127, 59, 59, 187, 243, 153, 187, 12, 2, 13, 188, 51, 129, 186, 186, 185, 125, 174, 188, 184, 71, 51, 61, 37, 10, 120, 61, 170, 158, 33, 60, 145, 251, 111, 61, 104, 80, 31, 60, 186, 129, 188, 188, 148, 96, 167, 61, 30, 223, 159, 61, 115, 36, 237, 60, 71, 129, 60, 60, 128, 192, 54, 60, 84, 75, 70, 59, 177, 108, 128, 61, 122, 29, 156, 61, 233, 39, 98, 58, 161, 3, 66, 189, 217, 73, 133, 61, 18, 8, 38, 59, 96, 1, 106, 60, 245, 238, 129, 61, 16, 83, 20, 61, 232, 144, 19, 60, 255, 115, 21, 188, 153, 80, 134, 60, 174, 11, 103, 60, 24, 131, 132, 187, 139, 47, 195, 188, 184, 30, 188, 60, 212, 48, 67, 60, 77, 238, 252, 60, 144, 55, 32, 61, 57, 75, 41, 188, 118, 116, 91, 61, 248, 225, 247, 188, 163, 110, 141, 61, 32, 149, 64, 187, 154, 78, 150, 61, 238, 212, 200, 58, 44, 172, 134, 61, 126, 16, 164, 60, 58, 158, 136, 188, 27, 214, 131, 187, 206, 123, 136, 61, 177, 13, 82, 61, 32, 232, 15, 61, 152, 233, 41, 188, 175, 116, 21, 61, 12, 138, 36, 189, 149, 10, 108, 61, 65, 167, 132, 61, 209, 73, 215, 188, 130, 135, 5, 61, 250, 25, 12, 60, 255, 14, 89, 187, 62, 157, 70, 61, 172, 156, 152, 60, 112, 148, 253, 60, 72, 27, 10, 188, 211, 170, 79, 60, 248, 241, 22, 59, 66, 114, 3, 189, 236, 79, 19, 188, 169, 204, 49, 61, 195, 58, 121, 61, 201, 12, 77, 61, 0, 106, 134, 186, 143, 204, 135, 60, 16, 155, 180, 60, 17, 119, 154, 184, 220, 123, 185, 60, 96, 206, 19, 188, 235, 225, 2, 61, 145, 132, 144, 61, 95, 173, 74, 61, 217, 199, 143, 61, 165, 134, 40, 189, 213, 125, 82, 61, 22, 34, 60, 60, 222, 146, 214, 60, 200, 42, 251, 60, 80, 19, 43, 61, 185, 203, 210, 60, 60, 182, 153, 61, 110, 55, 23, 59, 253, 228, 249, 60, 235, 224, 1, 189, 205, 139, 151, 61, 73, 7, 169, 61, 98, 65, 155, 188, 89, 6, 50, 59, 130, 83, 177, 188, 186, 36, 37, 61, 87, 243, 112, 61, 86, 232, 226, 59, 148, 168, 45, 58, 254, 30, 50, 61, 125, 174, 100, 188, 217, 200, 133, 61, 158, 55, 200, 60, 192, 63, 186, 188, 249, 146, 166, 188, 37, 52, 224, 60, 230, 173, 164, 61, 201, 79, 199, 188, 129, 101, 220, 188, 180, 57, 18, 61, 33, 1, 12, 60, 100, 219, 166, 61, 32, 53, 142, 187, 38, 241, 48, 60, 116, 231, 223, 188, 150, 238, 87, 61, 112, 69, 172, 188, 54, 233, 179, 188, 191, 174, 4, 61, 10, 121, 14, 189, 250, 87, 113, 61, 104, 117, 192, 60, 153, 104, 41, 60, 9, 191, 69, 61, 24, 77, 237, 188, 48, 67, 224, 59, 193, 220, 104, 188, 26, 48, 12, 189, 139, 177, 181, 188, 240, 102, 30, 60, 221, 156, 122, 61, 170, 220, 84, 61, 154, 15, 65, 189, 149, 188, 90, 188, 15, 142, 40, 189, 141, 183, 232, 56, 239, 225, 158, 60, 183, 101, 254, 59, 241, 148, 169, 60, 40, 149, 62, 61, 15, 11, 243, 60, 15, 68, 13, 61, 84, 219, 32, 188, 6, 226, 16, 188, 96, 193, 190, 60, 139, 0, 181, 59, 15, 168, 12, 61, 215, 12, 114, 189, 93, 55, 228, 59, 36, 213, 4, 61, 173, 59, 90, 61, 151, 58, 192, 60, 179, 57, 53, 189, 196, 73, 246, 60, 147, 226, 172, 188, 64, 41, 194, 60, 45, 209, 87, 61, 240, 186, 11, 61, 31, 24, 251, 188, 103, 109, 2, 189, 77, 105, 1, 58, 152, 165, 224, 60, 250, 229, 0, 61, 81, 85, 140, 188, 0, 51, 28, 61, 137, 141, 59, 188, 214, 160, 255, 60, 252, 122, 78, 189, 205, 81, 134, 187, 80, 209, 27, 60, 56, 18, 132, 61, 111, 95, 50, 189, 189, 59, 34, 188, 46, 104, 13, 189, 167, 1, 52, 189, 70, 206, 198, 60, 95, 93, 13, 61, 137, 5, 203, 60, 114, 131, 82, 60, 204, 222, 213, 188, 170, 60, 23, 61, 176, 158, 132, 60, 108, 170, 68, 189, 20, 94, 165, 188, 212, 168, 237, 60, 76, 81, 147, 187, 162, 191, 213, 60, 123, 141, 243, 188, 166, 38, 202, 188, 252, 104, 31, 61, 144, 147, 100, 187, 185, 11, 234, 59, 14, 126, 217, 187, 219, 166, 202, 188, 8, 214, 51, 61, 243, 196, 252, 187, 127, 170, 152, 60, 190, 185, 37, 189, 250, 215, 113, 60, 148, 73, 129, 188, 225, 9, 244, 188, 113, 147, 142, 188, 193, 41, 81, 189, 194, 145, 56, 189, 16, 76, 196, 60, 223, 110, 64, 187, 143, 67, 191, 60, 31, 13, 34, 189, 117, 147, 45, 60, 6, 15, 26, 189, 1, 236, 123, 60, 42, 231, 84, 189, 47, 31, 29, 189, 230, 86, 38, 189, 214, 178, 207, 188, 73, 137, 204, 187, 234, 50, 34, 60, 188, 87, 186, 188, 65, 3, 135, 187, 70, 246, 61, 61, 181, 187, 143, 61, 240, 57, 67, 186, 146, 64, 106, 189, 196, 253, 73, 189, 54, 28, 59, 189, 135, 42, 226, 59, 36, 156, 109, 60, 99, 27, 74, 60, 20, 173, 197, 188, 118, 180, 62, 61, 234, 38, 47, 187, 29, 137, 213, 187, 97, 77, 36, 188, 81, 174, 136, 188, 81, 141, 246, 188, 182, 168, 115, 60, 85, 191, 182, 60, 76, 179, 87, 188, 68, 88, 242, 188, 72, 232, 28, 188, 14, 143, 59, 61, 153, 130, 156, 188, 135, 198, 2, 60, 234, 167, 15, 188, 248, 132, 27, 61, 3, 111, 64, 188, 243, 154, 44, 61, 207, 117, 13, 58, 75, 193, 65, 189, 128, 220, 18, 60, 221, 18, 24, 60, 179, 2, 32, 61, 168, 57, 222, 188, 254, 181, 65, 189, 186, 76, 44, 61, 94, 27, 1, 61, 174, 157, 132, 61, 104, 99, 172, 60, 199, 214, 97, 60, 198, 139, 240, 188, 24, 93, 118, 61, 234, 169, 113, 61, 119, 248, 245, 187, 118, 12, 118, 61, 48, 81, 72, 60, 143, 201, 143, 61, 192, 197, 10, 188, 243, 72, 6, 189, 17, 179, 6, 189, 28, 0, 185, 60, 65, 131, 183, 60, 144, 132, 148, 60, 131, 60, 6, 189, 163, 229, 102, 189, 166, 157, 199, 58, 160, 153, 89, 59, 142, 165, 56, 189, 62, 161, 245, 188, 231, 133, 102, 189, 208, 148, 29, 187, 172, 23, 15, 189, 17, 108, 20, 60, 148, 82, 198, 188, 177, 70, 77, 186, 52, 121, 253, 188, 100, 49, 43, 189, 144, 235, 39, 61, 162, 0, 37, 60, 194, 217, 244, 60, 212, 158, 193, 60, 18, 11, 115, 61, 50, 5, 114, 61, 224, 126, 217, 188, 95, 150, 200, 188, 22, 16, 11, 189, 97, 247, 36, 61, 79, 26, 201, 59, 168, 173, 116, 189, 88, 7, 65, 189, 102, 6, 158, 187, 141, 216, 159, 188, 231, 96, 188, 188, 250, 106, 0, 189, 59, 119, 61, 189, 227, 35, 138, 187, 182, 215, 113, 61, 224, 53, 20, 60, 231, 115, 103, 60, 218, 49, 17, 189, 64, 230, 202, 59, 95, 223, 165, 188, 206, 200, 91, 60, 27, 243, 148, 59, 195, 44, 24, 189, 54, 202, 207, 60, 114, 21, 244, 188, 5, 232, 196, 60, 60, 189, 87, 61, 154, 134, 166, 189, 136, 245, 220, 60, 29, 147, 74, 61, 66, 227, 8, 61, 32, 10, 167, 60, 18, 23, 53, 189, 0, 65, 242, 187, 235, 160, 239, 59, 170, 22, 240, 188, 2, 99, 77, 188, 88, 199, 29, 60, 92, 121, 10, 189, 151, 19, 129, 60, 39, 126, 179, 186, 50, 139, 206, 59, 252, 120, 47, 189, 222, 136, 255, 188, 8, 219, 50, 188, 144, 130, 92, 61, 140, 1, 226, 187, 151, 163, 109, 188, 144, 149, 168, 188, 134, 39, 3, 188, 182, 94, 227, 188, 95, 87, 48, 189, 241, 185, 4, 189, 109, 69, 28, 61, 232, 243, 150, 61, 120, 114, 60, 184, 18, 219, 4, 61, 197, 68, 163, 188, 57, 243, 14, 61, 139, 127, 36, 188, 168, 124, 178, 188, 180, 232, 246, 60, 96, 248, 68, 189, 11, 148, 61, 189, 217, 113, 37, 61, 200, 1, 51, 188, 185, 154, 67, 60, 37, 246, 241, 59, 64, 5, 91, 60, 65, 150, 42, 61, 159, 83, 45, 61, 220, 131, 188, 188, 156, 102, 8, 189, 201, 202, 4, 189, 45, 173, 67, 61, 134, 161, 87, 59, 187, 255, 160, 188, 116, 125, 212, 189, 232, 78, 17, 60, 23, 103, 8, 188, 241, 139, 59, 60, 160, 114, 172, 188, 189, 150, 205, 188, 84, 202, 177, 60, 29, 162, 125, 60, 25, 125, 134, 59, 188, 84, 32, 58, 121, 13, 101, 189, 13, 107, 131, 60, 244, 188, 68, 60, 58, 222, 102, 61, 155, 109, 145, 188, 144, 207, 200, 188, 30, 114, 171, 60, 176, 137, 181, 60, 173, 13, 197, 187, 129, 1, 81, 59, 139, 25, 13, 189, 126, 217, 253, 188, 188, 171, 217, 60, 87, 197, 83, 61, 16, 40, 244, 188, 211, 228, 163, 189, 242, 232, 181, 188, 40, 190, 80, 61, 245, 125, 18, 61, 84, 247, 31, 60, 185, 164, 146, 188, 10, 2, 30, 61, 131, 217, 225, 188, 0, 174, 156, 61, 161, 125, 79, 186, 18, 124, 5, 189, 175, 112, 225, 188, 5, 197, 105, 187, 61, 198, 126, 187, 20, 195, 145, 60, 19, 24, 51, 189, 56, 39, 218, 187, 213, 96, 146, 187, 81, 0, 58, 61, 48, 255, 97, 189, 48, 209, 133, 189, 60, 238, 53, 61, 38, 85, 73, 61, 208, 108, 45, 59, 156, 74, 217, 188, 171, 54, 10, 189, 196, 219, 75, 60, 53, 37, 68, 61, 16, 47, 108, 61, 28, 188, 213, 188, 111, 241, 86, 189, 156, 59, 200, 60, 244, 235, 214, 188, 109, 200, 11, 60, 161, 7, 205, 188, 236, 65, 70, 189, 152, 60, 110, 60, 193, 122, 58, 61, 156, 242, 215, 57, 201, 162, 225, 188, 1, 94, 193, 188, 128, 193, 109, 60, 239, 231, 128, 188, 131, 160, 170, 60, 166, 80, 13, 189, 152, 175, 197, 189, 169, 85, 203, 188, 236, 44, 56, 61, 160, 171, 155, 61, 134, 230, 188, 188, 1, 29, 97, 189, 221, 8, 8, 189, 98, 245, 223, 59, 60, 79, 28, 60, 205, 53, 107, 189, 242, 99, 64, 60, 127, 130, 36, 189, 112, 44, 199, 60, 229, 103, 101, 61, 34, 126, 58, 189, 17, 96, 30, 189, 56, 137, 15, 61, 219, 151, 142, 61, 145, 96, 159, 61, 187, 74, 221, 188, 75, 223, 61, 189, 102, 246, 45, 189, 216, 213, 141, 61, 220, 106, 97, 61, 69, 171, 114, 189, 196, 140, 45, 189, 176, 79, 33, 61, 71, 184, 207, 187, 45, 177, 136, 61, 30, 166, 80, 189, 210, 221, 47, 188, 48, 186, 17, 188, 34, 121, 234, 60, 19, 85, 41, 186, 185, 40, 206, 188, 30, 236, 146, 60, 134, 247, 1, 189, 197, 253, 47, 188, 133, 114, 84, 61, 144, 60, 4, 189, 13, 240, 240, 59, 146, 16, 168, 188, 51, 30, 31, 61, 56, 70, 225, 59, 246, 85, 95, 188, 113, 193, 207, 188, 26, 91, 27, 61, 141, 147, 244, 59, 86, 100, 187, 186, 56, 40, 250, 59, 151, 144, 159, 60, 176, 6, 13, 187, 152, 115, 79, 58, 88, 37, 171, 59, 150, 65, 173, 60, 240, 180, 229, 60, 224, 197, 130, 60, 236, 153, 9, 61, 77, 14, 20, 188, 134, 90, 72, 189, 198, 173, 201, 188, 142, 70, 27, 61, 85, 59, 154, 188, 200, 156, 134, 61, 238, 66, 36, 189, 242, 0, 64, 61, 216, 242, 243, 59, 87, 9, 29, 61, 229, 184, 144, 59, 73, 52, 21, 61, 160, 183, 204, 57, 30, 160, 166, 188, 18, 201, 86, 61, 161, 180, 14, 61, 125, 43, 139, 60, 231, 160, 93, 189, 240, 34, 5, 61, 73, 230, 186, 61, 48, 67, 32, 61, 141, 111, 1, 189, 46, 183, 221, 60, 116, 46, 190, 60, 231, 126, 1, 61, 156, 13, 7, 61, 128, 198, 174, 60, 33, 241, 49, 189, 116, 155, 28, 189, 52, 128, 172, 61, 236, 20, 88, 61, 76, 238, 238, 60, 84, 95, 121, 58, 220, 210, 61, 188, 151, 20, 23, 61, 121, 131, 122, 188, 143, 40, 145, 60, 49, 68, 64, 61, 148, 20, 143, 60, 77, 183, 77, 58, 200, 67, 176, 61, 146, 105, 72, 60, 28, 166, 146, 59, 114, 106, 41, 61, 128, 45, 61, 61, 159, 80, 52, 60, 227, 116, 29, 188, 249, 204, 105, 60, 172, 164, 30, 61, 200, 149, 142, 61, 204, 57, 6, 61, 105, 155, 25, 61, 93, 219, 127, 61, 16, 72, 250, 60, 138, 12, 137, 61, 242, 128, 204, 187, 75, 223, 149, 188, 127, 179, 37, 61, 240, 53, 196, 60, 204, 252, 168, 60, 23, 199, 210, 59, 220, 27, 53, 59, 140, 92, 94, 188, 128, 168, 132, 58, 203, 65, 124, 61, 135, 97, 7, 61, 139, 239, 203, 60, 87, 115, 169, 60, 36, 230, 46, 61, 197, 4, 249, 188, 137, 170, 113, 61, 205, 136, 226, 60, 58, 141, 80, 188, 173, 226, 139, 188, 65, 131, 45, 61, 211, 89, 151, 60, 190, 225, 147, 187, 116, 24, 139, 61, 24, 95, 112, 188, 85, 196, 155, 188, 116, 147, 196, 60, 23, 10, 46, 61, 30, 202, 90, 61, 4, 84, 70, 188, 110, 19, 57, 61, 120, 116, 107, 61, 175, 190, 113, 187, 165, 208, 42, 188, 191, 7, 163, 188, 13, 235, 16, 189, 221, 175, 248, 187, 53, 248, 22, 188, 65, 207, 169, 59, 8, 176, 230, 60, 159, 219, 210, 60, 42, 144, 88, 61, 133, 108, 44, 61, 8, 229, 101, 60, 105, 116, 101, 60, 27, 187, 37, 60, 241, 37, 169, 186, 87, 147, 164, 61, 209, 146, 13, 61, 40, 46, 167, 60, 53, 225, 242, 60, 154, 57, 81, 188, 225, 26, 130, 186, 80, 1, 91, 61, 64, 88, 61, 58, 53, 210, 54, 188, 141, 17, 231, 187, 62, 245, 125, 61, 131, 5, 31, 189, 62, 138, 1, 189, 153, 107, 2, 59, 106, 35, 28, 61, 136, 175, 234, 60, 33, 245, 36, 61, 120, 122, 247, 60, 81, 166, 16, 61, 254, 13, 139, 61, 106, 241, 105, 188, 157, 2, 167, 185, 40, 53, 139, 60, 80, 62, 245, 60, 194, 84, 159, 61, 231, 203, 105, 188, 187, 193, 75, 61, 182, 198, 0, 61, 217, 122, 37, 189, 89, 210, 102, 61, 130, 45, 255, 188, 94, 206, 93, 189, 142, 140, 14, 189, 76, 86, 202, 188, 87, 183, 70, 61, 24, 50, 207, 60, 180, 74, 1, 61, 32, 86, 43, 187, 7, 212, 34, 61, 130, 20, 183, 188, 232, 79, 227, 60, 207, 205, 168, 58, 0, 167, 161, 60, 134, 116, 177, 188, 220, 151, 39, 61, 255, 90, 211, 60, 202, 179, 249, 188, 76, 27, 44, 60, 94, 73, 72, 188, 188, 57, 79, 187, 103, 60, 60, 58, 64, 200, 87, 189, 128, 96, 161, 185, 59, 72, 225, 58, 251, 198, 12, 189, 3, 41, 71, 61, 92, 62, 178, 60, 60, 108, 15, 61, 207, 21, 84, 61, 83, 67, 188, 60, 149, 215, 31, 61, 122, 106, 214, 188, 80, 26, 248, 60, 14, 108, 80, 59, 31, 5, 29, 189, 242, 253, 67, 59, 238, 128, 237, 187, 54, 186, 44, 189, 199, 68, 10, 61, 71, 178, 28, 61, 106, 134, 72, 61, 19, 48, 41, 189, 18, 144, 135, 188, 249, 32, 119, 60, 75, 158, 52, 61, 27, 125, 87, 188, 212, 108, 116, 61, 144, 181, 106, 188, 223, 231, 10, 61, 145, 199, 34, 61, 106, 7, 245, 188, 88, 242, 215, 187, 150, 9, 5, 61, 204, 91, 18, 188, 8, 111, 192, 57, 85, 18, 193, 188, 118, 167, 7, 61, 0, 115, 7, 185, 157, 236, 226, 187, 131, 153, 141, 188, 17, 234, 222, 187, 77, 245, 205, 60, 29, 167, 65, 189, 47, 210, 6, 61, 158, 37, 196, 188, 6, 144, 157, 188, 120, 81, 88, 188, 87, 131, 66, 189, 113, 82, 176, 61, 81, 169, 4, 61, 170, 151, 134, 60, 73, 178, 81, 61, 0, 60, 251, 187, 114, 31, 109, 61, 238, 33, 130, 60, 211, 28, 83, 61, 78, 106, 119, 189, 216, 247, 49, 61, 227, 34, 74, 60, 52, 18, 41, 61, 153, 187, 36, 189, 57, 239, 70, 60, 184, 121, 9, 60, 233, 230, 91, 189, 105, 30, 55, 61, 43, 168, 239, 188, 155, 56, 176, 187, 224, 68, 230, 60, 231, 120, 198, 60, 16, 40, 136, 188, 226, 235, 129, 61, 252, 127, 49, 61, 7, 192, 201, 188, 18, 52, 65, 61, 57, 25, 157, 59, 109, 16, 227, 60, 227, 118, 207, 188, 252, 253, 79, 60, 103, 181, 219, 60, 217, 36, 255, 188, 27, 131, 180, 60, 165, 170, 46, 60, 22, 161, 138, 188, 177, 237, 229, 188, 109, 223, 27, 61, 137, 195, 137, 59, 242, 54, 39, 60, 93, 234, 184, 188, 95, 187, 168, 59, 145, 74, 76, 61, 51, 108, 202, 58, 242, 7, 246, 188, 184, 70, 48, 189, 176, 8, 45, 60, 62, 190, 42, 189, 165, 91, 24, 188, 194, 210, 219, 60, 148, 74, 211, 60, 142, 203, 42, 189, 213, 62, 228, 188, 190, 217, 32, 61, 183, 121, 103, 60, 168, 255, 4, 61, 162, 253, 171, 188, 209, 124, 164, 187, 141, 10, 29, 61, 176, 125, 56, 60, 226, 199, 17, 61, 57, 98, 43, 189, 128, 44, 208, 60, 99, 186, 132, 61, 124, 135, 34, 189, 42, 49, 132, 188, 73, 108, 35, 61, 165, 62, 116, 188, 173, 104, 215, 60, 76, 82, 73, 61, 28, 134, 45, 61, 21, 51, 38, 188, 17, 107, 34, 61, 47, 7, 196, 60, 51, 61, 238, 59, 232, 200, 214, 60, 205, 153, 68, 188, 33, 45, 37, 189, 232, 135, 206, 59, 208, 208, 218, 187, 0, 251, 153, 57, 241, 157, 92, 60, 237, 76, 71, 188, 91, 18, 159, 61, 24, 105, 163, 188, 0, 129, 135, 60, 92, 147, 215, 60, 114, 121, 28, 61, 136, 50, 76, 59, 107, 199, 223, 60, 226, 197, 205, 60, 229, 100, 65, 189, 247, 64, 8, 61, 141, 240, 4, 61, 89, 17, 232, 187, 218, 139, 32, 58, 142, 138, 72, 187, 242, 243, 174, 60, 214, 151, 17, 61, 159, 3, 143, 187, 192, 51, 115, 60, 180, 38, 182, 60, 226, 14, 28, 60, 252, 204, 7, 58, 213, 54, 143, 60, 230, 117, 32, 61, 116, 65, 89, 61, 174, 246, 74, 61, 220, 238, 208, 59, 31, 204, 43, 59, 28, 219, 179, 60, 125, 14, 149, 188, 118, 45, 221, 186, 32, 110, 25, 61, 45, 104, 149, 188, 60, 225, 49, 60, 83, 162, 37, 187, 30, 120, 242, 188, 121, 84, 183, 60, 169, 121, 74, 60, 110, 206, 33, 61, 61, 185, 94, 60, 10, 129, 49, 61, 245, 68, 131, 61, 97, 59, 163, 61, 128, 102, 25, 186, 122, 67, 138, 189, 96, 118, 44, 60, 217, 153, 245, 187, 14, 44, 145, 188, 165, 111, 218, 188, 158, 211, 252, 188, 96, 69, 90, 188, 18, 230, 80, 60, 76, 210, 11, 188, 28, 215, 100, 188, 155, 208, 116, 189, 171, 195, 51, 187, 61, 253, 137, 188, 161, 25, 67, 188, 24, 184, 63, 188, 112, 231, 142, 188, 61, 234, 202, 188, 182, 25, 87, 60, 155, 152, 27, 60, 252, 48, 61, 60, 62, 27, 217, 186, 234, 243, 163, 60, 41, 133, 21, 189, 229, 188, 75, 60, 14, 119, 5, 189, 49, 128, 245, 60, 167, 218, 251, 188, 97, 17, 125, 188, 41, 100, 151, 59, 132, 234, 240, 60, 234, 131, 221, 60, 248, 123, 16, 189, 24, 233, 58, 189, 186, 112, 9, 60, 18, 222, 56, 61, 196, 163, 85, 61, 236, 140, 158, 188, 114, 39, 149, 188, 173, 40, 111, 189, 14, 37, 10, 61, 39, 61, 59, 61, 49, 212, 29, 61, 164, 235, 217, 188, 227, 121, 183, 188, 192, 173, 120, 59, 206, 89, 206, 60, 226, 49, 192, 188, 225, 52, 28, 189, 172, 111, 104, 189, 192, 63, 50, 187, 3, 39, 129, 60, 128, 188, 49, 186, 203, 234, 129, 60, 3, 193, 93, 189, 152, 42, 200, 59, 192, 205, 131, 189, 111, 52, 75, 189, 66, 160, 151, 188, 43, 97, 191, 188, 64, 44, 225, 187, 55, 5, 8, 188, 115, 62, 227, 59, 203, 231, 72, 60, 170, 58, 186, 188, 76, 22, 143, 60, 240, 214, 130, 189, 111, 81, 131, 189, 145, 239, 116, 189, 73, 154, 68, 188, 160, 234, 200, 58, 47, 173, 167, 189, 89, 1, 163, 189, 112, 103, 30, 189, 156, 27, 11, 189, 192, 217, 9, 61, 35, 114, 191, 188, 141, 147, 194, 189, 167, 185, 79, 189, 25, 143, 17, 189, 224, 9, 170, 58, 131, 1, 138, 60, 62, 112, 164, 189, 86, 241, 40, 189, 31, 234, 80, 60, 178, 75, 5, 61, 49, 5, 142, 60, 206, 7, 41, 188, 165, 98, 10, 189, 220, 3, 214, 188, 242, 171, 20, 189, 139, 142, 229, 59, 167, 116, 124, 188, 170, 87, 12, 61, 183, 152, 114, 189, 172, 117, 77, 188, 42, 20, 30, 61, 223, 139, 21, 189, 233, 75, 48, 61, 241, 4, 92, 189, 98, 87, 41, 189, 162, 119, 144, 188, 211, 155, 9, 189, 115, 191, 150, 60, 72, 33, 189, 58, 5, 132, 30, 189, 176, 133, 25, 186, 145, 215, 151, 189, 15, 201, 91, 189, 218, 210, 214, 188, 90, 34, 9, 189, 231, 27, 189, 188, 233, 219, 79, 188, 152, 81, 142, 187, 75, 14, 191, 60, 30, 175, 19, 61, 147, 11, 35, 189, 158, 165, 149, 189, 199, 180, 112, 188, 148, 84, 93, 60, 148, 19, 3, 61, 148, 9, 144, 60, 180, 153, 165, 59, 124, 216, 9, 188, 74, 109, 143, 60, 161, 107, 210, 188, 58, 77, 149, 188, 109, 176, 38, 58, 250, 200, 149, 188, 220, 195, 199, 188, 99, 184, 203, 188, 60, 164, 128, 60, 235, 96, 142, 188, 246, 202, 134, 189, 89, 253, 158, 60, 16, 53, 119, 59, 177, 167, 186, 60, 214, 72, 146, 189, 173, 34, 97, 60, 2, 100, 152, 186, 120, 70, 175, 59, 46, 168, 249, 60, 207, 32, 201, 186, 182, 160, 121, 60, 207, 212, 2, 60, 248, 33, 160, 60, 238, 175, 95, 61, 113, 57, 142, 188, 206, 34, 93, 188, 26, 207, 3, 60, 164, 176, 59, 60, 246, 80, 113, 189, 114, 145, 31, 60, 103, 17, 213, 188, 42, 131, 98, 189, 224, 118, 49, 61, 61, 1, 234, 60, 144, 114, 94, 189, 39, 162, 97, 60, 239, 14, 212, 59, 76, 63, 239, 60, 80, 162, 100, 60, 197, 183, 52, 60, 42, 101, 20, 61, 14, 98, 1, 189, 92, 134, 95, 60, 186, 73, 13, 189, 228, 72, 150, 60, 191, 125, 88, 188, 206, 140, 54, 189, 40, 4, 250, 59, 54, 15, 140, 60, 105, 238, 194, 60, 57, 217, 233, 59, 217, 219, 159, 60, 242, 206, 11, 189, 225, 129, 240, 187, 61, 43, 207, 187, 13, 229, 77, 61, 1, 221, 166, 188, 181, 253, 18, 189, 17, 225, 94, 60, 165, 93, 10, 61, 190, 208, 248, 188, 108, 190, 96, 189, 32, 223, 70, 59, 51, 169, 34, 61, 15, 178, 163, 187, 169, 105, 168, 188, 107, 27, 86, 188, 103, 7, 244, 188, 243, 165, 138, 188, 30, 147, 153, 188, 37, 87, 43, 61, 35, 156, 57, 189, 236, 96, 132, 60, 235, 250, 1, 61, 250, 167, 234, 188, 184, 202, 9, 61, 90, 161, 43, 189, 192, 225, 99, 186, 195, 154, 98, 189, 240, 105, 161, 187, 236, 189, 129, 60, 174, 108, 4, 59, 47, 244, 35, 189, 35, 188, 19, 189, 217, 118, 72, 61, 73, 74, 247, 187, 82, 18, 150, 188, 192, 236, 149, 187, 124, 127, 107, 188, 167, 6, 253, 56, 145, 6, 205, 59, 128, 127, 61, 188, 126, 122, 34, 61, 100, 224, 38, 61, 62, 224, 4, 189, 239, 39, 140, 188, 30, 10, 60, 189, 112, 153, 249, 60, 186, 161, 4, 61, 254, 246, 204, 186, 180, 206, 49, 61, 193, 23, 57, 189, 216, 22, 96, 60, 178, 56, 115, 61, 38, 30, 254, 188, 34, 223, 34, 189, 61, 56, 51, 189, 201, 118, 21, 189, 116, 30, 189, 60, 60, 205, 33, 61, 55, 196, 253, 60, 126, 170, 21, 60, 192, 232, 222, 187, 180, 59, 178, 60, 117, 213, 36, 188, 64, 110, 56, 60, 247, 186, 46, 60, 96, 124, 116, 60, 184, 254, 77, 61, 36, 180, 148, 187, 173, 238, 18, 61, 13, 189, 42, 61, 190, 11, 219, 188, 243, 125, 235, 57, 122, 154, 62, 189, 230, 151, 162, 187, 7, 217, 0, 59, 40, 24, 218, 59, 180, 245, 62, 61, 168, 83, 48, 61, 147, 197, 226, 187, 71, 91, 83, 59, 90, 90, 42, 189, 153, 238, 52, 61, 75, 211, 131, 57, 104, 165, 150, 60, 9, 118, 117, 58, 117, 202, 46, 189, 74, 161, 107, 60, 242, 162, 62, 59, 193, 215, 74, 61, 171, 159, 159, 188, 144, 116, 199, 60, 196, 201, 152, 188, 212, 90, 172, 60, 255, 46, 87, 61, 150, 141, 16, 61, 20, 26, 245, 60, 73, 135, 16, 188, 49, 207, 228, 60, 169, 98, 0, 188, 86, 163, 197, 60, 47, 212, 6, 189, 104, 92, 13, 61, 18, 35, 234, 188, 188, 4, 58, 189, 242, 232, 201, 59, 158, 229, 158, 188, 228, 162, 33, 189, 122, 142, 226, 58, 132, 52, 193, 188, 189, 148, 79, 61, 244, 86, 60, 188, 55, 118, 21, 189, 157, 91, 35, 189, 149, 167, 12, 60, 17, 1, 203, 188, 120, 41, 37, 60, 109, 107, 250, 60, 255, 67, 106, 188, 211, 215, 147, 188, 131, 221, 137, 188, 215, 199, 153, 188, 250, 139, 30, 61, 186, 188, 160, 60, 168, 200, 233, 188, 232, 17, 42, 61, 56, 27, 38, 61, 94, 119, 210, 188, 203, 10, 93, 189, 8, 7, 9, 61, 144, 226, 44, 61, 192, 159, 148, 60, 202, 88, 246, 188, 3, 112, 210, 188, 180, 22, 151, 186, 28, 255, 4, 188, 248, 82, 194, 59, 139, 191, 168, 187, 220, 154, 135, 188, 210, 115, 216, 60, 188, 37, 143, 60, 79, 14, 67, 60, 55, 239, 189, 188, 64, 179, 73, 189, 2, 229, 85, 188, 58, 226, 56, 59, 216, 24, 41, 188, 124, 100, 112, 58, 103, 171, 110, 188, 219, 44, 246, 188, 240, 174, 143, 60, 254, 21, 45, 189, 121, 238, 23, 60, 103, 90, 99, 187, 129, 100, 141, 56, 15, 250, 219, 60, 71, 235, 182, 188, 38, 95, 12, 189, 245, 85, 187, 60, 71, 163, 185, 188, 48, 94, 41, 61, 240, 187, 116, 187, 6, 236, 241, 187, 33, 71, 178, 59, 117, 65, 164, 188, 127, 113, 37, 189, 80, 241, 221, 187, 68, 246, 46, 189, 82, 28, 141, 188, 17, 220, 21, 189, 173, 158, 108, 189, 176, 107, 12, 61, 140, 116, 244, 60, 220, 56, 12, 189, 250, 206, 235, 188, 104, 35, 1, 189, 103, 21, 174, 188, 24, 30, 131, 188, 128, 240, 232, 60, 159, 127, 189, 188, 168, 35, 174, 60, 128, 70, 5, 58, 64, 104, 5, 189, 244, 127, 231, 188, 178, 245, 110, 59, 177, 246, 4, 189, 204, 58, 231, 60, 187, 193, 242, 60, 146, 57, 238, 188, 69, 141, 244, 188, 119, 120, 0, 188, 204, 146, 57, 188, 176, 136, 85, 189, 203, 239, 179, 186, 168, 198, 80, 59, 26, 2, 224, 188, 4, 217, 43, 61, 56, 140, 55, 188, 239, 226, 66, 188, 84, 186, 107, 188, 64, 225, 51, 189, 34, 104, 58, 189, 226, 95, 3, 60, 251, 147, 193, 60, 227, 50, 153, 58, 180, 188, 143, 188, 128, 118, 28, 61, 193, 181, 72, 59, 125, 41, 166, 187, 30, 164, 154, 187, 236, 1, 131, 189, 64, 30, 115, 60, 66, 18, 239, 188, 225, 82, 211, 60, 130, 245, 65, 189, 106, 205, 8, 188, 52, 84, 48, 60, 53, 23, 19, 189, 27, 138, 9, 61, 175, 0, 78, 189, 115, 236, 205, 60, 228, 191, 156, 60, 120, 27, 94, 60, 169, 22, 201, 186, 79, 66, 11, 189, 170, 113, 150, 189, 191, 224, 218, 188, 122, 241, 186, 60, 222, 81, 4, 61, 132, 233, 230, 60, 159, 104, 139, 189, 192, 243, 7, 189, 253, 134, 245, 60, 46, 70, 25, 189, 112, 172, 90, 59, 38, 122, 79, 189, 48, 48, 105, 188, 239, 119, 34, 61, 182, 115, 27, 188, 100, 244, 100, 188, 72, 0, 15, 189, 100, 229, 93, 188, 240, 176, 69, 61, 165, 191, 198, 60, 117, 143, 39, 188, 11, 243, 186, 188, 228, 133, 51, 61, 235, 13, 85, 189, 33, 212, 245, 188, 55, 180, 189, 59, 176, 246, 137, 188, 163, 15, 178, 188, 254, 174, 60, 189, 175, 22, 142, 188, 179, 107, 77, 187, 78, 255, 157, 186, 141, 216, 45, 189, 222, 128, 81, 57, 79, 120, 43, 60, 96, 124, 53, 189, 247, 105, 8, 189, 224, 32, 42, 61, 217, 112, 100, 189, 66, 152, 20, 189, 182, 106, 217, 58, 185, 34, 202, 59, 234, 68, 62, 61, 135, 20, 199, 59, 107, 229, 183, 58, 134, 89, 7, 188, 13, 58, 2, 189, 146, 188, 33, 61, 47, 3, 187, 188, 187, 107, 230, 187, 71, 17, 0, 189, 232, 170, 224, 188, 240, 33, 169, 187, 0, 220, 132, 188, 31, 163, 237, 59, 242, 56, 82, 60, 44, 20, 50, 188, 78, 41, 8, 61, 55, 43, 171, 188, 108, 10, 102, 188, 173, 223, 43, 189, 149, 72, 221, 185, 227, 240, 251, 188, 151, 105, 139, 60, 255, 113, 251, 188, 24, 121, 61, 189, 77, 85, 97, 189, 168, 30, 50, 60, 150, 235, 41, 189, 232, 212, 66, 189, 112, 239, 83, 59, 135, 28, 176, 188, 244, 224, 77, 60, 5, 85, 80, 189, 105, 165, 220, 188, 222, 251, 205, 188, 231, 22, 194, 60, 241, 1, 52, 189, 39, 158, 131, 189, 21, 29, 235, 187, 38, 196, 92, 189, 156, 83, 162, 60, 216, 53, 184, 187, 230, 77, 81, 59, 104, 249, 98, 59, 134, 8, 77, 189, 153, 230, 90, 189, 142, 105, 50, 61, 206, 20, 234, 59, 161, 151, 63, 189, 252, 150, 183, 60, 79, 179, 57, 60, 188, 204, 92, 60, 236, 42, 138, 60, 104, 72, 39, 189, 80, 108, 19, 189, 202, 226, 51, 189, 196, 32, 11, 189, 181, 56, 19, 58, 137, 241, 48, 189, 66, 10, 76, 61, 230, 198, 122, 58, 162, 40, 53, 189, 25, 218, 74, 60, 102, 116, 88, 189, 176, 160, 199, 60, 139, 170, 59, 189, 184, 85, 193, 60, 186, 54, 205, 188, 133, 181, 240, 188, 189, 176, 238, 187, 14, 215, 17, 60, 128, 87, 189, 186, 65, 64, 130, 189, 238, 110, 187, 189, 43, 78, 163, 188, 68, 129, 17, 188, 243, 139, 158, 188, 8, 131, 174, 188, 78, 73, 175, 189, 80, 229, 191, 60, 5, 253, 186, 60, 171, 5, 236, 188, 221, 192, 117, 188, 11, 160, 8, 189, 20, 217, 214, 60, 131, 78, 10, 189, 252, 166, 66, 61, 167, 247, 152, 60, 140, 223, 115, 60, 101, 10, 7, 189, 153, 100, 71, 61, 16, 157, 112, 188, 20, 112, 109, 188, 67, 14, 27, 187, 235, 76, 3, 189, 2, 160, 200, 60, 8, 104, 110, 60, 209, 171, 14, 61, 108, 252, 253, 60, 64, 194, 81, 189, 237, 5, 210, 187, 28, 144, 92, 60, 251, 168, 159, 60, 68, 127, 237, 59, 78, 11, 235, 60, 254, 175, 244, 188, 36, 159, 61, 60, 85, 228, 208, 188, 143, 120, 127, 189, 193, 208, 90, 189, 249, 152, 136, 61, 232, 66, 36, 61, 103, 161, 162, 188, 50, 54, 187, 188, 79, 212, 182, 60, 107, 88, 249, 60, 218, 204, 132, 188, 223, 29, 46, 189, 200, 171, 83, 189, 70, 38, 6, 61, 15, 219, 252, 187, 164, 28, 230, 60, 160, 197, 88, 188, 151, 124, 248, 187, 110, 240, 178, 188, 196, 238, 208, 59, 168, 54, 129, 59, 157, 68, 67, 189, 70, 165, 17, 60, 129, 41, 25, 189, 108, 130, 153, 188, 184, 61, 184, 59, 157, 21, 91, 58, 38, 197, 91, 188, 23, 11, 49, 60, 116, 213, 13, 58, 68, 231, 109, 188, 140, 118, 31, 60, 97, 46, 193, 188, 38, 242, 15, 189, 198, 212, 190, 188, 186, 80, 36, 189, 77, 134, 217, 187, 124, 25, 119, 60, 137, 71, 107, 189, 105, 144, 31, 189, 60, 157, 99, 60, 64, 5, 43, 189, 93, 134, 21, 188, 240, 2, 104, 189, 61, 199, 228, 60, 30, 225, 60, 61, 116, 177, 4, 61, 122, 111, 78, 188, 223, 78, 23, 61, 108, 169, 120, 60, 228, 79, 254, 59, 234, 0, 142, 189, 241, 85, 0, 61, 7, 161, 32, 189, 176, 99, 227, 60, 80, 222, 79, 188, 186, 140, 118, 189, 21, 187, 155, 189, 105, 15, 69, 60, 78, 12, 45, 189, 165, 40, 4, 189, 195, 173, 120, 189, 178, 15, 188, 189, 24, 215, 217, 60, 47, 150, 199, 56, 242, 22, 19, 189, 133, 145, 109, 59, 72, 246, 132, 188, 133, 182, 176, 59, 149, 147, 11, 188, 40, 82, 0, 188, 125, 178, 52, 189, 188, 40, 12, 60, 170, 128, 197, 59, 177, 139, 54, 60, 126, 226, 202, 188, 123, 3, 137, 187, 136, 74, 145, 189, 112, 147, 78, 188, 41, 85, 16, 61, 204, 178, 211, 60, 28, 71, 7, 189, 59, 134, 212, 59, 221, 176, 195, 188, 183, 147, 180, 60, 66, 233, 53, 61, 225, 57, 48, 187, 172, 67, 67, 189, 95, 135, 52, 189, 78, 1, 224, 186, 8, 18, 167, 60, 209, 201, 104, 189, 222, 224, 12, 188, 25, 235, 207, 188, 221, 142, 125, 60, 165, 84, 17, 189, 163, 236, 108, 186, 94, 53, 24, 61, 72, 59, 221, 188, 220, 237, 122, 189, 76, 184, 64, 61, 43, 60, 202, 60, 150, 89, 244, 184, 213, 147, 20, 189, 231, 240, 245, 60, 68, 28, 210, 60, 134, 6, 68, 189, 7, 191, 95, 189, 135, 252, 169, 187, 11, 166, 214, 188, 133, 205, 243, 188, 234, 83, 124, 189, 134, 202, 47, 189, 109, 173, 202, 60, 167, 223, 168, 60, 245, 73, 26, 189, 48, 37, 24, 189, 52, 191, 212, 188, 17, 44, 135, 60, 166, 237, 21, 61, 22, 49, 17, 61, 145, 28, 123, 60, 115, 41, 132, 188, 99, 65, 216, 188, 193, 232, 202, 186, 232, 160, 17, 60, 204, 11, 58, 189, 190, 0, 60, 189, 21, 234, 216, 60, 127, 156, 11, 60, 28, 243, 58, 60, 153, 123, 147, 60, 230, 156, 216, 59, 68, 192, 43, 189, 96, 29, 199, 59, 117, 127, 143, 60, 149, 129, 110, 189, 64, 39, 239, 188, 177, 107, 154, 188, 78, 18, 162, 60, 120, 190, 29, 60, 15, 117, 95, 189, 44, 202, 154, 60, 18, 141, 128, 60, 22, 131, 5, 60, 84, 178, 81, 60, 250, 86, 129, 189, 6, 203, 81, 189, 220, 1, 16, 60, 39, 149, 87, 61, 116, 59, 7, 189, 80, 26, 21, 189, 186, 187, 91, 188, 17, 161, 71, 189, 155, 200, 247, 60, 201, 181, 67, 189, 30, 217, 210, 59, 0, 7, 180, 60, 44, 74, 65, 60, 211, 42, 52, 189, 0, 170, 232, 184, 93, 146, 249, 60, 16, 236, 236, 187, 136, 125, 82, 189, 80, 71, 87, 189, 120, 174, 41, 61, 188, 27, 241, 188, 218, 219, 61, 189, 51, 128, 116, 188, 38, 83, 204, 60, 158, 8, 19, 61, 38, 186, 1, 189, 79, 222, 48, 189, 57, 124, 170, 58, 73, 92, 57, 189, 128, 219, 59, 186, 177, 1, 21, 59, 205, 136, 147, 189, 184, 111, 154, 188, 114, 244, 194, 60, 40, 73, 58, 60, 147, 145, 100, 189, 60, 179, 202, 188, 215, 124, 250, 188, 74, 51, 6, 189, 213, 15, 202, 188, 197, 246, 93, 189, 0, 2, 95, 59, 130, 26, 26, 60, 204, 21, 27, 61, 46, 206, 221, 187, 131, 191, 138, 189, 199, 119, 171, 188, 147, 228, 86, 60, 231, 142, 183, 60, 87, 97, 8, 60, 160, 145, 53, 188, 219, 60, 243, 188, 86, 136, 75, 189, 64, 78, 249, 59, 106, 130, 59, 61, 52, 175, 210, 59, 63, 242, 217, 58, 58, 100, 164, 60, 61, 234, 13, 58, 159, 64, 221, 59, 47, 1, 207, 187, 174, 155, 19, 189, 20, 237, 192, 59, 103, 91, 196, 188, 230, 7, 52, 189, 209, 216, 194, 188, 103, 84, 223, 187, 163, 33, 54, 61, 100, 141, 237, 188, 216, 175, 223, 187, 92, 96, 44, 188, 159, 28, 239, 59, 12, 173, 49, 61, 45, 120, 66, 189, 52, 249, 149, 60, 118, 11, 247, 188, 82, 82, 74, 189, 146, 50, 34, 188, 88, 210, 250, 188, 6, 137, 67, 189, 4, 199, 52, 185, 165, 99, 82, 189, 164, 110, 50, 189, 156, 217, 30, 61, 72, 94, 135, 59, 84, 241, 2, 189, 255, 73, 37, 189, 45, 36, 159, 60, 166, 206, 74, 188, 197, 31, 190, 188, 84, 39, 6, 189, 125, 56, 83, 189, 202, 175, 107, 189, 139, 188, 150, 60, 116, 244, 22, 189, 73, 191, 26, 188, 175, 96, 223, 187, 28, 78, 75, 189, 152, 144, 7, 189, 124, 187, 7, 60, 132, 10, 110, 188, 233, 74, 84, 60, 69, 25, 67, 188, 238, 245, 103, 61, 120, 237, 138, 60, 218, 28, 65, 189, 200, 100, 159, 56, 137, 59, 192, 188, 232, 133, 12, 189, 194, 118, 33, 189, 28, 55, 5, 189, 125, 150, 255, 188, 198, 69, 177, 60, 18, 73, 127, 60, 132, 179, 38, 61, 62, 142, 82, 189, 149, 20, 200, 188, 239, 5, 193, 60, 11, 249, 236, 60, 52, 130, 6, 61, 254, 82, 58, 189, 125, 171, 72, 189, 198, 55, 66, 189, 172, 238, 146, 61, 160, 101, 170, 60, 135, 230, 144, 59, 135, 132, 41, 189, 127, 91, 32, 61, 178, 176, 139, 188, 184, 216, 250, 59, 253, 116, 239, 60, 91, 119, 8, 61, 13, 124, 0, 61, 242, 97, 79, 187, 46, 16, 7, 61, 187, 243, 101, 60, 84, 235, 141, 188, 91, 235, 247, 59, 141, 40, 99, 61, 64, 150, 7, 61, 164, 160, 173, 59, 183, 74, 55, 189, 177, 132, 60, 61, 201, 1, 252, 60, 147, 72, 31, 189, 97, 158, 142, 188, 179, 210, 91, 189, 76, 103, 202, 60, 124, 215, 4, 189, 248, 63, 54, 189, 243, 36, 135, 188, 59, 21, 26, 189, 1, 100, 187, 188, 154, 12, 10, 61, 9, 98, 253, 188, 184, 234, 229, 60, 113, 220, 190, 60, 93, 19, 51, 188, 167, 137, 42, 60, 156, 184, 43, 60, 127, 33, 84, 59, 225, 129, 25, 189, 203, 20, 0, 60, 48, 217, 76, 188, 252, 70, 20, 188, 125, 140, 128, 189, 41, 73, 134, 189, 82, 183, 59, 189, 109, 202, 49, 61, 96, 188, 157, 60, 153, 236, 91, 188, 182, 249, 248, 188, 136, 189, 20, 189, 43, 10, 13, 61, 23, 12, 41, 189, 197, 154, 38, 189, 29, 19, 107, 188, 140, 72, 33, 61, 103, 157, 76, 189, 114, 240, 36, 61, 24, 176, 12, 189, 152, 24, 213, 60, 175, 58, 200, 188, 110, 190, 70, 60, 144, 53, 10, 188, 92, 132, 155, 60, 174, 77, 120, 59, 232, 16, 111, 60, 15, 32, 18, 61, 172, 41, 233, 60, 106, 16, 135, 58, 123, 180, 118, 189, 37, 135, 134, 189, 120, 116, 131, 60, 106, 241, 41, 61, 227, 67, 137, 59, 222, 14, 242, 188, 47, 26, 184, 188, 1, 158, 33, 61, 48, 88, 28, 189, 81, 107, 155, 188, 84, 48, 142, 189, 140, 209, 105, 187, 208, 211, 91, 61, 32, 22, 117, 60, 207, 206, 97, 60, 173, 246, 41, 189, 5, 100, 11, 60, 116, 190, 65, 61, 164, 205, 138, 60, 87, 145, 182, 188, 81, 49, 215, 58, 142, 91, 55, 61, 213, 208, 171, 60, 54, 156, 36, 61, 47, 3, 134, 59, 121, 170, 65, 189, 122, 126, 95, 60, 191, 237, 42, 61, 212, 134, 241, 60, 96, 102, 31, 189, 54, 114, 112, 189, 116, 208, 96, 61, 122, 214, 86, 61, 209, 42, 22, 189, 126, 123, 134, 189, 33, 211, 111, 189, 0, 253, 70, 189, 200, 223, 33, 61, 0, 108, 135, 188, 71, 242, 99, 60, 214, 172, 22, 188, 56, 132, 190, 60, 7, 228, 105, 188, 41, 29, 214, 188, 90, 59, 201, 60, 120, 212, 96, 60, 23, 34, 35, 189, 90, 242, 246, 186, 152, 169, 46, 189, 24, 167, 192, 59, 144, 170, 241, 188, 32, 95, 235, 188, 223, 138, 138, 188, 180, 186, 173, 60, 8, 10, 122, 189, 103, 19, 223, 60, 74, 80, 91, 60, 144, 128, 232, 188, 96, 65, 186, 59, 125, 0, 182, 188, 100, 74, 147, 189, 26, 175, 236, 59, 64, 141, 166, 58, 174, 232, 173, 188, 22, 245, 199, 188, 29, 172, 118, 189, 154, 108, 157, 186, 121, 63, 47, 61, 84, 230, 173, 60, 28, 172, 42, 189, 8, 191, 96, 189, 73, 8, 134, 188, 84, 150, 49, 61, 32, 113, 216, 186, 201, 102, 133, 189, 179, 224, 216, 188, 157, 213, 158, 188, 195, 121, 58, 60, 104, 17, 166, 60, 102, 148, 227, 60, 58, 247, 67, 189, 200, 116, 218, 60, 140, 137, 13, 189, 226, 117, 2, 61, 33, 56, 150, 60, 247, 99, 137, 189, 141, 136, 195, 60, 27, 137, 196, 188, 159, 51, 6, 189, 182, 254, 111, 188, 252, 240, 158, 59, 3, 50, 53, 188, 30, 237, 46, 59, 90, 51, 48, 189, 129, 153, 40, 189, 81, 32, 82, 189, 206, 244, 52, 61, 27, 117, 145, 61, 60, 221, 35, 60, 105, 230, 32, 58, 51, 230, 171, 59, 36, 158, 25, 61, 152, 51, 3, 61, 12, 101, 212, 60, 4, 26, 5, 61, 90, 164, 176, 187, 127, 244, 14, 189, 138, 180, 1, 61, 72, 246, 174, 188, 35, 74, 204, 60, 27, 58, 113, 189, 132, 113, 15, 188, 139, 132, 179, 60, 100, 97, 250, 60, 155, 117, 27, 189, 140, 190, 3, 188, 4, 73, 131, 60, 38, 93, 0, 61, 80, 223, 33, 61, 19, 157, 207, 188, 235, 239, 104, 60, 148, 245, 237, 60, 141, 186, 218, 60, 8, 192, 59, 61, 100, 197, 84, 189, 255, 17, 66, 188, 45, 240, 166, 187, 84, 163, 18, 189, 27, 74, 179, 59, 37, 49, 178, 60, 208, 221, 206, 188, 195, 53, 103, 189, 95, 15, 234, 60, 8, 237, 239, 60, 175, 179, 110, 60, 96, 238, 15, 189, 240, 114, 80, 61, 70, 171, 132, 188, 70, 169, 6, 189, 140, 146, 20, 60, 14, 189, 129, 187, 142, 204, 243, 60, 48, 100, 11, 60, 96, 90, 128, 58, 87, 98, 185, 188, 232, 136, 92, 188, 223, 42, 99, 60, 141, 53, 39, 61, 250, 179, 4, 61, 230, 137, 250, 59, 194, 237, 110, 59, 60, 140, 87, 61, 115, 61, 225, 58, 200, 141, 169, 187, 225, 15, 5, 189, 110, 31, 4, 187, 95, 50, 99, 187, 201, 237, 51, 59, 72, 124, 111, 60, 198, 252, 113, 189, 29, 157, 243, 188, 147, 198, 165, 60, 56, 245, 228, 188, 72, 173, 63, 188, 57, 32, 208, 59, 161, 34, 21, 61, 80, 28, 25, 188, 163, 77, 156, 188, 114, 25, 55, 189, 60, 211, 49, 58, 78, 72, 82, 189, 216, 143, 65, 61, 155, 189, 190, 184, 200, 34, 131, 187, 37, 101, 246, 188, 220, 40, 29, 61, 125, 60, 246, 60, 85, 93, 3, 61, 130, 181, 62, 189, 87, 148, 110, 60, 143, 159, 247, 188, 155, 154, 75, 59, 133, 88, 136, 61, 114, 208, 204, 188, 196, 54, 25, 189, 75, 19, 112, 189, 80, 241, 145, 60, 97, 192, 241, 60, 103, 246, 174, 188, 61, 188, 141, 189, 102, 147, 118, 189, 224, 36, 206, 188, 27, 203, 23, 61, 62, 241, 15, 189, 132, 69, 210, 60, 178, 241, 116, 189, 245, 151, 248, 60, 214, 169, 223, 188, 116, 188, 31, 61, 194, 68, 21, 189, 21, 31, 147, 188, 142, 38, 123, 187, 218, 151, 81, 58, 136, 156, 58, 189, 67, 69, 58, 189, 81, 84, 155, 188, 213, 251, 40, 189, 197, 123, 186, 188, 85, 62, 162, 188, 158, 53, 195, 59, 167, 26, 50, 189, 131, 91, 54, 60, 182, 67, 76, 188, 112, 188, 210, 186, 168, 136, 157, 189, 108, 27, 58, 189, 144, 133, 144, 188, 251, 30, 60, 61, 188, 6, 155, 188, 135, 175, 58, 59, 188, 246, 36, 60, 14, 10, 212, 187, 29, 9, 0, 189, 68, 229, 220, 60, 3, 125, 40, 189, 245, 211, 184, 60, 58, 27, 176, 188, 241, 114, 154, 58, 24, 68, 57, 189, 188, 5, 118, 189, 106, 197, 62, 189, 42, 215, 159, 188, 131, 88, 51, 61, 0, 134, 52, 60, 231, 161, 91, 189, 98, 251, 238, 58, 104, 26, 87, 188, 94, 219, 43, 61, 104, 123, 146, 187, 167, 110, 28, 60, 174, 19, 59, 189, 197, 243, 29, 189, 5, 149, 100, 188, 239, 230, 147, 188, 207, 44, 196, 59, 250, 145, 111, 189, 65, 86, 133, 188, 66, 36, 101, 61, 192, 92, 167, 187, 180, 139, 157, 60, 246, 182, 242, 60, 119, 16, 166, 60, 238, 252, 110, 61, 140, 81, 253, 60, 219, 60, 212, 188, 29, 193, 59, 189, 143, 120, 113, 60, 164, 244, 44, 189, 96, 0, 77, 187, 103, 149, 83, 189, 117, 63, 176, 60, 119, 10, 72, 60, 46, 18, 11, 61, 254, 97, 49, 189, 215, 185, 134, 189, 83, 123, 99, 189, 217, 190, 127, 188, 23, 109, 219, 60, 142, 200, 56, 61, 248, 128, 100, 189, 16, 27, 143, 189, 232, 218, 29, 189, 224, 235, 236, 188, 44, 244, 58, 61, 208, 47, 18, 188, 116, 126, 137, 60, 56, 254, 181, 60, 7, 112, 49, 61, 76, 15, 82, 60, 112, 108, 251, 187, 234, 236, 66, 189, 198, 26, 139, 186, 171, 139, 161, 60, 46, 240, 24, 61, 199, 204, 189, 188, 147, 28, 115, 60, 48, 8, 35, 189, 150, 154, 6, 61, 200, 168, 14, 188, 208, 188, 246, 59, 166, 218, 142, 189, 127, 69, 97, 188, 73, 248, 20, 61, 108, 178, 68, 189, 231, 162, 10, 61, 3, 142, 35, 60, 127, 232, 83, 189, 26, 81, 247, 59, 88, 115, 162, 59, 223, 114, 5, 61, 74, 60, 146, 184, 87, 137, 230, 60, 213, 178, 79, 61, 196, 40, 246, 59, 246, 208, 130, 188, 53, 182, 177, 60, 162, 19, 169, 188, 63, 193, 192, 60, 92, 221, 225, 60, 88, 3, 14, 189, 10, 68, 248, 188, 25, 204, 0, 188, 170, 136, 41, 60, 51, 86, 229, 188, 233, 230, 73, 59, 72, 157, 120, 59, 130, 190, 10, 61, 132, 53, 144, 60, 88, 89, 220, 188, 98, 48, 75, 189, 13, 101, 196, 188, 225, 33, 187, 60, 238, 131, 67, 61, 240, 44, 227, 60, 94, 62, 62, 187, 216, 31, 128, 189, 158, 115, 12, 60, 94, 25, 242, 188, 184, 156, 199, 60, 194, 108, 6, 61, 20, 217, 188, 186, 159, 199, 21, 61, 60, 48, 213, 187, 187, 234, 193, 188, 79, 47, 182, 60, 205, 190, 171, 187, 8, 239, 99, 59, 194, 112, 12, 60, 74, 22, 43, 61, 201, 53, 128, 189, 119, 98, 136, 189, 234, 199, 16, 188, 97, 125, 213, 60, 43, 189, 199, 188, 239, 246, 148, 188, 114, 111, 102, 189, 163, 238, 33, 60, 24, 217, 43, 61, 192, 40, 110, 58, 203, 202, 84, 189, 148, 124, 239, 58, 147, 145, 197, 60, 150, 161, 62, 61, 32, 9, 222, 186, 197, 253, 2, 189, 80, 159, 87, 187, 38, 192, 162, 188, 214, 166, 45, 61, 0, 5, 157, 60, 136, 96, 161, 189, 180, 196, 52, 60, 118, 45, 229, 187, 65, 137, 216, 60, 9, 169, 11, 189, 58, 195, 166, 188, 69, 77, 36, 189, 192, 12, 140, 186, 126, 76, 196, 60, 158, 184, 5, 189, 179, 194, 62, 189, 155, 53, 140, 189, 152, 232, 147, 189, 222, 226, 183, 187, 2, 47, 24, 61, 165, 154, 82, 188, 178, 228, 44, 189, 226, 39, 36, 189, 106, 21, 24, 61, 152, 111, 193, 59, 127, 122, 236, 187, 176, 130, 113, 186, 228, 53, 30, 61, 200, 227, 187, 60, 196, 160, 49, 188, 46, 220, 202, 60, 18, 202, 9, 189, 66, 219, 46, 188, 38, 19, 146, 60, 83, 185, 52, 189, 206, 105, 130, 189, 68, 136, 59, 188, 156, 234, 130, 188, 97, 139, 59, 61, 80, 132, 36, 188, 115, 240, 52, 187, 176, 129, 204, 188, 17, 56, 72, 60, 204, 173, 73, 61, 96, 1, 35, 61, 195, 162, 248, 188, 133, 229, 42, 189, 9, 20, 120, 61, 39, 226, 238, 188, 168, 53, 237, 60, 88, 202, 86, 189, 82, 27, 132, 188, 95, 116, 166, 60, 185, 61, 220, 60, 184, 8, 232, 188, 230, 25, 214, 60, 2, 159, 212, 184, 98, 205, 157, 58, 199, 237, 23, 188, 8, 75, 63, 189, 215, 139, 53, 189, 4, 179, 48, 60, 247, 42, 196, 188, 77, 99, 185, 60, 79, 59, 24, 61, 27, 239, 248, 59, 110, 42, 209, 188, 190, 119, 41, 60, 198, 162, 172, 188, 52, 224, 146, 60, 138, 58, 12, 61, 117, 75, 104, 60, 46, 35, 228, 188, 249, 242, 54, 61, 28, 40, 243, 60, 205, 202, 39, 186, 163, 88, 71, 189, 18, 232, 161, 188, 150, 150, 25, 189, 236, 33, 63, 189, 89, 15, 243, 60, 237, 165, 131, 188, 25, 196, 234, 188, 10, 22, 84, 187, 69, 5, 203, 188, 45, 197, 237, 188, 147, 21, 18, 189, 161, 246, 97, 189, 35, 243, 106, 59, 186, 94, 215, 188, 74, 40, 39, 59, 152, 133, 123, 189, 83, 74, 74, 188, 181, 158, 49, 61, 32, 82, 151, 188, 10, 164, 202, 188, 142, 229, 136, 60, 101, 114, 98, 61, 38, 156, 184, 59, 152, 132, 204, 188, 26, 216, 18, 189, 45, 240, 112, 188, 180, 177, 15, 61, 94, 52, 7, 189, 32, 136, 27, 187, 77, 77, 210, 188, 134, 191, 87, 189, 1, 49, 45, 61, 9, 122, 221, 60, 76, 85, 149, 60, 107, 100, 246, 60, 151, 73, 222, 60, 133, 87, 19, 189, 229, 68, 65, 60, 44, 252, 229, 60, 98, 30, 85, 188, 26, 17, 56, 57, 60, 207, 42, 189, 245, 36, 226, 60, 248, 112, 198, 59, 219, 226, 12, 60, 86, 174, 38, 188, 4, 194, 220, 188, 79, 84, 116, 61, 44, 9, 41, 188, 100, 8, 149, 59, 241, 181, 211, 60, 198, 190, 29, 60, 162, 178, 123, 188, 92, 178, 35, 61, 161, 4, 15, 57, 168, 148, 169, 188, 128, 199, 41, 61, 239, 217, 64, 61, 100, 221, 183, 60, 103, 246, 6, 189, 11, 250, 145, 187, 25, 42, 252, 188, 198, 225, 198, 188, 236, 199, 168, 59, 195, 39, 62, 189, 235, 38, 189, 60, 74, 203, 16, 188, 80, 139, 5, 189, 200, 224, 58, 61, 94, 154, 226, 60, 147, 242, 50, 189, 143, 115, 146, 188, 162, 87, 24, 58, 55, 234, 216, 188, 126, 11, 135, 188, 186, 100, 246, 188, 111, 145, 195, 188, 110, 138, 207, 60, 112, 160, 28, 187, 25, 107, 49, 189, 229, 25, 35, 188, 177, 4, 25, 189, 132, 188, 33, 189, 172, 19, 165, 60, 45, 64, 229, 188, 175, 209, 77, 189, 174, 204, 70, 58, 7, 112, 207, 188, 240, 200, 242, 59, 2, 66, 13, 189, 117, 209, 101, 189, 227, 108, 154, 188, 51, 172, 78, 189, 16, 92, 106, 60, 159, 122, 201, 60, 251, 38, 223, 188, 182, 7, 252, 188, 220, 151, 46, 188, 174, 214, 30, 61, 146, 23, 226, 59, 122, 16, 146, 188, 214, 71, 61, 61, 155, 243, 68, 189, 188, 8, 29, 60, 161, 152, 47, 58, 111, 49, 204, 60, 162, 127, 42, 189, 81, 64, 152, 188, 164, 152, 217, 60, 184, 84, 79, 186, 160, 94, 244, 59, 130, 92, 135, 188, 29, 7, 126, 61, 124, 201, 19, 189, 141, 22, 6, 189, 103, 241, 61, 60, 59, 120, 143, 59, 17, 104, 227, 188, 222, 232, 65, 189, 122, 1, 205, 188, 109, 189, 102, 189, 187, 227, 241, 60, 122, 149, 0, 61, 52, 182, 214, 60, 132, 50, 103, 59, 245, 47, 95, 189, 177, 238, 217, 60, 238, 32, 210, 188, 128, 162, 119, 59, 135, 163, 35, 189, 60, 226, 87, 189, 46, 243, 2, 61, 40, 41, 228, 60, 38, 114, 27, 189, 54, 60, 14, 189, 122, 78, 221, 188, 155, 96, 253, 188, 239, 86, 253, 60, 122, 45, 8, 189, 140, 156, 63, 189, 206, 70, 78, 189, 181, 142, 129, 185, 69, 66, 250, 58, 0, 57, 212, 58, 106, 92, 95, 189, 52, 36, 14, 59, 117, 110, 8, 189, 68, 120, 149, 188, 168, 133, 111, 60, 26, 12, 42, 187, 38, 184, 180, 60, 123, 27, 62, 189, 54, 90, 205, 188, 216, 183, 19, 61, 196, 212, 58, 188, 112, 24, 15, 189, 82, 159, 189, 188, 111, 107, 42, 186, 104, 46, 66, 61, 81, 77, 135, 187, 132, 34, 166, 60, 88, 154, 62, 189, 196, 121, 106, 60, 168, 218, 49, 189, 195, 102, 31, 189, 73, 5, 226, 187, 236, 77, 184, 60, 236, 43, 143, 188, 208, 39, 111, 187, 26, 31, 242, 186, 231, 40, 216, 188, 159, 43, 7, 189, 203, 28, 250, 188, 27, 2, 26, 60, 174, 197, 68, 60, 89, 14, 221, 188, 74, 74, 50, 61, 138, 138, 20, 189, 156, 116, 49, 61, 79, 105, 221, 57, 187, 198, 98, 187, 149, 65, 24, 189, 98, 16, 79, 60, 56, 175, 157, 59, 68, 194, 213, 60, 144, 101, 128, 189, 72, 135, 140, 185, 127, 97, 33, 188, 43, 193, 187, 60, 30, 148, 140, 188, 248, 190, 192, 188, 39, 44, 36, 61, 191, 187, 252, 188, 106, 12, 15, 61, 150, 86, 115, 58, 119, 148, 22, 59, 161, 93, 19, 61, 222, 104, 19, 189, 93, 29, 234, 188, 93, 86, 183, 59, 183, 153, 24, 58, 94, 108, 24, 189, 167, 217, 35, 61, 156, 120, 15, 189, 134, 141, 181, 187, 154, 48, 240, 60, 65, 32, 91, 60, 52, 34, 61, 187, 164, 231, 39, 61, 212, 93, 124, 189, 233, 165, 136, 189, 67, 80, 52, 61, 110, 185, 62, 61, 80, 59, 255, 60, 205, 187, 167, 60, 126, 93, 7, 189, 163, 139, 149, 188, 164, 38, 17, 189, 132, 200, 245, 60, 176, 174, 121, 189, 85, 133, 18, 189, 116, 103, 131, 59, 123, 248, 4, 60, 176, 29, 32, 188, 45, 105, 145, 187, 136, 145, 190, 188, 236, 26, 86, 189, 126, 171, 106, 60, 179, 113, 193, 188, 237, 14, 244, 60, 162, 7, 221, 188, 124, 25, 9, 61, 113, 231, 33, 61, 128, 144, 204, 57, 58, 169, 194, 188, 99, 144, 201, 60, 240, 48, 94, 60, 214, 147, 77, 60, 144, 82, 185, 187, 98, 206, 164, 60, 15, 141, 183, 188, 88, 6, 28, 188, 127, 81, 236, 60, 159, 66, 42, 189, 185, 57, 32, 189, 155, 1, 186, 60, 63, 69, 237, 60, 143, 97, 198, 188, 176, 247, 21, 189, 77, 213, 125, 189, 220, 170, 140, 189, 39, 27, 28, 61, 23, 194, 181, 60, 92, 149, 9, 189, 226, 114, 160, 188, 124, 21, 129, 60, 20, 80, 117, 188, 75, 72, 47, 61, 252, 225, 250, 60, 82, 169, 235, 188, 151, 3, 186, 60, 114, 101, 130, 60, 249, 105, 223, 60, 144, 185, 37, 60, 41, 11, 2, 189, 37, 108, 105, 189, 97, 231, 175, 188, 215, 150, 247, 60, 129, 124, 176, 60, 93, 237, 200, 60, 17, 185, 217, 188, 111, 59, 68, 189, 179, 105, 137, 60, 92, 170, 98, 186, 224, 204, 16, 189, 86, 77, 148, 59, 163, 175, 44, 189, 209, 160, 9, 61, 17, 75, 241, 188, 60, 137, 72, 189, 195, 52, 235, 186, 84, 232, 98, 189, 10, 211, 24, 61, 76, 31, 157, 188, 30, 102, 80, 189, 130, 94, 97, 189, 231, 218, 32, 61, 254, 102, 235, 59, 184, 121, 0, 60, 215, 207, 52, 189, 4, 172, 39, 188, 153, 236, 194, 60, 187, 92, 99, 61, 70, 54, 60, 61, 28, 98, 170, 187, 132, 75, 228, 187, 11, 24, 149, 188, 150, 25, 157, 188, 5, 85, 49, 189, 174, 70, 14, 188, 149, 143, 26, 189, 88, 25, 147, 186, 156, 137, 206, 188, 100, 178, 182, 60, 119, 172, 165, 60, 110, 171, 56, 189, 239, 250, 155, 188, 189, 22, 87, 60, 244, 213, 15, 61, 208, 133, 244, 60, 79, 175, 94, 188, 179, 239, 101, 189, 187, 7, 143, 60, 85, 14, 57, 189, 198, 245, 181, 188, 157, 140, 3, 61, 169, 64, 51, 189, 53, 212, 112, 59, 224, 253, 43, 189, 64, 103, 143, 188, 188, 179, 246, 60, 173, 4, 68, 61, 89, 217, 20, 60, 95, 181, 4, 189, 72, 21, 102, 188, 227, 169, 206, 59, 117, 78, 32, 189, 141, 111, 27, 60, 32, 109, 214, 59, 94, 93, 228, 188, 53, 222, 165, 188, 204, 142, 240, 59, 10, 204, 2, 61, 213, 141, 139, 188, 25, 227, 33, 189, 76, 171, 86, 189, 125, 9, 28, 61, 139, 62, 83, 59, 158, 178, 163, 187, 22, 249, 221, 188, 73, 69, 58, 60, 21, 166, 54, 188, 208, 25, 97, 61, 20, 202, 30, 189, 129, 192, 27, 189, 114, 125, 211, 60, 67, 215, 36, 61, 109, 174, 231, 60, 96, 44, 19, 187, 7, 58, 167, 188, 230, 183, 163, 187, 74, 141, 27, 188, 7, 96, 185, 187, 60, 148, 42, 61, 206, 89, 168, 188, 166, 95, 60, 60, 31, 202, 69, 59, 244, 173, 84, 60, 234, 205, 36, 61, 18, 137, 0, 188, 128, 79, 8, 60, 148, 96, 205, 60, 47, 13, 165, 61, 130, 125, 212, 188, 135, 36, 80, 189, 137, 142, 42, 61, 120, 234, 233, 60, 130, 121, 191, 60, 192, 173, 179, 188, 155, 203, 23, 189, 107, 155, 227, 188, 116, 96, 44, 189, 200, 69, 40, 61, 198, 8, 45, 61, 240, 137, 27, 60, 48, 152, 22, 187, 254, 246, 84, 61, 62, 117, 52, 188, 4, 141, 223, 188, 14, 2, 187, 60, 51, 242, 137, 189, 148, 101, 132, 61, 64, 166, 2, 189, 180, 82, 159, 60, 115, 59, 54, 189, 84, 93, 54, 58, 34, 41, 15, 189, 76, 108, 3, 61, 124, 72, 61, 188, 139, 227, 162, 188, 74, 224, 83, 61, 152, 50, 113, 189, 188, 53, 94, 189, 133, 85, 168, 188, 59, 27, 255, 188, 31, 1, 63, 188, 165, 60, 239, 188, 188, 45, 107, 189, 180, 14, 53, 61, 218, 242, 11, 56, 141, 230, 161, 60, 49, 41, 37, 189, 51, 208, 76, 189, 28, 163, 19, 60, 242, 225, 197, 60, 252, 183, 45, 60, 150, 45, 251, 188, 110, 49, 129, 61, 174, 15, 168, 188, 210, 112, 157, 60, 207, 243, 142, 189, 157, 28, 65, 188, 255, 243, 31, 189, 139, 84, 228, 188, 185, 50, 23, 189, 3, 140, 18, 189, 81, 160, 141, 60, 80, 179, 162, 61, 196, 44, 93, 188, 50, 235, 94, 60, 135, 233, 35, 61, 25, 52, 126, 188, 100, 228, 1, 61, 190, 163, 54, 189, 19, 171, 55, 61, 142, 38, 43, 61, 10, 227, 58, 188, 32, 34, 105, 188, 47, 76, 63, 189, 43, 101, 146, 60, 128, 141, 54, 189, 149, 13, 204, 188, 207, 79, 207, 60, 162, 99, 2, 61, 221, 124, 125, 61, 183, 110, 172, 188, 102, 1, 95, 187, 97, 29, 130, 61, 232, 136, 0, 188, 242, 245, 12, 188, 108, 56, 31, 61, 171, 96, 25, 188, 101, 241, 131, 188, 84, 195, 59, 61, 119, 138, 72, 61, 44, 122, 7, 189, 133, 86, 83, 189, 72, 86, 14, 188, 216, 113, 13, 60, 134, 231, 59, 60, 34, 89, 3, 60, 150, 62, 132, 60, 235, 47, 99, 188, 172, 191, 159, 60, 168, 165, 164, 59, 30, 161, 55, 189, 94, 166, 74, 61, 101, 78, 82, 59, 96, 53, 189, 188, 157, 103, 119, 187, 56, 77, 94, 189, 124, 183, 127, 61, 141, 24, 239, 60, 140, 238, 44, 188, 121, 182, 142, 60, 114, 92, 34, 189, 51, 233, 12, 189, 211, 35, 0, 187, 12, 75, 240, 60, 108, 47, 227, 60, 138, 254, 46, 189, 40, 41, 69, 60, 47, 178, 217, 188, 142, 216, 180, 188, 88, 80, 197, 188, 56, 236, 5, 189, 207, 193, 151, 188, 100, 226, 107, 60, 118, 202, 5, 189, 27, 139, 60, 61, 192, 74, 147, 188, 199, 180, 236, 186, 51, 63, 157, 59, 210, 90, 34, 61, 18, 234, 89, 61, 50, 99, 117, 61, 225, 163, 219, 188, 41, 10, 93, 189, 0, 45, 202, 187, 169, 233, 23, 188, 145, 40, 147, 60, 129, 102, 147, 188, 214, 224, 147, 188, 44, 157, 35, 189, 143, 30, 178, 60, 214, 93, 208, 59, 213, 118, 120, 61, 7, 185, 83, 188, 92, 211, 173, 60, 17, 120, 167, 61, 254, 183, 192, 188, 213, 234, 31, 189, 28, 185, 226, 186, 228, 200, 253, 60, 90, 95, 22, 189, 101, 131, 53, 61, 154, 98, 176, 60, 29, 98, 253, 60, 200, 214, 94, 60, 32, 110, 143, 61, 27, 247, 26, 61, 241, 48, 42, 60, 136, 54, 102, 189, 240, 111, 45, 188, 214, 16, 46, 60, 170, 127, 60, 61, 228, 195, 31, 189, 102, 21, 197, 188, 36, 6, 64, 61, 236, 29, 132, 61, 240, 193, 164, 188, 252, 220, 46, 189, 18, 146, 137, 60, 216, 49, 147, 60, 247, 228, 45, 61, 113, 227, 221, 59, 238, 34, 184, 60, 41, 79, 213, 186, 229, 180, 40, 189, 226, 101, 138, 61, 180, 227, 95, 58, 196, 173, 163, 60, 124, 100, 3, 61, 28, 182, 52, 60, 103, 154, 118, 60, 219, 226, 70, 189, 128, 237, 39, 189, 184, 254, 192, 188, 64, 6, 64, 188, 6, 137, 177, 187, 203, 79, 255, 60, 16, 239, 77, 61, 85, 24, 223, 188, 248, 57, 206, 59, 6, 26, 32, 61, 126, 0, 61, 188, 246, 86, 30, 61, 207, 190, 238, 60, 188, 80, 209, 188, 150, 2, 38, 188, 82, 241, 136, 60, 183, 222, 223, 60, 8, 183, 163, 61, 204, 9, 53, 60, 214, 31, 38, 189, 156, 190, 75, 60, 233, 149, 205, 188, 126, 191, 70, 61, 172, 228, 96, 188, 65, 9, 84, 61, 250, 3, 51, 189, 47, 52, 71, 188, 5, 167, 108, 188, 182, 29, 49, 61, 252, 20, 46, 60, 242, 12, 119, 186, 5, 61, 7, 61, 211, 27, 140, 60, 64, 5, 86, 58, 6, 62, 136, 61, 72, 233, 201, 187, 41, 234, 182, 59, 189, 210, 171, 60, 160, 1, 33, 188, 185, 249, 173, 60, 204, 83, 109, 188, 78, 108, 135, 60, 141, 227, 42, 60, 192, 40, 31, 188, 63, 229, 82, 61, 204, 28, 215, 60, 205, 72, 225, 60, 183, 67, 237, 60, 136, 210, 223, 59, 109, 192, 110, 188, 36, 170, 191, 188, 98, 135, 169, 56, 205, 221, 229, 188, 92, 210, 21, 188, 208, 22, 97, 187, 15, 194, 235, 59, 105, 91, 187, 60, 5, 187, 173, 60, 164, 254, 131, 60, 149, 143, 106, 61, 87, 54, 204, 60, 134, 126, 38, 188, 181, 75, 203, 60, 184, 229, 212, 60, 7, 105, 105, 60, 25, 170, 95, 60, 203, 188, 15, 189, 82, 47, 157, 61, 172, 202, 114, 188, 18, 24, 77, 188, 139, 202, 238, 188, 229, 151, 27, 61, 74, 53, 71, 60, 74, 93, 177, 188, 23, 169, 35, 188, 17, 31, 170, 188, 39, 199, 35, 188, 64, 241, 55, 61, 5, 172, 21, 189, 65, 178, 156, 60, 28, 174, 178, 188, 220, 45, 78, 61, 188, 171, 89, 61, 33, 101, 61, 189, 99, 201, 124, 188, 249, 119, 191, 60, 19, 136, 22, 61, 25, 141, 123, 61, 92, 93, 31, 61, 174, 20, 136, 59, 252, 255, 53, 61, 28, 12, 128, 61, 89, 179, 129, 61, 124, 78, 7, 61, 169, 19, 65, 189, 71, 75, 139, 188, 74, 38, 34, 61, 84, 232, 6, 61, 22, 121, 59, 189, 147, 48, 11, 188, 139, 175, 59, 59, 31, 81, 97, 61, 162, 145, 27, 61, 176, 221, 208, 60, 192, 195, 189, 60, 105, 158, 204, 60, 206, 113, 38, 189, 228, 100, 134, 60, 152, 70, 46, 188, 105, 177, 31, 60, 28, 106, 40, 61, 233, 133, 222, 188, 213, 239, 56, 61, 218, 169, 167, 188, 93, 136, 87, 60, 0, 2, 47, 60, 156, 168, 208, 60, 234, 152, 233, 188, 60, 147, 81, 188, 58, 40, 156, 187, 163, 243, 218, 188, 157, 169, 29, 60, 18, 230, 3, 61, 220, 163, 249, 60, 143, 253, 240, 59, 245, 131, 21, 188, 195, 40, 235, 188, 111, 118, 44, 61, 6, 57, 176, 188, 239, 43, 246, 60, 110, 114, 140, 59, 153, 97, 130, 61, 251, 77, 159, 58, 160, 19, 222, 59, 49, 161, 76, 188, 174, 94, 44, 189, 37, 198, 44, 189, 161, 158, 147, 60, 192, 34, 242, 188, 212, 96, 70, 59, 22, 152, 36, 61, 11, 208, 207, 188, 172, 154, 124, 61, 0, 137, 196, 59, 7, 124, 131, 58, 54, 195, 3, 188, 180, 152, 28, 61, 159, 18, 68, 61, 252, 179, 101, 60, 216, 31, 67, 61, 181, 157, 216, 188, 109, 2, 114, 61, 194, 152, 213, 60, 105, 118, 191, 188, 61, 138, 30, 60, 181, 223, 65, 61, 54, 83, 184, 60, 156, 230, 239, 59, 212, 234, 12, 60, 179, 104, 36, 61, 98, 213, 23, 189, 206, 193, 203, 59, 207, 116, 114, 61, 24, 74, 9, 188, 146, 0, 1, 188, 159, 2, 231, 60, 48, 90, 226, 59, 135, 240, 14, 61, 0, 180, 199, 185, 230, 224, 180, 61, 232, 28, 10, 59, 136, 95, 1, 189, 166, 6, 64, 188, 216, 26, 246, 59, 141, 112, 64, 188, 60, 132, 160, 60, 30, 196, 172, 187, 96, 8, 78, 61, 41, 32, 50, 189, 68, 212, 113, 61, 246, 100, 184, 60, 206, 178, 36, 61, 76, 218, 155, 61, 120, 210, 244, 187, 17, 237, 79, 188, 56, 20, 21, 189, 21, 15, 180, 188, 119, 96, 159, 61, 222, 22, 22, 61, 221, 63, 217, 188, 172, 82, 18, 59, 222, 222, 138, 60, 133, 6, 253, 60, 172, 242, 60, 61, 181, 171, 55, 61, 113, 140, 165, 60, 66, 113, 158, 188, 18, 112, 33, 60, 176, 219, 243, 59, 132, 248, 201, 188, 234, 241, 46, 189, 125, 245, 56, 61, 250, 252, 189, 61, 176, 86, 144, 187, 172, 0, 60, 60, 72, 143, 38, 61, 153, 184, 15, 188, 131, 9, 55, 61, 174, 158, 23, 189, 143, 197, 242, 187, 199, 154, 8, 61, 104, 11, 39, 188, 150, 140, 12, 61, 26, 5, 55, 61, 215, 218, 42, 61, 94, 28, 142, 60, 82, 172, 172, 60, 245, 39, 227, 60, 195, 85, 42, 189, 115, 86, 56, 189, 91, 155, 187, 188, 213, 57, 71, 61, 105, 164, 181, 60, 192, 170, 34, 61, 4, 130, 157, 188, 227, 8, 106, 60, 64, 178, 231, 60, 222, 160, 47, 61, 111, 12, 60, 189, 163, 127, 138, 60, 237, 224, 146, 61, 56, 9, 41, 60, 68, 82, 194, 61, 171, 22, 250, 188, 189, 63, 177, 187, 182, 254, 74, 61, 67, 121, 18, 61, 94, 208, 86, 61, 160, 53, 174, 187, 177, 188, 40, 189, 198, 32, 3, 61, 33, 174, 108, 61, 214, 56, 31, 61, 244, 134, 8, 189, 64, 179, 40, 61, 169, 32, 66, 188, 78, 102, 150, 60, 164, 81, 192, 186, 207, 50, 52, 61, 250, 29, 43, 61, 130, 90, 217, 188, 161, 230, 188, 186, 21, 233, 224, 188, 36, 18, 15, 188, 129, 242, 15, 61, 220, 9, 15, 61, 146, 50, 140, 60, 80, 131, 191, 188, 44, 142, 4, 61, 163, 216, 52, 61, 200, 210, 222, 188, 92, 112, 142, 61, 219, 84, 61, 61, 104, 195, 90, 188, 136, 68, 147, 60, 71, 89, 77, 61, 27, 242, 45, 188, 77, 23, 16, 61, 124, 44, 1, 188, 145, 176, 248, 60, 0, 30, 166, 60, 116, 250, 15, 61, 131, 5, 131, 61, 240, 72, 36, 187, 197, 245, 14, 61, 83, 157, 206, 188, 103, 171, 48, 60, 115, 42, 34, 60, 140, 236, 237, 60, 143, 131, 67, 61, 50, 32, 66, 61, 10, 60, 183, 60, 131, 253, 146, 61, 66, 102, 65, 61, 183, 2, 200, 186, 55, 79, 47, 61, 141, 120, 80, 61, 154, 108, 216, 60, 245, 48, 227, 60, 80, 152, 238, 60, 90, 49, 199, 60, 11, 54, 119, 60, 187, 208, 121, 188, 167, 67, 17, 189, 181, 48, 110, 189, 97, 17, 27, 188, 34, 155, 245, 185, 214, 207, 249, 60, 65, 42, 250, 188, 216, 101, 186, 60, 4, 212, 174, 60, 198, 73, 93, 188, 240, 163, 119, 61, 224, 34, 151, 59, 69, 41, 242, 188, 112, 203, 223, 186, 181, 239, 129, 61, 108, 183, 44, 61, 208, 33, 58, 61, 66, 211, 71, 61, 55, 149, 42, 61, 214, 121, 0, 61, 210, 173, 6, 61, 248, 217, 57, 60, 205, 118, 62, 61, 23, 244, 134, 188, 210, 76, 70, 59, 62, 3, 67, 61, 139, 132, 197, 188, 164, 242, 60, 61, 75, 160, 27, 61, 231, 229, 125, 61, 127, 102, 238, 60, 104, 4, 142, 59, 225, 184, 54, 61, 165, 154, 136, 188, 248, 68, 166, 61, 178, 182, 175, 60, 88, 197, 143, 187, 197, 20, 62, 60, 157, 196, 128, 61, 51, 83, 96, 61, 237, 167, 79, 61, 254, 231, 66, 61, 126, 220, 180, 60, 39, 67, 100, 61, 6, 8, 108, 60, 232, 183, 143, 188, 78, 11, 162, 188, 144, 64, 137, 61, 125, 161, 170, 61, 5, 55, 59, 60, 107, 208, 28, 61, 102, 143, 5, 189, 155, 246, 238, 188, 6, 2, 196, 60, 94, 136, 84, 61, 54, 43, 61, 61, 188, 255, 10, 188, 54, 135, 95, 61, 118, 50, 22, 61, 162, 252, 82, 61, 204, 40, 181, 58, 151, 101, 21, 189, 253, 80, 17, 188, 30, 238, 191, 60, 253, 212, 89, 60, 111, 150, 144, 59, 161, 114, 45, 189, 50, 103, 73, 61, 143, 6, 136, 60, 114, 223, 11, 188, 34, 207, 91, 187, 252, 35, 37, 61, 60, 188, 17, 189, 96, 81, 130, 188, 52, 37, 160, 61, 115, 166, 136, 61, 22, 71, 8, 61, 16, 120, 131, 60, 231, 214, 8, 188, 33, 223, 15, 60, 224, 179, 182, 60, 172, 152, 79, 60, 150, 118, 105, 187, 126, 227, 112, 61, 139, 220, 228, 56, 233, 78, 13, 188, 96, 135, 98, 60, 113, 219, 95, 58, 150, 234, 116, 61, 30, 84, 133, 61, 209, 106, 143, 188, 168, 253, 215, 188, 49, 34, 255, 60, 131, 220, 186, 60, 190, 160, 91, 60, 42, 157, 72, 60, 200, 7, 47, 60, 139, 89, 167, 188, 69, 35, 9, 189, 44, 162, 151, 188, 250, 147, 17, 61, 60, 31, 26, 189, 225, 50, 64, 187, 105, 20, 198, 60, 167, 64, 122, 188, 33, 168, 168, 60, 0, 118, 113, 186, 155, 111, 109, 61, 148, 20, 171, 59, 173, 160, 96, 189, 195, 201, 185, 188, 246, 242, 11, 189, 159, 70, 172, 187, 222, 208, 225, 60, 244, 158, 54, 188, 27, 238, 63, 189, 146, 174, 180, 188, 250, 46, 121, 61, 201, 147, 39, 60, 93, 71, 153, 188, 219, 41, 100, 189, 142, 169, 65, 61, 245, 46, 253, 187, 202, 248, 4, 188, 4, 153, 32, 59, 51, 85, 178, 189, 95, 211, 15, 189, 31, 98, 99, 61, 67, 168, 188, 60, 222, 201, 70, 60, 17, 219, 28, 189, 244, 48, 133, 188, 132, 103, 61, 61, 215, 68, 101, 61, 51, 99, 72, 189, 5, 183, 7, 189, 140, 234, 30, 188, 5, 195, 26, 61, 49, 63, 60, 61, 139, 22, 131, 60, 2, 227, 94, 189, 228, 106, 40, 188, 153, 247, 165, 187, 150, 170, 44, 61, 116, 216, 169, 188, 239, 119, 91, 189, 13, 88, 180, 188, 141, 213, 129, 61, 78, 235, 54, 188, 209, 65, 85, 187, 195, 40, 158, 189, 129, 150, 34, 189, 220, 7, 56, 61, 123, 65, 185, 60, 105, 182, 96, 189, 142, 110, 54, 189, 91, 116, 167, 188, 95, 125, 49, 60, 133, 135, 41, 189, 194, 140, 44, 61, 192, 2, 5, 189, 39, 217, 217, 188, 178, 161, 233, 60, 251, 142, 194, 188, 24, 188, 47, 60, 146, 244, 49, 187, 125, 50, 29, 189, 45, 244, 99, 61, 241, 112, 33, 189, 90, 244, 1, 61, 194, 154, 130, 189, 218, 67, 56, 189, 157, 74, 15, 189, 153, 86, 38, 189, 253, 195, 12, 189, 193, 91, 20, 189, 124, 255, 86, 188, 194, 8, 128, 188, 251, 49, 209, 188, 145, 243, 96, 60, 192, 243, 113, 188, 148, 185, 0, 61, 228, 49, 233, 188, 158, 174, 235, 187, 235, 90, 106, 189, 248, 89, 5, 188, 93, 145, 218, 188, 238, 111, 13, 189, 17, 114, 16, 61, 174, 156, 32, 189, 66, 20, 52, 189, 72, 179, 160, 187, 141, 112, 94, 61, 129, 38, 65, 187, 83, 52, 130, 188, 43, 172, 41, 60, 240, 35, 174, 187, 76, 213, 132, 188, 62, 156, 111, 186, 211, 147, 21, 189, 92, 144, 30, 188, 120, 193, 65, 60, 104, 97, 116, 61, 84, 201, 144, 61, 186, 48, 66, 189, 42, 32, 189, 189, 96, 56, 32, 61, 119, 179, 153, 60, 220, 230, 137, 188, 114, 129, 191, 60, 30, 49, 7, 60, 172, 218, 31, 189, 26, 133, 177, 59, 202, 34, 79, 61, 27, 24, 119, 61, 77, 93, 252, 187, 28, 102, 2, 61, 81, 65, 105, 61, 37, 205, 109, 60, 247, 61, 24, 61, 228, 143, 202, 186, 29, 42, 210, 188, 155, 232, 83, 60, 218, 70, 61, 61, 23, 83, 24, 189, 252, 22, 118, 60, 188, 245, 189, 60, 94, 74, 55, 188, 63, 109, 238, 184, 103, 187, 152, 188, 199, 49, 17, 189, 16, 127, 73, 59, 205, 147, 221, 57, 190, 134, 45, 61, 211, 50, 239, 60, 150, 133, 69, 61, 150, 205, 53, 189, 58, 249, 50, 58, 166, 233, 193, 188, 169, 23, 65, 61, 47, 10, 164, 188, 13, 98, 138, 188, 19, 52, 214, 188, 120, 208, 228, 60, 49, 236, 57, 189, 239, 42, 56, 187, 40, 81, 182, 57, 158, 239, 6, 188, 97, 99, 212, 188, 24, 196, 20, 61, 238, 161, 31, 61, 129, 11, 25, 189, 135, 165, 33, 188, 111, 238, 3, 60, 39, 126, 192, 60, 150, 130, 229, 60, 155, 121, 65, 189, 120, 188, 222, 188, 212, 90, 37, 61, 198, 226, 95, 60, 46, 235, 152, 60, 24, 238, 187, 188, 161, 139, 5, 189, 194, 172, 23, 189, 187, 0, 187, 59, 65, 101, 161, 60, 128, 12, 47, 61, 249, 121, 99, 59, 170, 14, 255, 60, 118, 97, 146, 61, 53, 99, 61, 61, 219, 34, 158, 188, 165, 6, 203, 188, 181, 221, 165, 61, 29, 144, 164, 61, 57, 159, 178, 188, 192, 61, 168, 60, 217, 153, 228, 187, 199, 241, 183, 59, 15, 84, 63, 188, 41, 77, 239, 187, 40, 63, 231, 60, 67, 84, 178, 188, 57, 226, 182, 187, 195, 70, 220, 60, 37, 87, 105, 61, 77, 77, 38, 189, 213, 245, 26, 61, 210, 201, 202, 60, 15, 43, 230, 188, 202, 229, 68, 61, 180, 96, 10, 61, 80, 237, 73, 61, 13, 19, 130, 61, 248, 81, 54, 61, 250, 13, 124, 189, 8, 1, 190, 60, 199, 50, 195, 187, 250, 85, 151, 61, 13, 162, 62, 61, 108, 180, 104, 188, 208, 2, 249, 187, 159, 237, 130, 188, 154, 249, 79, 59, 52, 48, 50, 189, 249, 120, 85, 60, 125, 243, 34, 189, 92, 129, 26, 189, 156, 218, 50, 61, 188, 74, 130, 189, 149, 42, 51, 188, 192, 118, 86, 187, 231, 85, 140, 61, 146, 9, 2, 61, 92, 214, 177, 186, 109, 39, 160, 189, 200, 123, 36, 61, 65, 177, 130, 187, 75, 143, 103, 61, 108, 129, 241, 60, 92, 193, 139, 59, 92, 199, 18, 188, 199, 18, 115, 60, 65, 6, 70, 61, 121, 10, 62, 59, 133, 250, 41, 60, 48, 80, 85, 188, 83, 81, 242, 188, 115, 176, 92, 188, 230, 162, 74, 60, 120, 220, 5, 60, 69, 39, 242, 188, 197, 94, 73, 59, 247, 63, 12, 189, 126, 24, 51, 189, 127, 167, 51, 189, 21, 70, 43, 189, 74, 11, 81, 61, 51, 35, 168, 58, 251, 49, 115, 188, 163, 163, 102, 189, 218, 135, 231, 188, 191, 234, 190, 59, 159, 64, 21, 61, 152, 247, 231, 188, 158, 105, 254, 186, 208, 139, 109, 59, 229, 70, 78, 61, 255, 148, 90, 61, 84, 238, 128, 188, 137, 206, 178, 59, 44, 140, 43, 189, 68, 240, 35, 187, 245, 0, 117, 61, 34, 40, 48, 189, 63, 188, 116, 187, 220, 189, 10, 61, 125, 185, 180, 185, 149, 80, 42, 188, 75, 113, 142, 189, 76, 45, 72, 59, 104, 199, 235, 59, 151, 8, 5, 61, 181, 80, 112, 187, 118, 119, 13, 189, 37, 13, 142, 189, 132, 79, 68, 61, 253, 162, 21, 189, 227, 242, 91, 187, 59, 51, 183, 60, 86, 33, 115, 189, 208, 23, 240, 60, 215, 5, 77, 60, 194, 46, 47, 188, 162, 143, 211, 188, 10, 139, 51, 60, 176, 83, 136, 187, 83, 200, 41, 61, 160, 236, 84, 61, 79, 138, 210, 188, 193, 13, 214, 187, 240, 93, 218, 187, 43, 141, 63, 61, 20, 7, 236, 60, 139, 26, 132, 189, 84, 251, 208, 187, 116, 159, 145, 60, 245, 182, 8, 188, 202, 199, 211, 59, 109, 158, 26, 189, 247, 97, 72, 189, 53, 164, 94, 188, 191, 9, 114, 61, 156, 99, 223, 188, 59, 43, 116, 60, 90, 230, 213, 186, 190, 205, 115, 60, 223, 188, 129, 60, 201, 20, 26, 189, 143, 153, 217, 59, 237, 73, 19, 188, 148, 230, 47, 61, 195, 133, 139, 60, 177, 206, 21, 189, 178, 217, 94, 189, 108, 102, 40, 189, 216, 157, 174, 59, 165, 129, 43, 61, 206, 229, 39, 61, 104, 94, 27, 188, 197, 62, 149, 60, 72, 192, 194, 60, 37, 91, 93, 60, 108, 40, 59, 61, 154, 42, 86, 189, 120, 178, 235, 60, 76, 83, 142, 60, 76, 192, 41, 189, 228, 132, 135, 188, 227, 11, 209, 184, 211, 167, 94, 61, 32, 196, 204, 59, 249, 113, 101, 58, 158, 214, 201, 60, 182, 171, 44, 60, 199, 162, 236, 60, 12, 82, 70, 188, 22, 55, 59, 60, 154, 209, 1, 61, 17, 206, 143, 189, 255, 117, 93, 60, 128, 202, 185, 58, 189, 19, 254, 188, 110, 195, 16, 59, 5, 52, 228, 187, 209, 158, 70, 189, 132, 117, 10, 61, 8, 22, 198, 187, 250, 223, 1, 61, 55, 161, 133, 189, 152, 203, 3, 187, 60, 86, 208, 60, 160, 238, 28, 61, 142, 177, 51, 59, 174, 51, 68, 189, 133, 148, 169, 58, 130, 144, 37, 61, 181, 104, 64, 61, 8, 91, 19, 58, 128, 173, 105, 189, 183, 102, 224, 60, 150, 53, 26, 61, 173, 150, 168, 60, 244, 229, 22, 61, 167, 172, 193, 60, 83, 85, 173, 186, 40, 198, 23, 188, 157, 6, 51, 61, 193, 214, 118, 61, 7, 97, 3, 189, 199, 25, 220, 59, 180, 206, 35, 189, 43, 237, 211, 59, 245, 40, 244, 188, 217, 75, 96, 58, 216, 210, 213, 188, 60, 134, 39, 189, 228, 30, 4, 59, 56, 212, 60, 188, 47, 191, 197, 188, 103, 138, 25, 61, 137, 167, 42, 189, 62, 148, 217, 188, 144, 199, 74, 60, 168, 37, 31, 189, 98, 40, 112, 189, 88, 190, 150, 60, 51, 242, 42, 187, 179, 62, 223, 59, 86, 61, 252, 60, 253, 13, 60, 189, 76, 88, 189, 60, 146, 58, 121, 61, 170, 26, 0, 61, 169, 39, 236, 60, 4, 242, 135, 60, 92, 243, 22, 189, 228, 136, 144, 60, 22, 236, 193, 188, 200, 155, 139, 188, 243, 197, 230, 187, 32, 170, 124, 60, 241, 229, 93, 61, 227, 62, 160, 187, 19, 129, 53, 189, 129, 237, 90, 188, 78, 170, 33, 189, 199, 17, 229, 188, 96, 178, 187, 60, 30, 59, 182, 60, 83, 97, 230, 60, 37, 194, 201, 188, 96, 5, 84, 61, 150, 156, 0, 60, 174, 116, 124, 61, 111, 120, 215, 184, 171, 121, 174, 188, 221, 28, 116, 59, 219, 66, 182, 60, 230, 185, 139, 59, 181, 44, 194, 60, 148, 10, 65, 60, 80, 86, 29, 59, 113, 221, 209, 57, 254, 135, 48, 61, 184, 173, 1, 189, 152, 40, 220, 59, 120, 222, 14, 189, 49, 249, 112, 61, 224, 149, 158, 60, 7, 49, 97, 61, 160, 233, 181, 60, 98, 12, 103, 188, 29, 2, 69, 188, 117, 90, 84, 189, 163, 44, 52, 61, 128, 200, 224, 60, 42, 138, 18, 60, 59, 218, 113, 61, 72, 29, 80, 189, 219, 2, 227, 58, 102, 176, 9, 189, 100, 216, 154, 60, 19, 24, 158, 60, 210, 213, 36, 189, 224, 90, 89, 61, 184, 94, 224, 59, 217, 175, 99, 61, 207, 238, 132, 187, 202, 184, 186, 60, 191, 39, 70, 61, 150, 132, 132, 188, 247, 18, 223, 60, 102, 114, 21, 61, 31, 148, 158, 58, 195, 184, 56, 189, 204, 65, 68, 188, 114, 24, 17, 189, 126, 114, 207, 188, 91, 84, 188, 60, 87, 239, 42, 59, 224, 13, 107, 59, 242, 38, 50, 61, 254, 191, 96, 188, 232, 165, 115, 189, 47, 3, 44, 59, 124, 94, 125, 188, 6, 162, 26, 60, 177, 220, 41, 60, 131, 83, 45, 189, 35, 246, 92, 186, 91, 204, 22, 189, 185, 119, 47, 61, 24, 153, 178, 60, 216, 166, 213, 188, 43, 134, 30, 188, 84, 43, 98, 188, 214, 2, 197, 59, 86, 44, 227, 187, 161, 213, 92, 187, 228, 182, 45, 60, 168, 132, 32, 189, 220, 64, 118, 188, 117, 199, 226, 188, 195, 221, 179, 189, 109, 127, 100, 61, 229, 107, 41, 189, 159, 186, 227, 188, 0, 11, 89, 189, 61, 249, 157, 186, 88, 42, 132, 189, 210, 200, 11, 61, 36, 66, 249, 187, 24, 0, 242, 188, 8, 77, 24, 189, 202, 200, 33, 189, 224, 244, 0, 61, 178, 132, 204, 60, 34, 36, 189, 188, 136, 166, 53, 188, 41, 222, 38, 189, 176, 51, 177, 60, 250, 142, 117, 60, 18, 252, 149, 188, 173, 208, 128, 60, 29, 76, 69, 189, 8, 53, 218, 60, 162, 97, 224, 188, 243, 146, 8, 189, 49, 224, 144, 188, 46, 97, 186, 60, 123, 133, 146, 188, 64, 125, 134, 187, 116, 206, 189, 188, 190, 129, 166, 60, 216, 170, 128, 60, 60, 228, 129, 60, 176, 156, 226, 187, 200, 179, 180, 187, 104, 226, 165, 61, 136, 93, 128, 59, 90, 195, 167, 188, 25, 210, 5, 189, 36, 88, 9, 189, 169, 39, 143, 188, 232, 94, 107, 61, 76, 165, 43, 61, 82, 16, 30, 61, 21, 240, 42, 187, 199, 63, 134, 188, 149, 195, 128, 61, 6, 209, 8, 61, 199, 112, 12, 61, 141, 12, 86, 188, 93, 50, 47, 61, 198, 149, 30, 61, 84, 150, 15, 60, 23, 246, 35, 61, 188, 155, 38, 189, 99, 147, 10, 61, 250, 225, 25, 188, 78, 70, 57, 61, 60, 99, 112, 59, 205, 34, 225, 188, 107, 108, 129, 61, 150, 116, 24, 58, 128, 44, 167, 187, 152, 76, 54, 61, 179, 148, 10, 188, 116, 169, 168, 60, 237, 93, 4, 189, 32, 53, 121, 60, 216, 26, 175, 61, 127, 112, 130, 61, 196, 247, 34, 189, 10, 117, 141, 60, 80, 173, 30, 59, 243, 27, 37, 61, 93, 247, 247, 60, 204, 165, 198, 187, 200, 162, 39, 188, 26, 133, 11, 61, 146, 87, 156, 59, 36, 180, 87, 61, 51, 87, 178, 188, 54, 102, 108, 60, 42, 177, 23, 189, 50, 17, 160, 60, 237, 178, 106, 61, 11, 111, 174, 60, 149, 143, 196, 60, 168, 110, 83, 60, 225, 125, 121, 61, 195, 55, 112, 61, 107, 189, 84, 61, 51, 112, 155, 188, 123, 165, 220, 188, 14, 44, 188, 60, 148, 97, 53, 61, 162, 241, 234, 60, 238, 43, 186, 186, 248, 253, 185, 59, 236, 186, 151, 188, 19, 126, 154, 60, 88, 101, 165, 188, 196, 56, 20, 189, 32, 100, 193, 186, 196, 33, 21, 61, 91, 36, 149, 60, 110, 171, 187, 188, 164, 2, 108, 188, 40, 71, 145, 60, 235, 119, 52, 61, 177, 108, 67, 60, 79, 5, 157, 60, 105, 56, 98, 188, 52, 241, 165, 60, 156, 54, 112, 61, 4, 135, 145, 61, 220, 183, 74, 61, 59, 47, 150, 188, 252, 90, 26, 61, 191, 78, 127, 61, 173, 255, 182, 59, 246, 15, 8, 187, 181, 245, 117, 189, 92, 62, 214, 60, 168, 244, 117, 58, 45, 8, 135, 188, 131, 82, 181, 187, 6, 224, 183, 188, 224, 174, 21, 61, 6, 142, 171, 60, 92, 114, 5, 188, 31, 127, 164, 188, 104, 170, 48, 61, 136, 84, 56, 189, 22, 110, 44, 61, 155, 9, 154, 59, 20, 133, 41, 187, 47, 55, 95, 189, 200, 43, 232, 60, 60, 45, 133, 61, 50, 11, 161, 58, 70, 92, 158, 60, 141, 138, 253, 187, 184, 63, 177, 187, 133, 24, 149, 188, 32, 75, 101, 61, 188, 90, 57, 188, 255, 222, 174, 60, 230, 96, 38, 61, 105, 226, 202, 188, 66, 70, 70, 61, 225, 67, 129, 60, 139, 132, 218, 60, 208, 170, 115, 60, 152, 139, 178, 60, 35, 230, 60, 61, 81, 37, 42, 189, 5, 28, 36, 61, 120, 242, 190, 60, 36, 42, 116, 61, 118, 193, 28, 60, 176, 175, 178, 59, 249, 198, 96, 189, 65, 137, 192, 188, 157, 101, 230, 59, 53, 253, 17, 189, 249, 107, 220, 188, 204, 240, 251, 188, 44, 248, 253, 60, 154, 197, 133, 60, 65, 90, 207, 188, 237, 201, 39, 189, 76, 200, 185, 60, 224, 221, 61, 188, 113, 167, 140, 60, 143, 228, 78, 61, 199, 235, 55, 187, 88, 222, 98, 189, 142, 75, 231, 188, 132, 34, 60, 61, 240, 12, 145, 187, 16, 195, 31, 61, 172, 226, 12, 189, 96, 218, 34, 189, 14, 76, 38, 188, 51, 15, 238, 187, 100, 132, 152, 59, 121, 52, 47, 189, 144, 60, 9, 187, 182, 238, 229, 59, 225, 86, 76, 185, 108, 40, 144, 59, 146, 239, 208, 60, 12, 228, 132, 60, 12, 162, 58, 61, 219, 53, 23, 61, 8, 172, 82, 60, 37, 68, 63, 61, 44, 240, 41, 60, 189, 71, 8, 189, 180, 171, 56, 61, 243, 188, 5, 61, 67, 182, 14, 61, 224, 183, 38, 189, 23, 92, 158, 187, 154, 150, 6, 188, 182, 167, 38, 61, 74, 194, 123, 61, 11, 165, 160, 188, 173, 133, 189, 57, 252, 153, 11, 61, 213, 147, 123, 189, 4, 71, 150, 61, 80, 163, 18, 60, 181, 111, 87, 60, 156, 158, 192, 60, 22, 132, 52, 61, 35, 142, 132, 61, 140, 211, 212, 60, 186, 161, 47, 61, 152, 14, 8, 61, 126, 107, 194, 187, 108, 116, 91, 188, 128, 6, 44, 189, 209, 75, 44, 188, 113, 126, 251, 59, 72, 174, 87, 61, 172, 219, 129, 61, 190, 250, 156, 188, 55, 15, 50, 61, 41, 106, 158, 188, 179, 96, 132, 188, 15, 211, 166, 60, 32, 1, 167, 186, 164, 188, 154, 60, 122, 9, 245, 187, 8, 172, 45, 60, 135, 96, 124, 61, 40, 176, 182, 188, 68, 24, 40, 61, 33, 232, 218, 60, 144, 251, 198, 60, 134, 94, 93, 61, 95, 153, 179, 188, 147, 252, 48, 61, 77, 240, 132, 188, 9, 163, 195, 60, 184, 32, 92, 61, 144, 88, 244, 60, 165, 236, 45, 61, 203, 133, 28, 61, 247, 76, 11, 189, 123, 64, 221, 186, 132, 112, 29, 189, 212, 78, 59, 61, 128, 42, 66, 61, 229, 198, 141, 188, 59, 183, 131, 61, 115, 45, 152, 188, 134, 78, 18, 60, 203, 45, 198, 188, 247, 167, 130, 188, 52, 146, 0, 61, 251, 253, 238, 188, 215, 138, 185, 60, 162, 54, 85, 61, 99, 14, 120, 61, 233, 140, 99, 61, 212, 134, 138, 60, 204, 46, 11, 61, 89, 71, 11, 61, 208, 232, 227, 187, 64, 96, 28, 61, 144, 170, 119, 188, 240, 182, 214, 60, 27, 55, 157, 59, 213, 185, 137, 59, 216, 183, 140, 61, 14, 51, 36, 61, 191, 178, 109, 188, 189, 213, 247, 60, 197, 221, 229, 60, 236, 160, 131, 61, 128, 25, 116, 59, 105, 191, 6, 61, 13, 165, 48, 189, 43, 35, 91, 61, 69, 38, 101, 61, 188, 11, 90, 60, 229, 198, 210, 187, 198, 74, 124, 59, 14, 211, 77, 60, 188, 173, 115, 61, 20, 5, 202, 60, 1, 204, 81, 61, 158, 153, 23, 60, 21, 242, 158, 187, 181, 141, 99, 61, 49, 206, 62, 189, 114, 13, 21, 60, 15, 44, 89, 188, 39, 247, 101, 61, 72, 242, 164, 61, 56, 52, 102, 188, 38, 66, 218, 60, 162, 166, 17, 61, 248, 167, 88, 61, 241, 81, 203, 187, 192, 247, 236, 186, 164, 30, 163, 188, 71, 168, 125, 61, 234, 90, 82, 61, 88, 4, 224, 60, 64, 21, 3, 189, 151, 117, 30, 189, 7, 227, 131, 60, 171, 12, 253, 60, 246, 231, 137, 60, 62, 62, 135, 188, 99, 37, 78, 61, 87, 126, 5, 189, 7, 167, 251, 60, 200, 162, 157, 60, 226, 25, 68, 189, 143, 201, 11, 61, 100, 215, 20, 60, 68, 252, 183, 60, 27, 26, 151, 61, 152, 245, 148, 60, 9, 37, 11, 61, 34, 182, 231, 60, 126, 255, 125, 60, 39, 88, 88, 188, 212, 66, 54, 61, 75, 28, 52, 61, 213, 86, 118, 188, 73, 1, 99, 188, 188, 216, 123, 60, 96, 89, 248, 186, 156, 170, 5, 188, 151, 219, 182, 60, 104, 170, 53, 60, 231, 164, 141, 188, 200, 143, 6, 188, 52, 19, 98, 188, 159, 164, 128, 187, 165, 190, 130, 60, 149, 244, 44, 61, 189, 235, 36, 189, 219, 81, 253, 60, 72, 161, 76, 61, 128, 89, 52, 60, 54, 225, 60, 61, 46, 41, 42, 61, 72, 30, 119, 188, 208, 24, 65, 60, 190, 72, 238, 188, 135, 165, 83, 61, 24, 221, 54, 188, 37, 166, 174, 60, 90, 40, 189, 59, 17, 126, 147, 188, 132, 220, 128, 61, 225, 150, 143, 188, 15, 133, 70, 61, 84, 114, 59, 188, 119, 150, 193, 60, 204, 46, 175, 59, 12, 128, 72, 60, 225, 118, 144, 61, 249, 21, 28, 188, 102, 146, 82, 61, 245, 179, 121, 61, 76, 198, 38, 189, 223, 23, 245, 188, 88, 132, 66, 61, 43, 149, 232, 60, 202, 223, 110, 60, 112, 106, 131, 188, 59, 68, 171, 188, 155, 100, 14, 189, 235, 69, 199, 60, 189, 175, 12, 61, 15, 4, 240, 188, 11, 250, 19, 188, 40, 170, 34, 59, 250, 187, 151, 60, 54, 212, 171, 188, 228, 70, 216, 60, 120, 215, 77, 61, 246, 138, 87, 61, 65, 29, 217, 60, 167, 41, 42, 188, 60, 180, 201, 60, 244, 113, 135, 61, 183, 76, 242, 188, 166, 69, 139, 59, 90, 244, 188, 60, 187, 76, 226, 188, 187, 37, 33, 60, 95, 50, 224, 60, 15, 222, 77, 61, 75, 226, 159, 60, 112, 132, 209, 60, 208, 233, 133, 61, 58, 217, 118, 188, 8, 244, 0, 189, 63, 117, 116, 58, 250, 97, 7, 189, 54, 168, 0, 187, 92, 58, 118, 60, 198, 42, 101, 186, 157, 77, 59, 59, 142, 104, 171, 188, 64, 112, 132, 61, 20, 88, 162, 60, 61, 93, 60, 61, 125, 39, 84, 188, 132, 90, 52, 61, 244, 154, 92, 61, 77, 176, 89, 61, 247, 201, 118, 60, 133, 50, 247, 60, 25, 32, 20, 189, 249, 142, 170, 185, 85, 48, 59, 60, 225, 147, 10, 60, 35, 24, 138, 58, 32, 57, 225, 186, 248, 110, 8, 189, 134, 58, 167, 60, 203, 34, 5, 61, 122, 183, 59, 61, 192, 146, 22, 58, 231, 139, 146, 188, 140, 96, 66, 61, 250, 65, 11, 61, 121, 5, 1, 61, 244, 139, 22, 60, 87, 63, 7, 60, 200, 25, 30, 61, 89, 102, 168, 60, 101, 168, 168, 59, 12, 213, 130, 60, 180, 185, 41, 60, 54, 116, 62, 61, 29, 254, 208, 59, 203, 179, 149, 61, 60, 109, 138, 60, 206, 208, 255, 187, 2, 178, 141, 60, 188, 41, 99, 61, 197, 100, 7, 60, 28, 95, 43, 60, 117, 14, 73, 61, 120, 165, 128, 60, 159, 186, 146, 61, 206, 204, 83, 61, 64, 57, 202, 188, 80, 83, 135, 188, 150, 99, 82, 61, 194, 27, 96, 61, 31, 70, 16, 61, 176, 125, 65, 61, 178, 82, 17, 61, 100, 169, 76, 60, 172, 2, 46, 61, 75, 222, 67, 61, 112, 224, 240, 60, 28, 128, 82, 61, 25, 114, 67, 59, 222, 88, 143, 61, 253, 118, 145, 61, 250, 223, 15, 61, 175, 82, 36, 61, 140, 60, 46, 61, 85, 97, 155, 61, 42, 182, 100, 188, 126, 116, 254, 188, 177, 219, 188, 188, 135, 236, 173, 60, 192, 165, 130, 61, 17, 156, 249, 188, 112, 41, 0, 189, 232, 182, 155, 188, 40, 120, 81, 61, 184, 82, 72, 61, 150, 176, 125, 60, 176, 171, 206, 59, 68, 111, 78, 61, 46, 233, 180, 188, 204, 187, 29, 61, 67, 99, 186, 188, 192, 136, 121, 187, 66, 87, 1, 61, 35, 227, 101, 188, 187, 115, 215, 60, 168, 66, 97, 60, 64, 105, 44, 60, 107, 178, 1, 61, 138, 218, 101, 60, 161, 203, 34, 59, 101, 137, 211, 188, 250, 232, 39, 61, 178, 208, 149, 61, 120, 66, 96, 61, 22, 88, 104, 61, 200, 156, 38, 60, 230, 118, 43, 58, 211, 154, 18, 187, 132, 73, 233, 59, 138, 49, 27, 61, 87, 118, 2, 60, 36, 82, 29, 61, 174, 123, 210, 57, 131, 1, 233, 60, 62, 166, 151, 188, 16, 99, 82, 60, 192, 202, 188, 186, 234, 63, 176, 187, 239, 47, 193, 188, 206, 229, 6, 189, 127, 111, 129, 60, 92, 167, 191, 60, 222, 239, 47, 188, 192, 198, 165, 60, 176, 133, 140, 59, 224, 14, 129, 61, 236, 254, 249, 60, 142, 178, 194, 187, 209, 79, 68, 188, 71, 128, 61, 61, 184, 183, 226, 58, 18, 110, 27, 59, 34, 13, 42, 61, 52, 12, 156, 59, 57, 141, 1, 61, 169, 105, 239, 59, 160, 87, 135, 60, 215, 67, 84, 61, 140, 218, 3, 61, 141, 123, 147, 186, 154, 172, 102, 60, 117, 194, 31, 189, 112, 99, 245, 188, 120, 254, 75, 61, 71, 89, 94, 188, 26, 22, 119, 61, 178, 240, 26, 61, 67, 0, 25, 61, 52, 29, 155, 188, 200, 240, 199, 188, 124, 226, 203, 59, 92, 237, 96, 188, 45, 100, 70, 61, 25, 140, 137, 60, 224, 238, 78, 61, 113, 3, 155, 61, 21, 102, 221, 188, 66, 21, 180, 60, 19, 148, 96, 60, 227, 162, 13, 189, 207, 96, 144, 60, 64, 211, 100, 187, 61, 40, 28, 61, 15, 41, 96, 59, 116, 48, 20, 187, 169, 128, 56, 188, 208, 50, 2, 61, 101, 61, 146, 60, 77, 89, 73, 61, 143, 119, 63, 61, 251, 183, 139, 188, 224, 242, 105, 59, 172, 83, 15, 61, 26, 228, 45, 189, 31, 241, 122, 60, 99, 216, 140, 188, 244, 193, 243, 60, 126, 31, 8, 61, 66, 53, 79, 61, 251, 133, 136, 187, 128, 118, 175, 188, 112, 173, 246, 187, 207, 107, 5, 60, 150, 172, 61, 61, 47, 130, 128, 61, 239, 118, 87, 61, 84, 82, 6, 61, 75, 9, 80, 61, 41, 175, 138, 61, 51, 224, 198, 185, 122, 60, 240, 60, 160, 193, 172, 188, 174, 66, 30, 61, 22, 228, 230, 187, 15, 218, 37, 189, 152, 134, 225, 60, 182, 244, 25, 61, 115, 215, 102, 61, 107, 47, 40, 61, 44, 31, 29, 189, 196, 196, 32, 60, 150, 212, 129, 188, 9, 140, 134, 58, 251, 141, 24, 188, 197, 10, 2, 189, 152, 55, 129, 61, 156, 248, 202, 60, 111, 84, 76, 61, 142, 25, 116, 61, 238, 112, 88, 61, 204, 100, 165, 60, 84, 207, 98, 60, 133, 102, 137, 61, 235, 115, 45, 188, 10, 105, 190, 60, 199, 223, 253, 60, 254, 164, 46, 61, 21, 179, 90, 188, 127, 50, 33, 61, 193, 188, 17, 60, 148, 142, 33, 59, 74, 174, 24, 61, 71, 253, 158, 60, 158, 147, 129, 188, 1, 17, 57, 189, 2, 203, 22, 61, 246, 68, 37, 61, 37, 2, 73, 185, 210, 111, 174, 60, 76, 47, 226, 60, 149, 205, 198, 188, 2, 22, 3, 61, 241, 69, 129, 61, 4, 232, 108, 187, 197, 208, 252, 188, 93, 74, 139, 61, 0, 201, 177, 57, 227, 180, 132, 188, 174, 78, 28, 61, 76, 19, 61, 61, 177, 222, 1, 61, 52, 167, 48, 189, 31, 95, 14, 189, 179, 130, 79, 188, 143, 242, 91, 61, 71, 0, 31, 61, 64, 48, 37, 188, 4, 90, 30, 188, 99, 56, 143, 188, 73, 206, 13, 61, 144, 221, 49, 61, 32, 229, 7, 189, 229, 201, 87, 61, 182, 16, 65, 61, 248, 229, 131, 188, 255, 17, 37, 61, 233, 108, 36, 61, 92, 123, 227, 60, 212, 19, 199, 59, 98, 175, 243, 188, 222, 216, 58, 60, 26, 216, 232, 188, 136, 54, 84, 61, 97, 159, 129, 188, 71, 157, 173, 188, 206, 109, 19, 61, 237, 90, 9, 189, 177, 25, 50, 61, 230, 171, 161, 188, 251, 198, 7, 61, 231, 187, 37, 60, 104, 5, 250, 60, 25, 191, 107, 61, 241, 230, 15, 61, 105, 19, 219, 187, 12, 162, 86, 61, 70, 234, 141, 188, 172, 151, 37, 188, 182, 98, 193, 188, 33, 183, 94, 188, 130, 254, 72, 61, 0, 229, 126, 185, 99, 35, 134, 187, 24, 246, 19, 59, 41, 199, 111, 61, 149, 92, 233, 188, 17, 137, 159, 188, 51, 107, 138, 61, 211, 65, 46, 61, 146, 185, 163, 60, 20, 248, 23, 59, 64, 180, 148, 188, 16, 201, 4, 60, 70, 23, 200, 60, 89, 135, 12, 189, 42, 68, 21, 61, 224, 183, 137, 59, 118, 125, 3, 61, 161, 4, 167, 187, 194, 33, 209, 60, 57, 123, 113, 60, 96, 84, 8, 189, 9, 241, 11, 61, 124, 54, 103, 61, 236, 152, 22, 187, 84, 59, 21, 61, 200, 187, 117, 60, 177, 68, 152, 188, 44, 225, 6, 188, 55, 147, 59, 61, 200, 254, 110, 61, 172, 53, 13, 61, 166, 239, 208, 60, 143, 91, 245, 60, 249, 218, 26, 60, 118, 12, 117, 61, 128, 250, 19, 60, 176, 149, 95, 61, 184, 145, 165, 61, 108, 150, 16, 61, 243, 20, 77, 60, 120, 104, 135, 188, 0, 206, 2, 189, 3, 164, 16, 61, 249, 216, 249, 188, 113, 59, 164, 60, 216, 78, 230, 187, 189, 16, 19, 61, 203, 4, 134, 188, 127, 32, 35, 189, 158, 175, 160, 60, 4, 178, 147, 188, 191, 150, 220, 188, 83, 175, 28, 188, 53, 226, 100, 60, 90, 216, 192, 59, 176, 52, 198, 187, 19, 43, 233, 60, 172, 215, 148, 187, 241, 52, 210, 60, 121, 180, 44, 61, 54, 220, 28, 61, 165, 207, 83, 61, 66, 102, 192, 60, 76, 227, 58, 61, 53, 3, 1, 61, 195, 128, 227, 188, 204, 38, 89, 61, 19, 167, 53, 188, 246, 94, 16, 60, 239, 230, 241, 60, 32, 236, 133, 60, 7, 208, 11, 188, 22, 204, 38, 61, 196, 166, 49, 60, 99, 56, 201, 188, 128, 112, 25, 188, 40, 72, 54, 61, 81, 1, 17, 188, 53, 194, 181, 188, 39, 25, 22, 189, 208, 155, 26, 189, 164, 110, 9, 188, 121, 232, 76, 186, 93, 241, 189, 59, 64, 40, 221, 188, 240, 168, 167, 60, 139, 143, 121, 60, 4, 19, 114, 60, 47, 23, 91, 60, 192, 85, 209, 60, 4, 106, 155, 60, 198, 182, 200, 188, 94, 107, 61, 61, 217, 84, 8, 189, 233, 182, 121, 61, 32, 120, 225, 58, 78, 142, 103, 61, 179, 230, 66, 61, 159, 34, 26, 60, 249, 19, 227, 60, 136, 85, 99, 60, 193, 41, 76, 188, 196, 62, 135, 61, 28, 125, 131, 59, 166, 18, 21, 189, 224, 209, 129, 60, 80, 241, 105, 187, 167, 75, 251, 60, 126, 36, 118, 59, 238, 21, 34, 188, 220, 71, 191, 60, 156, 12, 12, 58, 163, 198, 2, 61, 162, 138, 74, 189, 204, 58, 18, 61, 144, 240, 116, 60, 104, 190, 207, 60, 40, 228, 170, 60, 28, 12, 74, 61, 199, 234, 43, 61, 32, 90, 120, 187, 8, 208, 193, 188, 144, 155, 250, 60, 214, 57, 216, 186, 2, 6, 233, 188, 74, 59, 47, 61, 199, 210, 40, 61, 127, 40, 60, 60, 218, 236, 12, 60, 214, 239, 88, 61, 68, 23, 68, 60, 133, 157, 177, 60, 221, 40, 135, 60, 177, 224, 11, 188, 188, 120, 217, 60, 94, 5, 38, 61, 35, 73, 141, 60, 97, 228, 18, 61, 190, 219, 15, 189, 90, 108, 233, 60, 197, 158, 193, 60, 53, 194, 103, 61, 61, 217, 177, 59, 201, 11, 89, 61, 133, 233, 16, 61, 88, 43, 44, 61, 221, 121, 17, 189, 86, 207, 52, 61, 200, 40, 11, 61, 108, 112, 42, 61, 144, 165, 32, 61, 49, 110, 173, 188, 251, 175, 91, 61, 247, 139, 109, 61, 202, 68, 183, 185, 184, 227, 26, 61, 17, 84, 201, 186, 186, 76, 7, 61, 236, 98, 217, 59, 41, 183, 191, 60, 197, 91, 15, 189, 133, 65, 204, 187, 27, 140, 236, 60, 134, 166, 214, 188, 63, 231, 25, 60, 229, 84, 11, 189, 20, 42, 24, 189, 65, 94, 0, 61, 71, 69, 235, 188, 15, 71, 145, 60, 220, 114, 125, 188, 178, 217, 59, 61, 232, 253, 61, 61, 245, 135, 118, 188, 230, 2, 85, 60, 216, 6, 29, 189, 143, 184, 101, 188, 3, 174, 114, 188, 234, 45, 55, 187, 96, 123, 211, 188, 246, 27, 15, 189, 213, 82, 94, 61, 58, 218, 173, 187, 26, 29, 159, 60, 171, 31, 146, 58, 62, 177, 31, 61, 87, 214, 164, 61, 194, 194, 42, 188, 23, 103, 10, 60, 76, 13, 53, 60, 220, 143, 146, 60, 170, 182, 114, 61, 155, 181, 128, 188, 63, 37, 197, 60, 236, 89, 85, 61, 0, 239, 125, 58, 114, 210, 220, 188, 37, 68, 41, 188, 134, 134, 232, 60, 135, 20, 106, 188, 0, 208, 127, 56, 22, 138, 28, 60, 154, 225, 160, 188, 13, 100, 193, 188, 63, 197, 180, 60, 68, 254, 46, 60, 110, 186, 27, 189, 194, 183, 40, 188, 215, 10, 44, 189, 157, 42, 116, 61, 32, 81, 187, 58, 18, 183, 56, 61, 124, 60, 142, 61, 75, 114, 212, 60, 80, 38, 193, 60, 102, 105, 176, 188, 148, 66, 74, 61, 51, 111, 64, 60, 70, 123, 229, 188, 116, 221, 193, 60, 208, 246, 96, 59, 21, 145, 141, 59, 222, 136, 31, 61, 129, 221, 26, 189, 135, 18, 249, 188, 50, 234, 48, 61, 201, 247, 200, 59, 224, 47, 47, 61, 62, 101, 58, 188, 193, 229, 105, 60, 4, 7, 64, 61, 125, 118, 114, 61, 154, 102, 36, 59, 92, 241, 14, 60, 82, 104, 14, 61, 238, 133, 180, 188, 118, 157, 95, 61, 86, 107, 227, 187, 9, 164, 60, 188, 249, 233, 213, 188, 75, 165, 56, 189, 81, 207, 72, 61, 128, 54, 1, 189, 163, 221, 34, 189, 67, 15, 20, 60, 212, 77, 15, 61, 180, 90, 53, 61, 90, 47, 9, 59, 125, 223, 3, 189, 102, 232, 206, 188, 184, 95, 110, 60, 210, 37, 20, 189, 125, 106, 205, 188, 73, 56, 155, 187, 0, 246, 2, 189, 36, 251, 56, 189, 67, 242, 71, 61, 69, 160, 131, 59, 194, 75, 137, 59, 204, 109, 161, 60, 196, 155, 209, 60, 237, 213, 0, 61, 114, 73, 131, 60, 94, 255, 245, 188, 8, 14, 12, 61, 212, 164, 40, 61, 3, 74, 131, 60, 74, 19, 204, 60, 152, 155, 48, 189, 47, 67, 93, 61, 84, 107, 190, 188, 61, 17, 103, 61, 253, 90, 21, 61, 134, 106, 69, 189, 30, 9, 10, 61, 218, 166, 131, 188, 216, 43, 72, 188, 148, 188, 26, 189, 36, 106, 34, 189, 48, 157, 212, 60, 131, 19, 233, 188, 24, 48, 159, 60, 186, 239, 160, 187, 80, 107, 13, 187, 41, 188, 37, 188, 128, 145, 216, 186, 227, 252, 106, 186, 46, 228, 107, 61, 49, 94, 252, 60, 24, 202, 15, 189, 112, 204, 221, 188, 24, 173, 189, 59, 174, 120, 204, 60, 2, 134, 35, 189, 82, 64, 36, 189, 148, 147, 133, 60, 107, 122, 7, 61, 164, 53, 5, 61, 154, 54, 37, 189, 55, 165, 40, 60, 10, 23, 23, 189, 153, 94, 0, 189, 108, 182, 213, 60, 145, 37, 2, 186, 183, 66, 83, 60, 192, 225, 167, 186, 37, 94, 73, 59, 84, 200, 161, 60, 62, 158, 191, 188, 74, 239, 11, 61, 192, 112, 28, 186, 242, 113, 70, 61, 13, 141, 35, 61, 128, 10, 201, 60, 28, 185, 153, 60, 75, 128, 250, 188, 60, 198, 174, 59, 45, 74, 174, 60, 4, 52, 17, 61, 96, 125, 77, 61, 96, 120, 128, 188, 31, 150, 19, 189, 236, 93, 44, 61, 16, 195, 173, 188, 149, 41, 178, 188, 216, 49, 8, 61, 191, 140, 156, 60, 207, 119, 80, 188, 61, 28, 72, 188, 220, 234, 156, 187, 12, 159, 243, 60, 57, 167, 54, 61, 63, 6, 113, 61, 28, 28, 123, 60, 196, 200, 165, 188, 24, 238, 144, 188, 98, 231, 108, 60, 126, 67, 178, 188, 205, 165, 11, 189, 22, 174, 235, 60, 113, 44, 253, 188, 94, 214, 70, 189, 206, 95, 13, 61, 138, 126, 198, 59, 9, 234, 197, 60, 239, 173, 56, 189, 66, 252, 41, 188, 242, 129, 178, 60, 40, 39, 47, 187, 88, 46, 160, 60, 104, 12, 141, 60, 172, 155, 60, 189, 42, 106, 24, 189, 167, 197, 225, 59, 185, 184, 93, 61, 210, 250, 20, 188, 209, 225, 210, 188, 191, 23, 237, 59, 201, 17, 133, 188, 67, 147, 40, 60, 196, 42, 38, 189, 86, 182, 24, 61, 0, 126, 248, 59, 174, 117, 142, 187, 63, 4, 106, 60, 20, 66, 66, 61, 0, 124, 250, 60, 1, 88, 27, 189, 207, 111, 244, 60, 237, 250, 41, 189, 160, 238, 67, 59, 162, 36, 188, 56, 86, 129, 26, 61, 147, 126, 14, 189, 53, 102, 166, 188, 108, 139, 162, 60, 231, 228, 105, 61, 133, 137, 60, 187, 46, 111, 86, 189, 70, 223, 9, 187, 48, 115, 65, 187, 85, 156, 13, 61, 8, 226, 111, 59, 184, 214, 138, 188, 240, 69, 143, 60, 44, 37, 1, 189, 224, 123, 88, 188, 235, 254, 195, 60, 110, 64, 25, 188, 128, 143, 175, 188, 244, 182, 67, 61, 134, 59, 8, 60, 79, 65, 69, 61, 75, 60, 119, 188, 166, 67, 69, 60, 112, 150, 47, 60, 156, 209, 183, 188, 15, 85, 18, 188, 92, 140, 126, 60, 161, 61, 137, 188, 56, 237, 179, 60, 56, 40, 176, 60, 8, 168, 4, 189, 102, 172, 34, 61, 230, 207, 49, 61, 230, 136, 1, 189, 206, 29, 138, 60, 247, 252, 21, 187, 35, 169, 194, 188, 78, 77, 20, 61, 13, 26, 194, 188, 144, 238, 55, 188, 150, 130, 251, 187, 98, 178, 233, 188, 153, 218, 71, 61, 160, 242, 37, 60, 5, 158, 243, 60, 63, 66, 129, 61, 249, 225, 43, 189, 223, 5, 127, 58, 79, 198, 166, 188, 60, 195, 12, 61, 20, 20, 178, 59, 53, 90, 66, 61, 192, 224, 237, 60, 227, 34, 51, 189, 208, 162, 129, 188, 74, 82, 212, 187, 127, 57, 64, 189, 46, 226, 35, 61, 147, 40, 160, 188, 110, 181, 222, 188, 213, 35, 54, 61, 57, 144, 48, 58, 5, 206, 177, 60, 98, 125, 39, 61, 187, 101, 58, 187, 53, 77, 178, 188, 45, 120, 172, 187, 118, 208, 132, 60, 87, 193, 5, 189, 185, 59, 24, 189, 210, 111, 142, 188, 236, 203, 248, 60, 254, 149, 18, 189, 3, 166, 23, 189, 180, 49, 234, 188, 239, 135, 125, 61, 180, 36, 170, 188, 222, 115, 245, 59, 124, 55, 110, 188, 20, 15, 209, 188, 66, 105, 21, 189, 231, 8, 10, 189, 75, 172, 236, 188, 252, 5, 17, 60, 76, 24, 80, 61, 196, 128, 1, 58, 223, 164, 230, 59, 74, 120, 86, 188, 54, 224, 1, 189, 80, 232, 110, 61, 30, 251, 7, 189, 204, 224, 225, 60, 6, 94, 16, 60, 240, 93, 6, 189, 154, 62, 54, 188, 182, 111, 9, 189, 45, 42, 209, 58, 62, 188, 112, 187, 124, 80, 239, 188, 28, 103, 110, 188, 208, 237, 23, 61, 138, 47, 192, 59, 51, 60, 90, 188, 252, 85, 143, 60, 122, 8, 20, 189, 0, 39, 195, 188, 12, 83, 249, 188, 23, 46, 124, 61, 82, 213, 54, 61, 37, 182, 84, 189, 45, 218, 3, 59, 10, 152, 114, 59, 84, 190, 23, 61, 175, 79, 20, 189, 121, 67, 146, 188, 3, 109, 131, 188, 1, 54, 15, 189, 193, 168, 206, 59, 141, 137, 34, 189, 0, 73, 197, 187, 168, 86, 36, 61, 90, 18, 134, 60, 51, 97, 185, 188, 148, 113, 239, 188, 200, 208, 27, 58, 166, 14, 176, 188, 239, 238, 43, 188, 177, 108, 10, 189, 128, 43, 242, 57, 121, 42, 103, 189, 109, 144, 138, 58, 99, 162, 185, 60, 153, 162, 176, 60, 224, 141, 8, 61, 235, 217, 36, 59, 21, 165, 42, 60, 251, 158, 52, 189, 0, 244, 118, 61, 136, 124, 36, 60, 196, 16, 154, 58, 2, 136, 219, 188, 52, 111, 214, 188, 245, 95, 85, 188, 60, 233, 59, 61, 162, 242, 185, 188, 103, 48, 5, 188, 121, 131, 244, 188, 91, 160, 16, 189, 228, 197, 24, 189, 69, 118, 149, 60, 209, 104, 73, 61, 238, 235, 98, 187, 43, 171, 29, 61, 16, 52, 72, 60, 253, 251, 227, 60, 34, 11, 18, 60, 4, 189, 187, 60, 107, 223, 228, 188, 119, 94, 225, 188, 142, 49, 171, 59, 150, 91, 17, 61, 28, 130, 123, 188, 141, 193, 43, 187, 24, 190, 168, 60, 167, 7, 195, 60, 254, 254, 171, 60, 78, 64, 245, 187, 118, 64, 103, 61, 157, 146, 216, 188, 187, 217, 61, 61, 115, 18, 111, 59, 124, 255, 237, 188, 125, 20, 33, 189, 28, 237, 232, 60, 2, 194, 8, 61, 233, 145, 158, 187, 206, 195, 82, 59, 223, 139, 150, 60, 199, 99, 177, 188, 59, 173, 218, 188, 187, 9, 28, 189, 122, 34, 32, 189, 163, 43, 102, 188, 48, 80, 242, 59, 247, 181, 163, 188, 187, 30, 90, 189, 231, 111, 19, 60, 82, 158, 89, 61, 114, 240, 134, 188, 185, 160, 69, 61, 122, 15, 43, 188, 115, 238, 52, 59, 143, 44, 199, 59, 36, 72, 64, 60, 224, 60, 9, 189, 170, 198, 5, 61, 208, 71, 53, 188, 198, 6, 188, 188, 253, 62, 34, 189, 128, 110, 27, 189, 3, 221, 168, 60, 158, 67, 155, 188, 72, 234, 33, 189, 88, 62, 43, 189, 70, 52, 19, 187, 143, 6, 211, 186, 120, 36, 107, 187, 218, 244, 134, 61, 176, 6, 134, 59, 134, 134, 56, 188, 223, 234, 26, 188, 152, 188, 54, 61, 76, 147, 56, 61, 176, 134, 32, 187, 7, 18, 241, 188, 183, 85, 200, 188, 66, 24, 22, 189, 65, 50, 156, 187, 160, 85, 12, 187, 112, 43, 195, 60, 108, 232, 6, 189, 95, 182, 174, 58, 153, 231, 20, 189, 80, 211, 140, 60, 169, 246, 9, 189, 229, 71, 51, 189, 43, 26, 83, 60, 191, 228, 182, 60, 0, 106, 204, 57, 147, 154, 248, 187, 189, 61, 12, 60, 26, 204, 42, 59, 9, 89, 236, 60, 192, 180, 250, 60, 216, 142, 178, 60, 62, 22, 90, 61, 189, 200, 122, 61, 102, 255, 248, 187, 160, 214, 74, 188, 76, 33, 72, 189, 37, 64, 248, 188, 226, 3, 17, 61, 251, 85, 224, 188, 253, 122, 17, 189, 23, 66, 16, 61, 209, 129, 3, 189, 7, 95, 16, 61, 219, 185, 134, 60, 204, 132, 171, 188, 86, 150, 47, 61, 30, 31, 135, 188, 240, 204, 171, 60, 74, 200, 152, 188, 160, 242, 191, 186, 39, 89, 225, 186, 77, 196, 249, 60, 41, 254, 128, 60, 176, 21, 157, 60, 69, 49, 247, 188, 205, 134, 49, 61, 43, 178, 62, 61, 130, 42, 67, 60, 114, 2, 5, 185, 224, 243, 26, 188, 22, 137, 191, 60, 132, 80, 240, 188, 19, 82, 42, 189, 154, 61, 59, 61, 252, 84, 3, 61, 255, 137, 253, 60, 216, 210, 183, 60, 109, 130, 148, 187, 251, 24, 180, 60, 180, 255, 53, 188, 123, 64, 53, 61, 2, 175, 40, 61, 111, 89, 116, 59, 91, 251, 2, 189, 139, 153, 233, 188, 151, 56, 19, 187, 143, 107, 45, 61, 96, 44, 201, 187, 10, 134, 90, 61, 48, 201, 113, 60, 62, 16, 114, 189, 55, 41, 42, 188, 117, 245, 98, 188, 83, 13, 99, 61, 80, 220, 195, 188, 212, 228, 180, 59, 137, 85, 170, 188, 169, 73, 78, 61, 120, 153, 12, 189, 167, 36, 197, 188, 103, 146, 243, 60, 174, 103, 9, 189, 131, 164, 167, 60, 86, 146, 133, 187, 73, 98, 46, 189, 242, 43, 19, 189, 173, 36, 102, 188, 141, 216, 32, 189, 66, 53, 35, 189, 186, 6, 185, 188, 143, 13, 128, 187, 253, 11, 46, 61, 45, 155, 209, 59, 239, 129, 213, 59, 236, 224, 107, 188, 240, 58, 34, 189, 39, 166, 135, 60, 41, 247, 15, 189, 251, 100, 3, 58, 188, 246, 157, 60, 41, 4, 25, 189, 57, 172, 210, 60, 224, 112, 239, 186, 227, 213, 47, 61, 66, 87, 0, 61, 66, 231, 173, 188, 174, 210, 79, 188, 253, 252, 37, 61, 123, 254, 145, 60, 29, 250, 41, 189, 184, 134, 225, 188, 81, 125, 202, 60, 193, 173, 44, 189, 138, 130, 184, 188, 68, 37, 83, 60, 94, 228, 31, 189, 108, 171, 133, 188, 241, 69, 16, 189, 70, 122, 14, 61, 220, 31, 241, 60, 126, 56, 200, 187, 149, 225, 214, 188, 119, 228, 233, 60, 219, 196, 6, 59, 53, 94, 143, 188, 212, 81, 204, 185, 34, 134, 196, 59, 199, 127, 173, 188, 192, 163, 150, 188, 198, 11, 16, 189, 78, 111, 48, 189, 1, 4, 58, 188, 73, 3, 230, 59, 141, 114, 140, 60, 64, 67, 215, 186, 67, 148, 8, 61, 84, 162, 69, 189, 221, 30, 235, 60, 249, 163, 19, 60, 0, 136, 140, 60, 71, 101, 24, 189, 204, 4, 111, 184, 163, 120, 69, 189, 84, 228, 12, 61, 48, 34, 85, 60, 148, 177, 143, 59, 60, 234, 105, 188, 226, 67, 85, 188, 91, 114, 155, 60, 68, 56, 20, 61, 110, 30, 43, 60, 0, 124, 108, 60, 121, 5, 7, 60, 193, 203, 15, 61, 58, 122, 52, 61, 133, 202, 79, 185, 131, 155, 37, 189, 189, 250, 71, 57, 227, 76, 14, 189, 143, 184, 215, 188, 159, 21, 179, 60, 10, 88, 237, 60, 122, 52, 52, 58, 157, 22, 135, 186, 204, 60, 56, 61, 244, 187, 34, 189, 209, 202, 51, 189, 210, 128, 51, 189, 166, 159, 22, 189, 56, 184, 212, 60, 147, 24, 145, 60, 184, 184, 9, 189, 31, 243, 92, 189, 45, 19, 8, 189, 73, 181, 48, 189, 184, 12, 18, 189, 140, 155, 51, 188, 236, 96, 27, 61, 48, 144, 4, 61, 136, 141, 233, 59, 149, 55, 67, 61, 165, 38, 137, 187, 199, 215, 3, 60, 133, 129, 255, 187, 32, 200, 105, 188, 82, 50, 35, 188, 239, 210, 32, 187, 168, 61, 10, 189, 179, 251, 19, 60, 236, 228, 27, 188, 166, 155, 61, 189, 117, 84, 78, 61, 39, 7, 181, 188, 180, 113, 36, 61, 48, 237, 17, 188, 63, 131, 176, 60, 186, 175, 217, 188, 152, 22, 29, 189, 75, 125, 51, 60, 166, 96, 33, 61, 99, 74, 212, 59, 96, 218, 140, 59, 211, 216, 40, 60, 131, 103, 93, 61, 210, 65, 51, 61, 212, 62, 163, 59, 220, 157, 212, 187, 87, 152, 56, 188, 103, 180, 40, 60, 164, 70, 120, 188, 253, 127, 178, 188, 228, 106, 0, 188, 235, 117, 200, 187, 67, 158, 58, 61, 138, 91, 9, 61, 207, 86, 172, 60, 84, 207, 36, 189, 83, 242, 27, 61, 184, 173, 235, 60, 32, 120, 251, 60, 115, 251, 17, 61, 25, 174, 226, 60, 111, 12, 238, 188, 83, 26, 37, 189, 0, 218, 133, 187, 236, 24, 160, 60, 249, 74, 143, 188, 246, 169, 148, 59, 80, 104, 133, 59, 63, 169, 18, 61, 155, 138, 103, 189, 214, 133, 33, 189, 197, 112, 23, 188, 213, 171, 105, 60, 27, 239, 48, 61, 136, 156, 62, 60, 164, 34, 142, 61, 234, 182, 217, 60, 162, 34, 57, 61, 148, 10, 74, 60, 1, 135, 83, 60, 86, 176, 156, 188, 114, 149, 132, 60, 37, 71, 230, 60, 184, 130, 26, 60, 237, 168, 52, 61, 113, 173, 243, 187, 41, 222, 117, 60, 202, 81, 62, 60, 160, 56, 114, 187, 64, 59, 56, 61, 213, 81, 143, 189, 103, 11, 137, 61, 103, 167, 75, 189, 218, 194, 54, 61, 41, 71, 30, 59, 168, 135, 12, 61, 215, 110, 64, 61, 64, 230, 135, 189, 192, 175, 134, 188, 175, 243, 124, 61, 65, 165, 92, 61, 39, 229, 22, 188, 142, 42, 25, 189, 160, 148, 29, 189, 131, 0, 83, 61, 38, 227, 200, 187, 199, 59, 60, 61, 106, 135, 103, 189, 207, 68, 45, 189, 83, 0, 61, 188, 62, 170, 23, 60, 177, 186, 198, 188, 208, 254, 121, 60, 0, 222, 28, 58, 154, 32, 56, 61, 117, 238, 28, 60, 240, 159, 157, 189, 110, 76, 191, 60, 184, 255, 50, 61, 112, 123, 155, 188, 76, 190, 41, 187, 0, 69, 223, 58, 112, 55, 52, 61, 8, 175, 123, 60, 115, 226, 24, 61, 68, 184, 157, 61, 158, 37, 94, 60, 14, 156, 2, 61, 32, 145, 89, 188, 190, 125, 146, 188, 8, 55, 191, 58, 167, 223, 153, 189, 14, 38, 7, 60, 169, 51, 220, 188, 195, 143, 19, 188, 255, 177, 174, 60, 27, 140, 52, 189, 223, 73, 9, 189, 208, 106, 124, 59, 63, 170, 167, 60, 79, 9, 243, 188, 233, 8, 140, 189, 202, 31, 161, 59, 117, 27, 166, 188, 196, 118, 20, 61, 157, 155, 247, 188, 52, 35, 1, 189, 25, 36, 54, 188, 96, 181, 112, 60, 10, 177, 180, 60, 227, 129, 169, 188, 129, 52, 8, 189, 125, 14, 32, 189, 28, 43, 137, 188, 191, 23, 101, 189, 51, 223, 15, 188, 234, 235, 165, 187, 191, 4, 11, 187, 255, 143, 66, 189, 59, 29, 204, 186, 53, 152, 107, 60, 80, 31, 134, 189, 74, 55, 81, 189, 46, 51, 24, 61, 232, 163, 131, 189, 192, 110, 134, 188, 136, 117, 142, 189, 161, 78, 225, 60, 32, 37, 94, 188, 116, 75, 220, 60, 121, 254, 245, 187, 62, 131, 20, 189, 168, 250, 46, 60, 218, 112, 8, 61, 151, 245, 49, 189, 123, 137, 59, 189, 125, 235, 214, 189, 79, 18, 198, 186, 124, 92, 168, 60, 102, 185, 166, 189, 38, 120, 59, 188, 11, 54, 175, 189, 99, 121, 114, 187, 68, 246, 132, 60, 172, 252, 129, 189, 6, 95, 60, 189, 28, 147, 111, 188, 16, 59, 220, 59, 114, 27, 22, 61, 86, 44, 44, 189, 65, 65, 166, 189, 69, 82, 175, 185, 183, 201, 250, 188, 72, 138, 139, 188, 247, 168, 74, 189, 119, 98, 148, 60, 227, 210, 101, 189, 26, 180, 21, 189, 182, 33, 129, 188, 122, 131, 244, 185, 6, 240, 215, 188, 174, 154, 45, 61, 212, 66, 36, 188, 160, 220, 112, 59, 3, 209, 249, 188, 180, 82, 21, 189, 101, 76, 14, 189, 226, 136, 61, 186, 68, 155, 2, 60, 198, 232, 89, 188, 98, 181, 49, 188, 198, 191, 136, 59, 85, 19, 222, 60, 244, 55, 188, 60, 15, 77, 246, 60, 56, 180, 32, 186, 37, 244, 22, 189, 162, 155, 216, 59, 127, 43, 187, 188, 39, 152, 23, 61, 242, 61, 226, 188, 42, 64, 242, 59, 232, 250, 255, 187, 8, 81, 55, 188, 67, 124, 5, 189, 15, 118, 165, 188, 193, 115, 80, 189, 17, 83, 139, 188, 138, 145, 10, 61, 203, 21, 189, 186, 194, 182, 13, 189, 128, 152, 15, 189, 248, 32, 39, 188, 62, 39, 138, 188, 237, 134, 236, 60, 175, 221, 49, 189, 74, 11, 155, 189, 202, 105, 71, 189, 184, 110, 132, 60, 96, 65, 102, 189, 17, 126, 92, 189, 