
const unsigned char model[] = {
  28, 0, 0, 0, 84, 70, 76, 51, 20, 0, 32, 0, 28, 0, 24, 0, 20, 0, 16, 0, 12, 0, 0, 0, 8, 0, 4, 0, 20, 0, 0, 0, 28, 0, 0, 0, 136, 0, 0, 0, 224, 0, 0, 0, 16, 53, 5, 0, 32, 53, 5, 0, 116, 60, 5, 0, 3, 0, 0, 0, 1, 0, 0, 0, 4, 0, 0, 0, 226, 201, 250, 255, 12, 0, 0, 0, 28, 0, 0, 0, 56, 0, 0, 0, 15, 0, 0, 0, 115, 101, 114, 118, 105, 110, 103, 95, 100, 101, 102, 97, 117, 108, 116, 0, 1, 0, 0, 0, 4, 0, 0, 0, 148, 255, 255, 255, 12, 0, 0, 0, 4, 0, 0, 0, 7, 0, 0, 0, 100, 101, 110, 115, 101, 95, 53, 0, 1, 0, 0, 0, 4, 0, 0, 0, 210, 202, 250, 255, 4, 0, 0, 0, 14, 0, 0, 0, 99, 111, 110, 118, 50, 100, 95, 50, 95, 105, 110, 112, 117, 116, 0, 0, 2, 0, 0, 0, 52, 0, 0, 0, 4, 0, 0, 0, 220, 255, 255, 255, 15, 0, 0, 0, 4, 0, 0, 0, 19, 0, 0, 0, 67, 79, 78, 86, 69, 82, 83, 73, 79, 78, 95, 77, 69, 84, 65, 68, 65, 84, 65, 0, 8, 0, 12, 0, 8, 0, 4, 0, 8, 0, 0, 0, 14, 0, 0, 0, 4, 0, 0, 0, 19, 0, 0, 0, 109, 105, 110, 95, 114, 117, 110, 116, 105, 109, 101, 95, 118, 101, 114, 115, 105, 111, 110, 0, 16, 0, 0, 0, 44, 52, 5, 0, 36, 52, 5, 0, 0, 52, 5, 0, 16, 5, 5, 0, 248, 4, 5, 0, 104, 4, 5, 0, 80, 4, 5, 0, 192, 1, 0, 0, 176, 0, 0, 0, 168, 0, 0, 0, 160, 0, 0, 0, 152, 0, 0, 0, 144, 0, 0, 0, 136, 0, 0, 0, 104, 0, 0, 0, 4, 0, 0, 0, 142, 203, 250, 255, 4, 0, 0, 0, 84, 0, 0, 0, 12, 0, 0, 0, 8, 0, 14, 0, 8, 0, 4, 0, 8, 0, 0, 0, 16, 0, 0, 0, 36, 0, 0, 0, 0, 0, 6, 0, 8, 0, 4, 0, 6, 0, 0, 0, 4, 0, 0, 0, 0, 0, 0, 0, 0, 0, 10, 0, 16, 0, 12, 0, 8, 0, 4, 0, 10, 0, 0, 0, 2, 0, 0, 0, 2, 0, 0, 0, 4, 0, 0, 0, 6, 0, 0, 0, 50, 46, 49, 50, 46, 48, 0, 0, 238, 203, 250, 255, 4, 0, 0, 0, 16, 0, 0, 0, 49, 46, 53, 46, 48, 0, 0, 0, 0, 0, 0, 0, 0, 0, 0, 0, 100, 197, 250, 255, 104, 197, 250, 255, 108, 197, 250, 255, 112, 197, 250, 255, 116, 197, 250, 255, 30, 204, 250, 255, 4, 0, 0, 0, 0, 1, 0, 0, 97, 146, 47, 62, 248, 63, 208, 189, 153, 202, 82, 190, 154, 26, 138, 189, 52, 215, 189, 61, 3, 138, 32, 62, 64, 21, 138, 59, 225, 207, 166, 62, 179, 102, 181, 190, 64, 185, 18, 62, 180, 188, 95, 62, 18, 221, 36, 190, 195, 119, 176, 188, 144, 42, 85, 189, 69, 9, 35, 190, 19, 209, 189, 62, 228, 198, 138, 189, 49, 122, 190, 62, 111, 117, 187, 61, 153, 109, 200, 190, 58, 67, 90, 190, 161, 81, 43, 62, 109, 211, 71, 62, 239, 117, 130, 190, 226, 104, 154, 62, 42, 151, 31, 190, 252, 18, 54, 190, 22, 219, 16, 190, 16, 249, 100, 189, 136, 248, 49, 61, 18, 57, 107, 62, 14, 102, 72, 190, 242, 163, 129, 190, 66, 181, 110, 62, 189, 181, 71, 62, 171, 65, 129, 61, 92, 218, 133, 189, 128, 197, 140, 62, 118, 217, 80, 62, 84, 221, 42, 190, 255, 150, 9, 61, 208, 160, 36, 190, 80, 72, 73, 62, 71, 143, 202, 61, 255, 170, 52, 190, 116, 85, 173, 190, 207, 74, 94, 190, 141, 55, 133, 62, 150, 45, 3, 190, 96, 191, 144, 62, 240, 153, 167, 190, 155, 77, 190, 189, 207, 59, 202, 190, 2, 192, 128, 62, 143, 113, 121, 62, 149, 95, 249, 61, 70, 202, 122, 189, 208, 58, 51, 190, 80, 124, 167, 189, 117, 186, 164, 190, 86, 25, 69, 62, 68, 246, 128, 189, 152, 217, 187, 189, 124, 220, 229, 189, 42, 205, 250, 255, 4, 0, 0, 0, 128, 2, 5, 0, 81, 16, 22, 61, 158, 6, 58, 61, 124, 53, 10, 189, 132, 3, 208, 188, 245, 158, 33, 189, 212, 184, 177, 60, 52, 24, 2, 189, 7, 73, 150, 59, 165, 231, 5, 61, 184, 136, 156, 187, 34, 30, 22, 61, 6, 3, 99, 60, 48, 106, 178, 60, 97, 67, 49, 189, 226, 23, 158, 188, 240, 12, 160, 60, 215, 167, 5, 189, 31, 183, 216, 60, 67, 114, 166, 60, 147, 224, 244, 188, 212, 64, 220, 60, 128, 92, 16, 60, 234, 247, 72, 61, 99, 211, 144, 188, 85, 60, 203, 60, 2, 1, 27, 61, 117, 108, 194, 59, 177, 155, 33, 187, 118, 243, 52, 189, 166, 48, 15, 189, 51, 187, 239, 60, 236, 83, 44, 189, 252, 36, 247, 188, 109, 55, 29, 189, 236, 239, 36, 58, 92, 184, 68, 61, 241, 6, 149, 188, 103, 145, 63, 58, 89, 226, 167, 60, 210, 205, 166, 188, 157, 237, 45, 61, 186, 52, 178, 59, 163, 41, 31, 61, 136, 36, 251, 60, 161, 91, 194, 60, 86, 29, 49, 61, 181, 13, 169, 60, 36, 209, 10, 61, 96, 43, 57, 61, 57, 38, 35, 189, 227, 35, 181, 187, 238, 123, 230, 60, 145, 20, 152, 60, 44, 183, 52, 187, 212, 43, 191, 188, 198, 242, 86, 60, 89, 181, 186, 188, 146, 46, 66, 61, 37, 184, 219, 60, 16, 39, 191, 60, 38, 51, 29, 189, 3, 223, 52, 188, 4, 39, 79, 187, 250, 249, 26, 60, 237, 205, 252, 60, 124, 172, 49, 189, 143, 140, 219, 188, 198, 220, 169, 187, 122, 164, 134, 188, 237, 39, 26, 189, 153, 156, 22, 189, 23, 163, 82, 188, 177, 212, 22, 61, 72, 114, 31, 188, 101, 186, 168, 188, 76, 75, 202, 60, 230, 13, 61, 60, 236, 129, 77, 61, 114, 31, 65, 189, 99, 163, 174, 60, 222, 210, 114, 59, 5, 11, 220, 188, 45, 79, 3, 61, 44, 87, 200, 188, 236, 41, 179, 60, 185, 166, 233, 188, 48, 89, 177, 60, 190, 193, 252, 60, 149, 232, 16, 189, 99, 172, 9, 61, 58, 83, 3, 189, 135, 192, 62, 60, 137, 148, 56, 61, 240, 40, 29, 59, 247, 165, 13, 189, 61, 251, 130, 188, 168, 226, 159, 60, 124, 162, 128, 188, 108, 103, 219, 60, 40, 148, 200, 188, 220, 173, 162, 188, 87, 87, 11, 189, 8, 153, 115, 187, 16, 11, 219, 187, 57, 168, 221, 60, 146, 202, 159, 188, 99, 51, 26, 189, 26, 94, 15, 189, 209, 207, 99, 60, 127, 124, 39, 61, 83, 220, 13, 189, 161, 225, 153, 60, 31, 206, 127, 60, 142, 71, 64, 188, 61, 201, 219, 188, 192, 3, 54, 188, 132, 57, 0, 61, 50, 160, 229, 188, 0, 32, 158, 59, 238, 43, 227, 188, 37, 183, 2, 189, 38, 182, 201, 186, 213, 204, 180, 60, 122, 50, 244, 186, 185, 241, 203, 60, 236, 64, 56, 61, 202, 52, 186, 188, 101, 180, 204, 60, 112, 41, 254, 60, 101, 155, 147, 59, 140, 16, 9, 189, 147, 75, 65, 189, 246, 160, 46, 61, 55, 198, 206, 57, 66, 58, 195, 188, 136, 103, 30, 188, 18, 152, 14, 188, 68, 15, 213, 60, 222, 13, 41, 189, 86, 97, 69, 61, 196, 70, 253, 187, 164, 53, 29, 61, 192, 160, 9, 189, 31, 140, 56, 186, 7, 103, 247, 59, 109, 104, 44, 60, 198, 34, 57, 189, 240, 2, 189, 188, 186, 237, 158, 60, 104, 203, 129, 188, 144, 66, 15, 189, 123, 76, 0, 61, 237, 52, 19, 188, 228, 116, 16, 61, 23, 111, 9, 61, 216, 149, 33, 189, 12, 180, 106, 60, 160, 60, 162, 188, 158, 46, 172, 60, 118, 85, 21, 61, 218, 87, 38, 189, 160, 8, 139, 60, 120, 74, 136, 59, 194, 6, 42, 188, 254, 26, 15, 188, 65, 22, 66, 185, 53, 56, 54, 61, 212, 209, 10, 189, 7, 234, 180, 60, 178, 241, 86, 188, 169, 34, 35, 60, 182, 192, 9, 189, 183, 89, 37, 189, 206, 237, 3, 189, 47, 17, 202, 188, 179, 165, 102, 59, 199, 241, 32, 61, 106, 228, 230, 60, 170, 227, 213, 60, 52, 181, 138, 188, 241, 27, 75, 61, 247, 42, 11, 189, 97, 53, 132, 60, 174, 142, 175, 188, 162, 37, 189, 188, 183, 252, 52, 189, 190, 17, 10, 59, 57, 178, 58, 61, 55, 110, 115, 187, 152, 228, 213, 60, 82, 237, 45, 189, 29, 255, 66, 187, 179, 113, 173, 60, 171, 142, 57, 189, 85, 237, 9, 189, 122, 153, 239, 60, 204, 42, 201, 60, 173, 127, 178, 188, 167, 173, 251, 60, 197, 70, 231, 187, 114, 49, 250, 188, 216, 110, 207, 59, 74, 119, 219, 188, 47, 228, 173, 188, 117, 147, 28, 61, 143, 238, 249, 59, 216, 27, 139, 60, 193, 104, 71, 189, 157, 195, 8, 189, 75, 232, 53, 61, 224, 223, 52, 60, 52, 255, 50, 61, 117, 50, 231, 59, 182, 240, 4, 61, 56, 239, 1, 189, 31, 119, 203, 187, 128, 160, 157, 58, 248, 167, 46, 189, 164, 251, 176, 60, 111, 107, 249, 60, 24, 126, 108, 188, 20, 235, 215, 60, 159, 211, 219, 60, 52, 49, 35, 60, 54, 96, 78, 187, 1, 54, 27, 189, 48, 120, 115, 60, 2, 78, 17, 59, 198, 232, 45, 61, 164, 115, 78, 60, 54, 199, 237, 188, 110, 253, 67, 189, 219, 212, 69, 61, 94, 133, 16, 61, 20, 71, 37, 189, 31, 63, 21, 189, 137, 114, 96, 59, 182, 34, 43, 189, 88, 140, 199, 59, 200, 86, 16, 189, 155, 198, 133, 58, 4, 160, 43, 61, 55, 90, 229, 186, 50, 234, 30, 61, 166, 161, 88, 61, 91, 11, 253, 60, 25, 88, 156, 60, 6, 24, 203, 60, 74, 67, 31, 61, 176, 208, 103, 60, 98, 81, 31, 189, 151, 160, 49, 61, 58, 51, 75, 61, 8, 143, 133, 60, 211, 219, 156, 60, 31, 215, 27, 189, 76, 76, 8, 61, 13, 245, 222, 60, 96, 130, 62, 61, 171, 187, 26, 189, 8, 91, 11, 188, 242, 72, 128, 60, 120, 126, 19, 189, 232, 32, 193, 60, 18, 58, 186, 60, 117, 208, 228, 188, 10, 211, 15, 189, 129, 174, 19, 61, 92, 62, 7, 189, 249, 140, 62, 188, 76, 133, 25, 61, 19, 225, 50, 58, 247, 29, 178, 188, 128, 151, 202, 59, 60, 200, 95, 59, 214, 123, 122, 59, 217, 44, 76, 189, 0, 70, 146, 60, 14, 10, 63, 61, 172, 69, 198, 188, 104, 250, 161, 60, 107, 76, 226, 60, 241, 139, 18, 61, 175, 26, 158, 188, 132, 192, 109, 61, 101, 135, 48, 188, 27, 187, 255, 60, 232, 4, 3, 187, 108, 239, 69, 188, 135, 162, 179, 188, 157, 110, 100, 60, 227, 185, 56, 188, 137, 50, 152, 60, 172, 75, 240, 60, 8, 32, 233, 60, 227, 158, 222, 60, 139, 196, 67, 189, 72, 127, 38, 188, 10, 197, 29, 61, 90, 111, 40, 61, 158, 138, 15, 189, 88, 41, 225, 59, 199, 79, 241, 59, 15, 61, 226, 188, 56, 168, 47, 61, 40, 155, 172, 187, 179, 5, 50, 189, 172, 141, 76, 61, 47, 202, 177, 188, 16, 3, 59, 61, 14, 93, 82, 61, 189, 246, 18, 189, 45, 253, 165, 188, 92, 246, 55, 61, 101, 128, 8, 189, 195, 36, 99, 61, 210, 17, 203, 59, 183, 10, 141, 188, 62, 189, 252, 188, 58, 252, 136, 188, 139, 95, 22, 189, 252, 104, 150, 188, 168, 211, 25, 61, 170, 224, 25, 61, 56, 188, 58, 60, 20, 106, 146, 188, 12, 181, 206, 188, 33, 243, 204, 60, 0, 3, 138, 188, 55, 120, 247, 185, 42, 244, 179, 60, 209, 88, 80, 188, 206, 82, 242, 58, 160, 237, 227, 60, 187, 65, 34, 60, 200, 218, 9, 188, 199, 232, 74, 58, 210, 240, 145, 188, 144, 194, 152, 59, 57, 118, 57, 61, 29, 109, 156, 60, 9, 159, 248, 60, 107, 60, 25, 189, 232, 163, 218, 59, 73, 235, 190, 58, 223, 143, 1, 60, 224, 122, 33, 189, 60, 195, 147, 59, 216, 3, 205, 187, 220, 189, 45, 189, 79, 110, 38, 189, 156, 231, 26, 188, 35, 159, 93, 188, 81, 65, 231, 188, 253, 138, 99, 61, 43, 40, 192, 60, 147, 95, 231, 60, 43, 165, 68, 59, 23, 159, 176, 188, 176, 170, 121, 60, 245, 19, 4, 61, 100, 47, 56, 60, 246, 189, 200, 59, 80, 125, 51, 189, 182, 235, 216, 60, 200, 201, 136, 60, 128, 197, 185, 58, 24, 1, 176, 188, 174, 173, 31, 189, 97, 56, 90, 61, 190, 250, 150, 60, 20, 234, 55, 60, 102, 247, 131, 60, 40, 240, 145, 60, 74, 9, 243, 60, 109, 23, 44, 189, 199, 118, 206, 188, 23, 245, 171, 188, 160, 78, 231, 60, 63, 83, 15, 60, 178, 53, 237, 60, 221, 237, 29, 60, 41, 42, 143, 188, 112, 220, 146, 60, 7, 21, 175, 60, 29, 236, 3, 60, 96, 164, 175, 60, 123, 240, 62, 189, 121, 197, 51, 189, 133, 95, 14, 61, 194, 107, 78, 61, 117, 99, 208, 188, 87, 239, 204, 188, 236, 16, 245, 188, 239, 16, 10, 189, 154, 151, 202, 187, 146, 20, 66, 61, 28, 56, 42, 61, 116, 160, 246, 60, 118, 191, 75, 61, 119, 48, 30, 61, 125, 51, 41, 188, 33, 226, 95, 56, 192, 132, 116, 186, 208, 217, 66, 61, 178, 17, 101, 188, 13, 206, 0, 189, 147, 232, 12, 61, 80, 180, 153, 187, 232, 73, 44, 61, 227, 126, 11, 61, 230, 85, 54, 189, 182, 233, 53, 189, 137, 240, 166, 188, 94, 163, 60, 188, 225, 111, 255, 188, 208, 112, 23, 61, 37, 197, 221, 60, 148, 56, 69, 188, 25, 205, 249, 187, 10, 16, 36, 188, 140, 209, 204, 60, 88, 177, 52, 60, 44, 5, 240, 60, 30, 71, 170, 60, 152, 237, 57, 188, 64, 106, 32, 189, 117, 24, 159, 188, 20, 202, 177, 60, 24, 91, 236, 60, 29, 48, 90, 61, 106, 135, 179, 60, 200, 208, 133, 188, 220, 99, 18, 188, 97, 209, 137, 188, 109, 7, 226, 188, 14, 69, 123, 60, 134, 110, 227, 60, 176, 58, 233, 60, 13, 232, 17, 189, 186, 231, 32, 189, 120, 92, 15, 61, 57, 54, 140, 60, 216, 33, 249, 60, 241, 205, 228, 188, 47, 111, 52, 61, 127, 245, 56, 189, 183, 70, 30, 188, 206, 143, 4, 61, 187, 136, 201, 59, 212, 179, 230, 187, 91, 125, 38, 61, 196, 47, 193, 60, 204, 122, 49, 61, 207, 38, 219, 60, 100, 157, 224, 60, 14, 52, 64, 60, 58, 19, 128, 60, 42, 223, 26, 189, 24, 54, 65, 60, 189, 69, 226, 60, 170, 141, 7, 188, 38, 148, 61, 189, 240, 170, 85, 187, 213, 244, 23, 61, 9, 242, 32, 61, 168, 139, 213, 60, 100, 194, 27, 61, 16, 39, 114, 60, 151, 132, 35, 61, 3, 29, 79, 61, 6, 252, 35, 61, 113, 98, 106, 61, 168, 241, 64, 188, 165, 167, 190, 188, 239, 87, 19, 189, 32, 186, 251, 187, 28, 155, 47, 188, 80, 253, 190, 60, 34, 252, 16, 61, 238, 60, 19, 189, 192, 30, 6, 60, 80, 175, 204, 60, 196, 250, 191, 60, 189, 89, 186, 188, 3, 90, 62, 188, 100, 6, 36, 61, 139, 167, 13, 189, 8, 220, 39, 60, 139, 222, 238, 188, 209, 151, 133, 188, 86, 126, 29, 61, 166, 220, 61, 60, 100, 80, 34, 61, 140, 105, 118, 59, 147, 48, 245, 188, 88, 198, 245, 59, 186, 248, 182, 60, 56, 128, 25, 61, 219, 166, 171, 188, 205, 14, 28, 189, 14, 70, 60, 61, 237, 117, 96, 61, 144, 86, 129, 60, 196, 223, 91, 61, 52, 205, 48, 60, 224, 220, 214, 188, 218, 163, 33, 60, 248, 176, 67, 61, 237, 159, 76, 61, 80, 205, 6, 61, 203, 12, 31, 61, 152, 186, 25, 61, 236, 75, 255, 60, 56, 112, 1, 189, 199, 81, 185, 188, 75, 174, 21, 189, 105, 160, 130, 60, 232, 123, 193, 187, 233, 149, 137, 59, 220, 5, 249, 60, 182, 200, 164, 57, 69, 188, 26, 188, 142, 146, 16, 189, 170, 44, 53, 61, 23, 145, 213, 60, 99, 223, 30, 189, 45, 103, 91, 188, 171, 114, 31, 189, 27, 196, 195, 60, 211, 71, 139, 60, 241, 108, 57, 189, 135, 84, 166, 60, 154, 120, 252, 188, 72, 45, 64, 61, 114, 57, 173, 188, 149, 65, 214, 188, 224, 110, 207, 187, 84, 92, 18, 60, 43, 187, 250, 59, 81, 207, 79, 188, 120, 5, 186, 60, 93, 214, 72, 61, 228, 66, 249, 60, 197, 103, 14, 189, 141, 10, 99, 61, 60, 106, 30, 189, 175, 140, 180, 60, 101, 69, 65, 189, 153, 144, 48, 188, 245, 134, 96, 61, 84, 152, 180, 60, 54, 188, 27, 189, 215, 101, 235, 60, 145, 246, 53, 189, 52, 198, 2, 189, 43, 85, 159, 59, 131, 51, 135, 60, 216, 3, 193, 187, 33, 74, 62, 61, 34, 165, 27, 189, 14, 221, 190, 60, 4, 207, 234, 60, 91, 141, 179, 188, 216, 249, 68, 60, 11, 186, 57, 61, 26, 144, 33, 61, 74, 186, 166, 188, 44, 138, 34, 60, 45, 156, 124, 60, 54, 7, 1, 189, 147, 110, 239, 188, 101, 39, 93, 61, 224, 113, 93, 188, 232, 84, 127, 188, 192, 63, 173, 186, 181, 229, 240, 188, 81, 106, 185, 187, 84, 72, 234, 60, 69, 151, 150, 187, 217, 181, 41, 189, 115, 55, 206, 188, 98, 25, 122, 187, 150, 94, 20, 61, 25, 4, 66, 61, 40, 11, 214, 58, 40, 247, 215, 187, 243, 229, 6, 61, 1, 17, 40, 189, 138, 180, 30, 61, 247, 191, 152, 60, 34, 41, 118, 59, 48, 43, 72, 187, 216, 206, 235, 60, 80, 14, 175, 59, 73, 39, 9, 60, 109, 8, 58, 61, 110, 219, 62, 60, 150, 250, 30, 189, 154, 98, 37, 61, 69, 111, 65, 61, 72, 153, 17, 187, 180, 127, 134, 59, 111, 184, 253, 188, 70, 208, 29, 189, 196, 222, 237, 188, 155, 171, 140, 56, 122, 4, 217, 60, 80, 95, 137, 60, 125, 183, 47, 61, 34, 36, 212, 60, 235, 74, 57, 189, 71, 118, 83, 61, 42, 249, 14, 61, 42, 68, 67, 61, 207, 155, 116, 188, 213, 16, 61, 61, 99, 39, 56, 189, 165, 178, 15, 61, 76, 44, 247, 60, 133, 133, 15, 59, 118, 167, 143, 60, 104, 178, 89, 188, 47, 219, 42, 61, 189, 166, 247, 188, 187, 125, 50, 59, 80, 124, 11, 189, 44, 88, 24, 61, 120, 107, 56, 60, 219, 150, 0, 189, 90, 149, 252, 184, 235, 197, 195, 60, 123, 120, 50, 61, 242, 175, 15, 189, 159, 121, 225, 188, 42, 228, 37, 61, 14, 128, 205, 188, 89, 13, 3, 60, 102, 125, 51, 61, 0, 150, 199, 58, 170, 89, 133, 188, 152, 185, 40, 61, 246, 22, 160, 59, 220, 184, 185, 60, 248, 179, 26, 61, 122, 56, 200, 188, 246, 169, 174, 59, 9, 104, 103, 188, 134, 125, 36, 189, 177, 56, 189, 60, 211, 139, 15, 60, 36, 109, 171, 60, 174, 41, 136, 58, 240, 133, 22, 60, 19, 85, 49, 189, 90, 56, 241, 188, 17, 185, 181, 58, 11, 20, 8, 189, 12, 2, 26, 61, 49, 169, 172, 188, 142, 37, 135, 59, 72, 85, 190, 59, 99, 106, 167, 59, 4, 159, 208, 60, 127, 231, 160, 60, 193, 201, 248, 60, 182, 98, 26, 186, 145, 105, 171, 60, 89, 111, 152, 188, 77, 43, 44, 186, 31, 38, 150, 58, 163, 74, 98, 60, 3, 142, 254, 188, 113, 212, 45, 189, 104, 131, 196, 59, 116, 35, 183, 60, 136, 38, 229, 187, 230, 190, 19, 61, 160, 138, 123, 187, 73, 149, 192, 187, 25, 18, 49, 61, 205, 43, 230, 188, 214, 239, 195, 60, 72, 142, 64, 188, 118, 213, 41, 188, 129, 150, 221, 60, 171, 113, 4, 188, 5, 101, 169, 60, 202, 132, 30, 61, 71, 104, 80, 188, 166, 4, 6, 189, 124, 113, 137, 60, 140, 115, 240, 60, 60, 15, 33, 61, 76, 239, 126, 60, 184, 125, 28, 189, 216, 107, 36, 61, 49, 176, 57, 188, 156, 77, 31, 189, 22, 216, 176, 60, 66, 33, 240, 59, 25, 73, 139, 60, 214, 93, 92, 60, 12, 164, 152, 60, 5, 96, 186, 59, 188, 13, 79, 61, 255, 127, 38, 60, 106, 223, 218, 59, 76, 218, 31, 60, 32, 46, 163, 187, 67, 14, 62, 60, 22, 7, 125, 188, 244, 3, 244, 59, 48, 123, 36, 61, 221, 99, 166, 187, 208, 15, 142, 60, 238, 241, 240, 59, 239, 255, 150, 60, 86, 32, 15, 189, 243, 193, 203, 187, 84, 115, 98, 60, 40, 173, 17, 189, 9, 130, 182, 188, 224, 90, 202, 188, 65, 75, 35, 61, 84, 192, 51, 61, 190, 123, 29, 61, 175, 34, 172, 188, 4, 71, 35, 61, 176, 90, 41, 61, 135, 218, 1, 188, 69, 248, 168, 187, 3, 210, 69, 61, 140, 85, 170, 188, 109, 191, 198, 188, 161, 60, 192, 188, 74, 176, 76, 59, 249, 201, 3, 189, 184, 37, 65, 188, 254, 102, 77, 60, 81, 45, 24, 189, 27, 119, 199, 60, 88, 81, 5, 60, 13, 32, 244, 188, 206, 234, 9, 61, 191, 57, 49, 61, 112, 59, 208, 60, 84, 235, 197, 60, 173, 193, 46, 189, 236, 137, 6, 189, 153, 40, 176, 188, 30, 110, 171, 59, 97, 233, 161, 59, 214, 38, 213, 60, 167, 64, 152, 60, 65, 15, 86, 188, 109, 155, 219, 60, 186, 178, 89, 61, 130, 102, 184, 59, 156, 5, 174, 60, 84, 181, 4, 189, 76, 111, 122, 60, 169, 94, 80, 61, 179, 177, 107, 188, 155, 37, 45, 189, 20, 202, 57, 188, 142, 134, 192, 188, 19, 76, 230, 188, 132, 31, 7, 188, 152, 8, 1, 189, 77, 15, 78, 188, 172, 244, 221, 188, 174, 20, 54, 61, 38, 220, 22, 61, 166, 111, 4, 185, 46, 34, 38, 189, 236, 107, 171, 58, 242, 186, 29, 189, 199, 225, 160, 188, 40, 161, 206, 59, 139, 224, 35, 61, 196, 113, 41, 189, 211, 20, 236, 60, 139, 35, 12, 189, 43, 189, 232, 60, 98, 15, 21, 61, 39, 130, 128, 186, 69, 60, 161, 59, 42, 113, 19, 61, 212, 164, 13, 189, 59, 157, 138, 188, 152, 194, 249, 188, 153, 127, 30, 189, 238, 63, 29, 189, 241, 141, 222, 188, 63, 20, 211, 60, 195, 71, 172, 187, 101, 246, 148, 187, 190, 208, 173, 188, 35, 21, 6, 60, 79, 230, 3, 61, 182, 85, 190, 60, 30, 153, 240, 60, 118, 84, 38, 61, 23, 52, 60, 189, 148, 246, 147, 59, 147, 108, 228, 58, 189, 186, 176, 59, 181, 50, 207, 60, 61, 202, 50, 61, 96, 104, 17, 189, 22, 226, 164, 186, 22, 64, 17, 61, 228, 159, 17, 189, 10, 237, 61, 189, 100, 153, 57, 189, 37, 210, 207, 188, 187, 17, 63, 189, 135, 36, 203, 188, 129, 246, 14, 189, 170, 112, 163, 60, 158, 123, 31, 61, 104, 117, 23, 189, 40, 93, 23, 189, 179, 136, 220, 187, 204, 220, 136, 60, 90, 62, 13, 188, 204, 13, 49, 61, 148, 153, 133, 60, 151, 18, 25, 188, 73, 231, 184, 188, 246, 193, 2, 189, 69, 168, 47, 60, 33, 187, 231, 188, 79, 154, 39, 189, 21, 138, 25, 189, 184, 12, 234, 188, 166, 171, 248, 188, 197, 53, 0, 61, 113, 111, 199, 60, 55, 8, 113, 60, 62, 9, 172, 188, 234, 232, 242, 188, 116, 184, 102, 60, 108, 121, 214, 187, 149, 35, 251, 60, 249, 65, 144, 187, 60, 166, 112, 60, 48, 45, 81, 59, 49, 223, 37, 189, 238, 197, 59, 59, 174, 141, 42, 60, 57, 129, 243, 187, 176, 190, 60, 61, 63, 108, 82, 60, 30, 213, 45, 61, 11, 178, 168, 60, 167, 201, 8, 61, 123, 113, 87, 188, 169, 27, 28, 61, 134, 185, 172, 188, 67, 232, 176, 188, 90, 40, 140, 59, 79, 14, 32, 61, 94, 235, 48, 189, 162, 209, 41, 189, 177, 159, 42, 59, 195, 170, 89, 188, 4, 47, 39, 61, 214, 14, 187, 188, 95, 43, 250, 187, 200, 173, 208, 188, 0, 101, 27, 189, 158, 148, 7, 188, 244, 159, 144, 60, 30, 252, 8, 61, 255, 254, 106, 188, 80, 167, 19, 60, 141, 248, 18, 61, 239, 201, 8, 189, 135, 16, 192, 188, 66, 245, 255, 188, 182, 189, 146, 188, 16, 210, 185, 60, 233, 25, 114, 60, 234, 145, 155, 186, 124, 28, 56, 189, 9, 173, 173, 59, 160, 184, 26, 61, 179, 218, 32, 61, 179, 55, 236, 188, 0, 93, 164, 188, 151, 50, 247, 60, 148, 250, 33, 189, 131, 143, 23, 60, 41, 105, 63, 60, 166, 247, 35, 189, 234, 77, 39, 189, 22, 190, 212, 60, 160, 117, 126, 188, 32, 226, 232, 60, 128, 41, 98, 60, 107, 137, 228, 60, 44, 135, 225, 188, 51, 249, 117, 60, 139, 142, 223, 187, 255, 130, 205, 188, 68, 162, 133, 59, 132, 34, 176, 60, 200, 179, 0, 60, 244, 136, 47, 61, 224, 222, 196, 59, 223, 128, 56, 61, 86, 129, 17, 61, 207, 197, 7, 61, 45, 144, 23, 61, 90, 50, 71, 59, 213, 239, 83, 60, 96, 47, 150, 60, 114, 247, 213, 187, 247, 145, 18, 188, 99, 197, 60, 189, 230, 65, 108, 188, 214, 168, 24, 61, 192, 191, 78, 60, 172, 196, 141, 60, 151, 21, 29, 189, 192, 149, 19, 189, 184, 204, 153, 60, 246, 4, 198, 188, 248, 230, 123, 60, 248, 97, 171, 187, 190, 220, 8, 61, 94, 74, 209, 58, 76, 31, 209, 60, 165, 197, 64, 189, 121, 205, 63, 184, 45, 86, 175, 188, 174, 154, 150, 188, 28, 167, 27, 61, 1, 12, 40, 60, 89, 91, 27, 61, 25, 71, 11, 188, 228, 171, 65, 60, 89, 7, 54, 188, 97, 243, 19, 61, 126, 254, 98, 60, 28, 109, 30, 189, 104, 191, 187, 59, 71, 72, 236, 188, 212, 218, 8, 189, 166, 130, 16, 61, 99, 13, 13, 61, 186, 130, 57, 61, 173, 241, 208, 60, 223, 108, 122, 60, 168, 254, 45, 60, 93, 165, 247, 60, 105, 49, 243, 60, 188, 105, 64, 61, 215, 230, 200, 187, 109, 22, 242, 60, 26, 47, 4, 61, 30, 65, 130, 60, 106, 59, 106, 60, 135, 158, 47, 189, 246, 108, 22, 188, 219, 97, 157, 60, 102, 70, 63, 59, 98, 120, 93, 60, 102, 82, 36, 61, 244, 185, 247, 60, 122, 15, 136, 186, 10, 199, 9, 189, 255, 151, 116, 60, 7, 246, 45, 60, 69, 217, 190, 60, 210, 131, 212, 60, 144, 4, 218, 187, 67, 146, 44, 61, 32, 195, 19, 189, 104, 87, 102, 60, 108, 65, 251, 188, 89, 2, 37, 189, 16, 123, 98, 60, 251, 234, 150, 188, 131, 62, 29, 61, 206, 181, 66, 188, 72, 252, 219, 58, 233, 187, 255, 60, 56, 1, 64, 60, 76, 171, 175, 188, 211, 231, 140, 187, 78, 4, 34, 188, 239, 177, 197, 188, 42, 50, 25, 189, 45, 236, 172, 188, 2, 237, 220, 188, 140, 46, 2, 189, 108, 173, 162, 188, 135, 21, 188, 60, 249, 78, 48, 61, 169, 248, 55, 60, 136, 59, 59, 60, 41, 108, 51, 61, 235, 141, 171, 60, 150, 244, 37, 188, 212, 27, 146, 188, 141, 134, 41, 61, 146, 165, 67, 189, 93, 116, 75, 61, 58, 153, 53, 61, 181, 53, 159, 187, 225, 13, 241, 59, 53, 230, 78, 188, 235, 234, 155, 60, 13, 136, 97, 60, 192, 147, 211, 188, 56, 66, 51, 60, 14, 51, 223, 60, 116, 43, 12, 61, 173, 150, 158, 187, 146, 149, 68, 61, 230, 174, 4, 60, 51, 92, 148, 60, 2, 218, 187, 59, 231, 233, 134, 187, 158, 40, 11, 189, 194, 137, 53, 189, 244, 142, 53, 189, 153, 51, 49, 61, 184, 112, 19, 188, 116, 52, 20, 61, 112, 249, 38, 61, 53, 49, 162, 60, 39, 97, 122, 188, 189, 21, 146, 188, 160, 247, 24, 61, 252, 158, 6, 189, 174, 4, 25, 189, 109, 18, 210, 188, 161, 104, 228, 60, 231, 83, 60, 61, 233, 26, 26, 189, 183, 59, 63, 59, 190, 17, 253, 60, 111, 250, 24, 189, 57, 9, 3, 61, 8, 186, 178, 188, 52, 180, 253, 188, 227, 137, 34, 60, 25, 254, 237, 60, 56, 27, 47, 61, 7, 33, 5, 189, 111, 198, 228, 59, 55, 19, 87, 60, 144, 141, 67, 60, 12, 182, 83, 188, 98, 204, 152, 60, 164, 33, 7, 189, 188, 104, 125, 60, 81, 205, 164, 188, 113, 221, 66, 61, 130, 15, 73, 189, 130, 110, 167, 60, 140, 210, 238, 188, 207, 117, 242, 188, 247, 138, 135, 60, 228, 132, 51, 189, 243, 68, 20, 189, 85, 44, 154, 188, 197, 65, 90, 59, 142, 162, 170, 60, 8, 121, 68, 188, 169, 98, 29, 61, 214, 23, 8, 189, 194, 249, 41, 60, 57, 58, 17, 189, 228, 202, 60, 189, 11, 154, 34, 61, 234, 125, 242, 188, 7, 132, 47, 61, 223, 227, 41, 61, 13, 77, 58, 189, 76, 65, 82, 61, 236, 212, 223, 60, 20, 158, 118, 188, 123, 194, 89, 61, 148, 109, 51, 61, 16, 96, 51, 188, 116, 138, 61, 187, 239, 0, 152, 60, 163, 231, 237, 188, 24, 97, 207, 59, 100, 85, 12, 60, 67, 224, 6, 189, 188, 150, 56, 61, 189, 142, 238, 60, 151, 200, 169, 59, 115, 9, 5, 189, 173, 121, 209, 59, 204, 156, 120, 187, 41, 223, 178, 187, 100, 14, 21, 187, 161, 253, 33, 189, 198, 178, 29, 61, 180, 84, 28, 60, 115, 44, 30, 189, 193, 142, 220, 59, 169, 223, 63, 188, 216, 134, 91, 61, 8, 52, 245, 60, 152, 171, 16, 61, 41, 6, 14, 189, 194, 111, 184, 60, 201, 235, 81, 187, 144, 52, 252, 60, 83, 208, 235, 188, 84, 232, 7, 189, 32, 195, 30, 61, 120, 13, 108, 58, 180, 109, 134, 59, 148, 79, 60, 61, 206, 245, 158, 187, 24, 252, 20, 61, 37, 114, 35, 189, 158, 234, 143, 188, 213, 79, 146, 60, 126, 76, 229, 188, 112, 60, 103, 187, 116, 43, 180, 187, 137, 68, 246, 186, 236, 99, 171, 188, 65, 1, 223, 58, 99, 175, 179, 60, 122, 247, 214, 188, 104, 230, 211, 188, 57, 176, 60, 188, 255, 183, 6, 61, 29, 79, 17, 61, 235, 6, 149, 60, 145, 202, 41, 61, 30, 241, 136, 59, 202, 43, 46, 61, 34, 118, 205, 188, 252, 203, 143, 60, 60, 83, 7, 187, 102, 153, 29, 61, 144, 39, 42, 60, 193, 127, 202, 60, 177, 150, 109, 57, 135, 45, 4, 188, 106, 48, 45, 60, 200, 99, 55, 189, 20, 187, 99, 187, 28, 120, 1, 189, 194, 200, 68, 188, 219, 161, 131, 188, 76, 159, 245, 60, 136, 210, 7, 61, 89, 59, 109, 60, 129, 229, 201, 187, 214, 57, 67, 188, 242, 36, 205, 188, 41, 254, 81, 61, 198, 55, 174, 188, 197, 78, 17, 61, 154, 217, 209, 60, 171, 111, 161, 188, 126, 116, 150, 60, 135, 169, 120, 188, 244, 28, 174, 188, 251, 234, 114, 60, 126, 188, 19, 61, 145, 158, 60, 187, 19, 215, 139, 188, 172, 214, 254, 188, 242, 246, 9, 189, 228, 3, 221, 60, 161, 86, 0, 61, 175, 217, 34, 189, 187, 51, 178, 60, 48, 227, 149, 60, 178, 120, 135, 58, 214, 167, 42, 61, 193, 102, 37, 61, 142, 216, 199, 60, 158, 74, 221, 60, 250, 60, 23, 60, 174, 199, 218, 186, 197, 86, 157, 60, 59, 71, 134, 58, 180, 60, 236, 187, 71, 46, 221, 188, 165, 64, 7, 61, 217, 244, 58, 61, 115, 120, 56, 189, 205, 1, 16, 61, 75, 88, 79, 59, 15, 11, 253, 60, 105, 87, 67, 188, 77, 198, 142, 188, 165, 223, 41, 189, 10, 237, 255, 59, 177, 78, 120, 60, 231, 106, 1, 60, 192, 160, 43, 187, 7, 186, 40, 188, 1, 22, 252, 59, 221, 92, 25, 59, 14, 119, 0, 189, 74, 190, 51, 61, 205, 204, 120, 188, 168, 149, 9, 60, 158, 62, 13, 60, 45, 61, 62, 61, 52, 170, 24, 60, 70, 82, 203, 60, 157, 210, 36, 189, 24, 8, 219, 188, 15, 171, 46, 189, 223, 36, 189, 60, 44, 216, 255, 59, 125, 155, 129, 60, 175, 152, 7, 61, 231, 71, 24, 188, 206, 47, 50, 61, 135, 241, 14, 189, 68, 79, 181, 188, 63, 244, 245, 60, 194, 35, 187, 60, 123, 162, 1, 189, 226, 94, 4, 189, 195, 249, 164, 188, 211, 11, 207, 188, 112, 60, 190, 60, 228, 11, 175, 60, 163, 118, 161, 186, 88, 116, 108, 60, 219, 61, 199, 60, 87, 192, 23, 61, 15, 206, 39, 189, 89, 157, 94, 60, 208, 69, 63, 61, 126, 252, 34, 187, 189, 118, 27, 189, 58, 37, 76, 61, 51, 229, 18, 189, 145, 221, 181, 58, 146, 208, 94, 187, 160, 138, 78, 61, 67, 27, 177, 60, 127, 37, 52, 189, 238, 14, 172, 188, 188, 215, 211, 59, 42, 13, 132, 188, 77, 218, 36, 189, 144, 191, 26, 61, 135, 224, 192, 60, 121, 39, 188, 60, 76, 21, 129, 59, 24, 107, 196, 188, 77, 161, 219, 188, 136, 171, 126, 188, 184, 47, 167, 60, 2, 207, 200, 188, 192, 45, 44, 189, 177, 45, 176, 60, 66, 189, 5, 61, 74, 36, 223, 188, 52, 97, 61, 61, 53, 130, 249, 188, 106, 246, 248, 186, 120, 99, 138, 59, 36, 47, 239, 60, 190, 118, 156, 60, 38, 88, 51, 189, 97, 102, 118, 60, 243, 65, 180, 60, 120, 63, 197, 60, 150, 38, 93, 58, 230, 218, 12, 61, 77, 143, 148, 59, 236, 134, 34, 189, 153, 122, 81, 60, 51, 240, 52, 61, 235, 123, 167, 186, 213, 103, 247, 59, 198, 34, 18, 189, 51, 143, 186, 188, 195, 73, 159, 60, 96, 250, 2, 61, 76, 74, 52, 188, 224, 225, 159, 60, 6, 186, 17, 189, 241, 228, 163, 188, 58, 61, 54, 61, 231, 148, 41, 61, 140, 32, 158, 188, 155, 13, 35, 189, 187, 255, 226, 59, 15, 126, 15, 61, 197, 130, 186, 60, 211, 213, 24, 189, 79, 102, 57, 61, 17, 31, 242, 60, 132, 60, 24, 189, 81, 244, 148, 187, 0, 91, 44, 59, 172, 242, 162, 188, 71, 188, 16, 59, 28, 156, 153, 60, 192, 17, 73, 188, 232, 249, 217, 188, 60, 229, 163, 60, 92, 48, 48, 189, 28, 100, 244, 188, 111, 222, 60, 61, 92, 89, 0, 60, 72, 104, 112, 60, 138, 255, 137, 60, 20, 128, 96, 60, 10, 50, 248, 60, 2, 160, 66, 189, 219, 168, 170, 187, 238, 109, 37, 61, 32, 30, 5, 59, 25, 1, 37, 61, 187, 129, 46, 60, 244, 34, 247, 188, 166, 109, 148, 60, 170, 128, 21, 189, 151, 233, 247, 60, 49, 7, 43, 189, 95, 131, 28, 189, 83, 187, 169, 188, 18, 66, 150, 188, 80, 19, 250, 60, 160, 38, 24, 189, 216, 234, 231, 186, 239, 218, 25, 189, 251, 201, 50, 59, 197, 238, 145, 60, 241, 244, 134, 60, 153, 84, 145, 188, 172, 147, 65, 188, 206, 177, 136, 188, 5, 246, 30, 61, 50, 163, 216, 60, 220, 172, 250, 59, 78, 99, 228, 60, 64, 52, 65, 189, 108, 122, 30, 189, 207, 135, 249, 187, 160, 161, 25, 61, 185, 106, 17, 189, 232, 103, 3, 189, 78, 195, 30, 61, 42, 235, 22, 189, 67, 70, 41, 189, 126, 51, 60, 61, 137, 108, 58, 61, 189, 215, 91, 60, 144, 57, 124, 60, 10, 109, 212, 188, 92, 92, 205, 60, 162, 207, 40, 61, 204, 66, 76, 61, 236, 71, 133, 60, 136, 116, 27, 61, 104, 130, 203, 186, 7, 232, 14, 61, 242, 149, 180, 188, 85, 128, 188, 188, 131, 191, 185, 60, 230, 77, 101, 60, 147, 116, 33, 189, 39, 145, 156, 188, 15, 109, 191, 60, 45, 165, 200, 60, 217, 122, 44, 61, 10, 229, 73, 60, 100, 19, 153, 60, 60, 238, 200, 60, 55, 81, 1, 61, 78, 242, 246, 59, 216, 85, 240, 58, 36, 46, 175, 187, 194, 121, 215, 188, 117, 246, 173, 60, 106, 99, 241, 60, 206, 48, 49, 189, 128, 90, 36, 61, 32, 191, 27, 189, 213, 167, 125, 60, 26, 60, 62, 188, 152, 231, 187, 59, 36, 250, 240, 58, 214, 240, 84, 60, 229, 16, 21, 189, 186, 33, 109, 60, 97, 46, 190, 188, 224, 175, 247, 188, 172, 131, 20, 61, 147, 184, 203, 188, 99, 150, 33, 188, 18, 42, 35, 188, 81, 119, 22, 189, 142, 63, 47, 61, 177, 90, 107, 60, 75, 140, 28, 61, 206, 11, 53, 61, 124, 244, 132, 60, 196, 240, 202, 60, 121, 49, 239, 60, 226, 162, 34, 61, 175, 253, 30, 60, 252, 23, 236, 59, 115, 112, 7, 189, 118, 39, 96, 188, 132, 124, 200, 57, 140, 63, 32, 61, 230, 4, 113, 187, 220, 43, 22, 61, 223, 0, 48, 59, 151, 192, 175, 188, 233, 213, 212, 188, 181, 178, 189, 60, 84, 98, 43, 188, 230, 73, 236, 188, 135, 35, 23, 189, 104, 255, 1, 189, 20, 195, 212, 59, 108, 209, 198, 188, 139, 13, 121, 60, 98, 96, 164, 60, 225, 27, 6, 189, 170, 89, 223, 188, 108, 5, 44, 189, 74, 206, 28, 61, 96, 161, 79, 188, 235, 156, 59, 189, 203, 108, 36, 189, 123, 148, 75, 189, 53, 93, 35, 187, 137, 114, 11, 61, 79, 111, 81, 60, 32, 96, 217, 60, 45, 174, 45, 58, 102, 13, 99, 60, 230, 44, 46, 61, 144, 96, 33, 61, 116, 145, 177, 60, 227, 82, 23, 61, 136, 168, 66, 187, 137, 146, 136, 188, 28, 52, 71, 186, 13, 71, 134, 60, 176, 114, 152, 60, 117, 99, 54, 189, 131, 120, 85, 188, 44, 243, 146, 188, 99, 96, 18, 61, 160, 98, 77, 187, 136, 190, 76, 188, 237, 124, 48, 61, 148, 41, 140, 60, 67, 121, 95, 60, 240, 70, 213, 187, 248, 190, 247, 188, 140, 109, 170, 188, 24, 77, 248, 187, 154, 91, 249, 59, 198, 38, 61, 189, 180, 100, 10, 61, 32, 208, 19, 61, 68, 6, 86, 187, 46, 81, 136, 188, 228, 107, 253, 188, 103, 130, 213, 59, 166, 154, 251, 187, 233, 0, 14, 61, 36, 243, 153, 188, 146, 25, 101, 60, 118, 85, 16, 189, 249, 68, 103, 188, 21, 248, 48, 61, 247, 152, 202, 60, 176, 201, 178, 188, 82, 94, 243, 60, 88, 238, 214, 60, 226, 120, 171, 60, 157, 131, 51, 61, 42, 209, 42, 189, 190, 81, 97, 60, 27, 95, 58, 61, 214, 116, 187, 60, 190, 231, 51, 61, 183, 137, 129, 59, 69, 69, 60, 189, 204, 141, 195, 187, 121, 22, 6, 189, 65, 22, 230, 60, 34, 19, 3, 61, 61, 109, 203, 188, 230, 68, 42, 61, 221, 182, 46, 61, 36, 48, 77, 61, 170, 229, 5, 189, 176, 243, 25, 187, 190, 101, 25, 59, 164, 201, 1, 189, 144, 192, 141, 188, 194, 222, 44, 189, 250, 139, 34, 61, 90, 187, 224, 59, 115, 86, 127, 188, 83, 251, 188, 188, 6, 246, 188, 188, 116, 102, 231, 60, 232, 59, 73, 61, 138, 37, 18, 61, 84, 153, 138, 60, 184, 168, 3, 61, 215, 241, 7, 189, 105, 212, 53, 61, 76, 166, 36, 189, 78, 92, 131, 187, 252, 10, 164, 60, 236, 60, 58, 61, 186, 198, 56, 188, 230, 127, 21, 189, 8, 151, 167, 188, 222, 10, 21, 61, 7, 152, 190, 188, 165, 177, 220, 188, 239, 168, 240, 188, 192, 77, 244, 188, 98, 150, 34, 189, 156, 234, 108, 60, 89, 86, 21, 189, 115, 75, 214, 188, 78, 227, 189, 60, 165, 27, 67, 61, 124, 214, 119, 60, 36, 36, 33, 188, 48, 69, 64, 189, 99, 141, 180, 59, 176, 0, 31, 61, 133, 204, 223, 187, 149, 22, 25, 189, 244, 224, 7, 60, 55, 60, 47, 189, 157, 60, 47, 189, 75, 96, 51, 61, 29, 76, 56, 189, 23, 88, 158, 188, 82, 46, 12, 60, 0, 26, 131, 60, 64, 83, 246, 59, 244, 203, 255, 186, 177, 219, 135, 60, 35, 226, 69, 188, 180, 227, 253, 60, 37, 82, 210, 59, 40, 10, 22, 61, 22, 215, 85, 59, 43, 222, 44, 61, 37, 114, 223, 187, 5, 220, 238, 188, 24, 84, 139, 188, 122, 102, 251, 60, 102, 195, 78, 56, 217, 31, 188, 186, 170, 194, 164, 187, 165, 75, 7, 187, 49, 33, 45, 60, 211, 166, 186, 60, 159, 203, 76, 188, 34, 105, 99, 188, 224, 143, 26, 189, 252, 147, 22, 189, 240, 218, 15, 189, 112, 197, 193, 60, 61, 167, 12, 61, 31, 232, 129, 188, 172, 246, 5, 189, 199, 89, 229, 60, 39, 58, 29, 189, 140, 83, 17, 61, 87, 127, 55, 61, 123, 138, 234, 60, 65, 157, 232, 59, 25, 187, 59, 60, 53, 124, 16, 61, 215, 161, 23, 189, 73, 86, 33, 60, 112, 85, 213, 60, 150, 115, 175, 188, 240, 151, 21, 189, 144, 165, 45, 189, 244, 14, 45, 60, 198, 222, 237, 188, 112, 42, 14, 61, 98, 167, 191, 58, 9, 130, 2, 61, 194, 222, 59, 60, 84, 195, 44, 189, 138, 226, 77, 188, 241, 58, 60, 61, 14, 103, 234, 60, 238, 244, 18, 187, 183, 199, 155, 187, 226, 108, 220, 188, 239, 96, 250, 188, 179, 134, 186, 188, 142, 240, 16, 61, 118, 28, 4, 61, 48, 239, 200, 59, 95, 58, 21, 188, 227, 150, 39, 189, 77, 174, 106, 58, 99, 54, 188, 59, 88, 38, 167, 60, 183, 101, 18, 61, 129, 113, 35, 189, 137, 197, 93, 188, 222, 110, 240, 60, 23, 110, 191, 187, 41, 2, 179, 59, 155, 67, 14, 189, 142, 17, 2, 60, 226, 24, 42, 61, 26, 161, 16, 189, 238, 98, 240, 188, 155, 191, 98, 188, 164, 221, 228, 188, 236, 41, 30, 61, 218, 163, 10, 189, 182, 208, 41, 61, 96, 88, 74, 56, 74, 61, 27, 61, 198, 68, 52, 189, 90, 1, 0, 188, 57, 237, 153, 59, 126, 162, 46, 189, 28, 83, 43, 189, 168, 231, 49, 61, 182, 84, 3, 61, 2, 96, 33, 61, 204, 235, 206, 188, 131, 52, 72, 188, 81, 113, 6, 189, 139, 239, 25, 61, 174, 164, 133, 60, 95, 216, 73, 61, 130, 162, 131, 60, 234, 52, 183, 60, 88, 38, 161, 60, 153, 39, 209, 188, 124, 68, 101, 188, 85, 231, 230, 188, 117, 170, 154, 60, 168, 243, 169, 186, 112, 83, 14, 61, 0, 186, 48, 61, 82, 216, 101, 60, 142, 18, 159, 60, 215, 141, 12, 189, 223, 12, 11, 187, 5, 179, 36, 189, 85, 47, 154, 60, 125, 93, 43, 189, 71, 211, 88, 60, 194, 19, 135, 60, 194, 110, 66, 188, 251, 99, 119, 188, 11, 223, 26, 189, 38, 241, 10, 61, 248, 255, 11, 61, 144, 212, 21, 61, 125, 97, 139, 188, 198, 118, 4, 189, 29, 253, 166, 60, 203, 229, 112, 59, 105, 111, 7, 61, 155, 121, 1, 61, 182, 15, 64, 189, 109, 128, 57, 61, 97, 198, 180, 59, 131, 201, 24, 60, 154, 94, 52, 189, 121, 235, 8, 61, 221, 13, 229, 188, 13, 1, 61, 188, 229, 185, 85, 60, 1, 95, 64, 59, 201, 87, 137, 188, 131, 189, 165, 188, 202, 235, 136, 60, 20, 210, 138, 60, 2, 165, 52, 61, 220, 224, 35, 187, 249, 245, 17, 61, 99, 242, 16, 189, 110, 51, 74, 61, 29, 7, 216, 188, 222, 248, 61, 61, 117, 250, 255, 60, 75, 226, 207, 58, 214, 198, 9, 189, 171, 70, 2, 188, 17, 15, 39, 189, 175, 112, 27, 60, 134, 50, 76, 188, 22, 143, 64, 189, 24, 28, 63, 61, 142, 214, 182, 59, 84, 54, 6, 59, 10, 184, 17, 61, 73, 49, 53, 61, 255, 43, 130, 187, 211, 172, 35, 61, 231, 98, 25, 61, 235, 59, 28, 61, 144, 129, 191, 188, 112, 152, 85, 188, 146, 228, 39, 61, 181, 149, 71, 60, 176, 225, 65, 61, 233, 152, 48, 61, 104, 84, 59, 189, 199, 104, 194, 188, 34, 95, 31, 188, 41, 224, 47, 189, 92, 26, 179, 188, 186, 247, 240, 59, 33, 87, 157, 187, 133, 78, 208, 188, 76, 109, 17, 189, 27, 48, 129, 59, 231, 85, 204, 188, 77, 59, 37, 187, 21, 125, 3, 61, 31, 27, 175, 188, 96, 157, 219, 59, 78, 21, 144, 188, 49, 111, 250, 60, 122, 159, 46, 189, 62, 77, 83, 188, 1, 166, 205, 60, 213, 111, 99, 188, 158, 166, 11, 61, 243, 244, 9, 60, 155, 29, 62, 189, 34, 114, 15, 61, 228, 242, 11, 61, 48, 42, 44, 189, 180, 254, 152, 188, 126, 172, 196, 60, 167, 42, 162, 187, 221, 0, 67, 61, 148, 119, 136, 60, 87, 130, 27, 189, 175, 178, 143, 187, 196, 174, 215, 60, 188, 107, 67, 61, 128, 32, 228, 60, 240, 52, 142, 188, 21, 86, 124, 187, 10, 40, 229, 187, 225, 4, 79, 188, 94, 212, 26, 59, 203, 171, 163, 188, 202, 196, 80, 60, 111, 58, 13, 61, 47, 152, 131, 60, 233, 77, 163, 188, 142, 79, 216, 188, 97, 35, 1, 189, 101, 100, 174, 188, 115, 248, 133, 188, 183, 246, 41, 189, 89, 211, 129, 60, 128, 50, 67, 189, 53, 146, 112, 60, 195, 126, 34, 189, 222, 12, 34, 188, 41, 213, 220, 60, 247, 146, 26, 61, 203, 134, 148, 58, 211, 216, 13, 188, 201, 16, 20, 189, 241, 85, 90, 60, 251, 15, 220, 60, 59, 213, 157, 187, 2, 223, 161, 188, 89, 100, 128, 60, 56, 34, 220, 188, 254, 131, 48, 61, 5, 250, 55, 61, 200, 1, 158, 186, 254, 7, 127, 188, 82, 24, 127, 188, 1, 200, 23, 61, 35, 18, 232, 187, 88, 92, 177, 60, 82, 168, 201, 60, 14, 197, 138, 60, 232, 99, 62, 61, 89, 66, 224, 188, 252, 137, 33, 189, 254, 244, 7, 61, 250, 17, 60, 61, 141, 152, 34, 60, 69, 211, 61, 61, 154, 132, 247, 60, 126, 223, 26, 185, 188, 80, 155, 187, 1, 23, 8, 60, 79, 204, 225, 188, 221, 188, 142, 60, 130, 157, 66, 187, 19, 44, 56, 61, 92, 93, 68, 189, 0, 204, 47, 61, 183, 118, 14, 188, 35, 123, 7, 59, 184, 55, 154, 59, 236, 147, 105, 188, 48, 4, 153, 188, 189, 234, 190, 188, 145, 35, 45, 189, 100, 217, 175, 59, 151, 68, 45, 189, 133, 85, 133, 188, 119, 4, 170, 60, 136, 16, 146, 60, 153, 80, 227, 58, 20, 47, 62, 61, 212, 85, 191, 187, 91, 44, 42, 189, 203, 172, 87, 188, 215, 122, 28, 60, 185, 88, 194, 187, 76, 76, 44, 61, 126, 74, 149, 60, 87, 237, 161, 186, 242, 75, 66, 61, 212, 79, 49, 61, 85, 153, 145, 187, 91, 151, 47, 60, 183, 141, 4, 59, 161, 120, 227, 188, 254, 122, 94, 58, 119, 16, 46, 59, 156, 175, 18, 61, 42, 20, 21, 61, 168, 138, 58, 61, 41, 16, 64, 189, 235, 78, 210, 188, 28, 147, 28, 187, 23, 34, 30, 188, 241, 195, 121, 188, 110, 53, 56, 188, 18, 63, 173, 188, 193, 229, 68, 189, 1, 159, 219, 58, 252, 188, 172, 60, 252, 185, 9, 60, 214, 165, 240, 60, 133, 107, 54, 58, 110, 217, 206, 59, 186, 7, 64, 61, 120, 233, 73, 60, 56, 212, 69, 188, 169, 17, 199, 187, 141, 255, 168, 187, 108, 178, 38, 187, 141, 178, 33, 61, 40, 27, 227, 60, 5, 126, 89, 57, 60, 140, 59, 189, 52, 117, 63, 189, 165, 73, 167, 60, 235, 214, 129, 187, 88, 51, 163, 60, 113, 228, 224, 187, 194, 246, 188, 60, 189, 248, 34, 188, 128, 185, 128, 60, 110, 106, 39, 189, 230, 159, 17, 189, 148, 50, 148, 60, 134, 220, 198, 188, 128, 220, 141, 60, 75, 196, 174, 59, 245, 83, 4, 61, 107, 154, 139, 59, 122, 76, 133, 59, 25, 95, 29, 189, 223, 143, 94, 60, 211, 228, 6, 189, 254, 145, 239, 60, 213, 104, 139, 60, 239, 26, 210, 188, 14, 81, 63, 61, 232, 15, 9, 189, 32, 202, 225, 60, 227, 115, 179, 188, 245, 76, 31, 187, 222, 46, 197, 188, 54, 135, 4, 189, 99, 242, 43, 188, 103, 218, 117, 60, 140, 0, 162, 60, 47, 99, 40, 189, 9, 180, 69, 61, 216, 77, 42, 189, 144, 248, 65, 61, 27, 87, 227, 60, 135, 71, 38, 61, 178, 177, 183, 188, 11, 185, 34, 189, 72, 192, 3, 189, 196, 250, 39, 61, 247, 2, 31, 61, 45, 191, 244, 59, 154, 164, 208, 188, 153, 211, 4, 189, 58, 56, 54, 188, 174, 83, 247, 60, 141, 16, 74, 188, 127, 68, 9, 61, 12, 106, 154, 60, 83, 178, 14, 60, 98, 22, 20, 189, 89, 168, 216, 186, 170, 56, 11, 189, 176, 122, 218, 60, 224, 187, 113, 60, 24, 87, 139, 59, 176, 142, 200, 60, 210, 72, 57, 189, 196, 155, 192, 60, 60, 216, 18, 61, 171, 239, 25, 61, 3, 33, 224, 58, 141, 217, 202, 188, 194, 39, 241, 60, 243, 136, 11, 58, 63, 113, 79, 188, 98, 74, 28, 189, 205, 4, 92, 187, 62, 206, 4, 61, 207, 103, 46, 189, 120, 57, 24, 189, 230, 53, 198, 188, 102, 180, 216, 60, 54, 9, 91, 60, 206, 119, 227, 60, 66, 218, 14, 58, 168, 75, 140, 59, 61, 181, 144, 188, 88, 96, 135, 60, 131, 168, 200, 188, 16, 196, 208, 188, 27, 119, 151, 186, 63, 168, 57, 61, 160, 34, 42, 189, 178, 243, 153, 185, 198, 70, 30, 189, 83, 80, 24, 188, 165, 166, 142, 188, 182, 134, 162, 188, 144, 34, 124, 187, 188, 219, 21, 189, 87, 13, 14, 61, 92, 17, 136, 60, 101, 120, 200, 188, 179, 201, 67, 61, 163, 131, 84, 60, 164, 233, 112, 59, 41, 235, 39, 189, 78, 16, 211, 60, 102, 184, 54, 61, 255, 87, 0, 60, 186, 105, 26, 188, 171, 126, 115, 188, 163, 144, 159, 60, 242, 124, 246, 60, 99, 96, 154, 57, 219, 115, 175, 59, 111, 110, 49, 189, 96, 81, 5, 59, 120, 89, 233, 187, 217, 239, 28, 61, 201, 116, 90, 60, 104, 209, 35, 61, 130, 219, 144, 60, 187, 44, 237, 59, 180, 7, 24, 189, 142, 155, 73, 188, 118, 164, 251, 58, 33, 6, 68, 58, 183, 83, 173, 186, 6, 163, 237, 188, 78, 113, 185, 187, 172, 240, 166, 59, 208, 8, 31, 187, 135, 160, 24, 61, 13, 18, 192, 57, 199, 252, 45, 188, 68, 138, 62, 60, 219, 194, 64, 189, 222, 240, 67, 61, 78, 59, 52, 189, 51, 199, 61, 188, 88, 49, 133, 60, 172, 98, 212, 188, 61, 161, 163, 60, 153, 121, 81, 60, 130, 38, 195, 188, 246, 212, 0, 61, 37, 240, 50, 188, 153, 50, 23, 189, 212, 248, 12, 189, 190, 213, 72, 60, 52, 159, 60, 187, 19, 67, 68, 189, 234, 243, 228, 188, 211, 203, 41, 60, 32, 16, 223, 60, 48, 148, 68, 186, 211, 233, 20, 61, 197, 174, 186, 187, 179, 200, 95, 59, 11, 203, 223, 188, 2, 40, 12, 189, 178, 131, 55, 189, 153, 136, 134, 59, 189, 159, 239, 59, 142, 39, 169, 60, 232, 138, 56, 189, 237, 219, 187, 188, 52, 227, 103, 188, 175, 41, 129, 60, 164, 132, 223, 188, 105, 129, 233, 188, 21, 160, 80, 187, 189, 139, 126, 188, 202, 178, 26, 189, 206, 75, 40, 60, 58, 53, 172, 187, 81, 116, 147, 188, 222, 237, 43, 189, 245, 223, 31, 189, 248, 248, 226, 188, 129, 248, 198, 188, 46, 16, 211, 187, 75, 203, 50, 61, 70, 252, 7, 189, 139, 31, 132, 58, 68, 104, 73, 186, 37, 165, 44, 189, 83, 2, 187, 188, 211, 100, 248, 188, 236, 152, 137, 188, 254, 157, 14, 61, 91, 58, 78, 60, 120, 255, 46, 61, 191, 4, 254, 188, 14, 73, 24, 188, 132, 215, 63, 187, 14, 2, 148, 60, 204, 248, 47, 189, 24, 204, 195, 188, 128, 113, 7, 188, 77, 99, 11, 61, 24, 129, 106, 60, 29, 243, 157, 60, 189, 54, 23, 189, 96, 22, 215, 59, 27, 111, 39, 189, 218, 11, 9, 60, 248, 117, 116, 188, 160, 17, 39, 189, 67, 163, 254, 188, 83, 239, 154, 188, 26, 122, 110, 59, 115, 242, 153, 60, 231, 248, 142, 188, 163, 84, 21, 58, 56, 102, 3, 189, 237, 147, 192, 60, 9, 239, 169, 60, 42, 217, 143, 60, 147, 235, 43, 61, 150, 22, 140, 60, 133, 55, 110, 59, 236, 108, 41, 189, 181, 215, 157, 59, 147, 185, 38, 60, 243, 255, 137, 60, 180, 209, 64, 189, 157, 212, 66, 60, 93, 227, 108, 188, 173, 253, 140, 186, 17, 47, 27, 189, 106, 191, 142, 60, 202, 11, 140, 60, 210, 116, 244, 188, 116, 19, 56, 61, 136, 136, 159, 187, 186, 70, 197, 187, 218, 81, 25, 61, 126, 94, 155, 60, 34, 227, 85, 59, 181, 227, 186, 188, 151, 154, 88, 59, 245, 133, 169, 60, 19, 86, 37, 61, 40, 7, 64, 189, 102, 29, 100, 187, 81, 227, 53, 60, 142, 69, 51, 60, 116, 38, 1, 189, 106, 178, 251, 188, 89, 27, 146, 60, 58, 82, 228, 188, 141, 65, 32, 189, 81, 100, 68, 60, 162, 156, 21, 189, 177, 254, 36, 189, 248, 24, 22, 187, 2, 235, 43, 61, 180, 27, 7, 61, 92, 64, 106, 59, 62, 171, 10, 61, 124, 171, 13, 189, 214, 75, 1, 60, 19, 219, 233, 58, 26, 46, 67, 60, 220, 45, 7, 61, 149, 12, 210, 188, 109, 181, 136, 60, 97, 243, 23, 189, 42, 194, 6, 189, 93, 77, 183, 60, 136, 207, 173, 188, 210, 162, 93, 188, 202, 241, 37, 189, 132, 120, 101, 59, 101, 30, 51, 189, 201, 57, 139, 58, 240, 2, 250, 188, 30, 19, 245, 188, 255, 235, 195, 60, 127, 98, 173, 188, 189, 140, 71, 59, 246, 227, 206, 60, 240, 166, 36, 189, 128, 243, 14, 60, 215, 235, 9, 189, 116, 244, 55, 61, 150, 101, 175, 188, 172, 170, 226, 187, 51, 189, 246, 60, 21, 85, 123, 188, 188, 43, 48, 60, 11, 47, 175, 60, 120, 218, 58, 61, 185, 138, 49, 61, 63, 48, 36, 189, 193, 234, 68, 61, 108, 148, 115, 60, 124, 112, 165, 60, 41, 171, 134, 60, 68, 137, 18, 61, 56, 146, 174, 60, 3, 34, 43, 61, 218, 239, 128, 60, 182, 96, 38, 60, 62, 239, 214, 60, 100, 200, 215, 188, 84, 24, 119, 60, 140, 15, 220, 188, 183, 101, 53, 189, 7, 148, 136, 188, 100, 109, 12, 189, 81, 106, 207, 188, 10, 100, 67, 61, 50, 188, 32, 189, 235, 99, 48, 61, 111, 80, 38, 60, 30, 75, 167, 60, 124, 70, 11, 188, 188, 67, 19, 59, 182, 167, 60, 189, 24, 232, 189, 188, 178, 229, 128, 58, 249, 219, 3, 189, 120, 88, 215, 60, 244, 161, 54, 189, 43, 250, 231, 58, 30, 184, 46, 187, 101, 149, 164, 60, 222, 27, 5, 61, 195, 166, 164, 186, 59, 237, 106, 60, 171, 69, 64, 189, 151, 73, 6, 189, 24, 237, 199, 59, 160, 188, 11, 189, 9, 120, 67, 60, 190, 146, 74, 60, 239, 162, 11, 189, 115, 159, 42, 60, 136, 117, 139, 60, 51, 79, 192, 188, 154, 237, 52, 189, 83, 124, 22, 61, 251, 29, 149, 59, 244, 121, 133, 60, 182, 155, 61, 61, 105, 103, 150, 60, 77, 54, 136, 60, 231, 165, 9, 61, 121, 214, 69, 188, 181, 74, 211, 60, 44, 212, 17, 61, 247, 112, 154, 188, 138, 24, 160, 187, 225, 233, 133, 60, 203, 117, 33, 61, 199, 20, 30, 189, 110, 200, 216, 188, 216, 50, 135, 188, 54, 141, 29, 189, 13, 70, 6, 61, 12, 96, 0, 188, 170, 133, 61, 189, 194, 6, 63, 61, 183, 119, 176, 59, 119, 231, 219, 188, 58, 6, 179, 60, 166, 44, 52, 61, 64, 191, 142, 188, 68, 172, 249, 187, 237, 154, 54, 189, 244, 123, 56, 61, 156, 4, 97, 59, 156, 57, 3, 189, 116, 238, 47, 189, 78, 94, 245, 60, 90, 127, 139, 60, 106, 155, 41, 189, 6, 59, 55, 61, 76, 224, 67, 188, 204, 240, 242, 188, 42, 58, 135, 60, 99, 181, 38, 61, 67, 231, 54, 189, 42, 217, 155, 188, 71, 145, 213, 60, 107, 94, 107, 60, 147, 150, 176, 188, 75, 139, 159, 59, 136, 170, 96, 59, 225, 229, 158, 188, 246, 230, 9, 189, 109, 43, 170, 188, 57, 123, 42, 61, 177, 114, 35, 187, 102, 41, 68, 61, 90, 158, 28, 189, 22, 97, 19, 189, 217, 48, 121, 188, 6, 164, 19, 188, 79, 197, 209, 60, 37, 53, 92, 59, 164, 165, 114, 60, 227, 113, 124, 187, 120, 235, 52, 61, 82, 143, 126, 59, 168, 24, 125, 60, 8, 22, 68, 60, 120, 139, 24, 61, 45, 57, 38, 189, 13, 16, 84, 60, 213, 82, 201, 60, 6, 250, 216, 60, 113, 213, 12, 189, 116, 128, 36, 61, 228, 248, 37, 61, 199, 138, 18, 61, 249, 153, 62, 189, 213, 72, 182, 58, 96, 243, 241, 60, 144, 232, 59, 189, 232, 221, 55, 61, 77, 22, 8, 61, 238, 221, 14, 60, 202, 255, 248, 188, 241, 238, 87, 188, 166, 70, 50, 189, 211, 107, 134, 60, 54, 223, 71, 60, 220, 168, 46, 189, 169, 209, 93, 188, 185, 191, 54, 189, 158, 134, 160, 188, 75, 106, 69, 188, 154, 178, 52, 61, 97, 252, 213, 188, 52, 82, 142, 188, 198, 62, 71, 59, 142, 106, 38, 189, 192, 154, 202, 60, 215, 108, 238, 60, 116, 142, 16, 61, 186, 108, 87, 188, 1, 114, 162, 188, 156, 0, 146, 188, 39, 159, 26, 61, 29, 131, 147, 188, 186, 227, 244, 60, 11, 17, 26, 188, 83, 66, 24, 60, 228, 78, 106, 60, 248, 70, 157, 188, 8, 250, 172, 60, 37, 45, 64, 61, 170, 174, 224, 60, 1, 122, 76, 60, 42, 51, 82, 60, 30, 16, 219, 186, 79, 59, 217, 60, 190, 249, 137, 60, 235, 144, 132, 60, 179, 242, 29, 60, 142, 188, 130, 185, 176, 230, 233, 188, 168, 29, 253, 188, 55, 73, 35, 61, 184, 225, 6, 60, 72, 90, 5, 60, 204, 190, 197, 60, 168, 211, 9, 189, 102, 194, 225, 60, 97, 83, 58, 188, 110, 134, 32, 60, 118, 53, 191, 184, 103, 219, 243, 188, 157, 245, 34, 61, 115, 78, 31, 61, 101, 90, 18, 61, 231, 43, 41, 189, 26, 220, 209, 60, 79, 229, 43, 189, 201, 199, 63, 61, 61, 139, 236, 60, 30, 134, 33, 189, 144, 42, 207, 188, 131, 168, 63, 189, 39, 97, 65, 61, 211, 191, 27, 61, 74, 255, 136, 58, 137, 45, 70, 59, 249, 120, 252, 60, 167, 139, 229, 188, 156, 13, 208, 188, 217, 185, 25, 61, 224, 100, 78, 188, 231, 85, 183, 59, 120, 217, 26, 60, 191, 104, 34, 61, 170, 205, 2, 189, 18, 198, 233, 187, 94, 139, 26, 188, 28, 210, 185, 60, 74, 5, 230, 188, 197, 194, 74, 188, 80, 210, 43, 61, 4, 148, 189, 60, 68, 29, 22, 60, 25, 151, 179, 188, 206, 84, 43, 61, 179, 57, 53, 61, 63, 241, 95, 60, 55, 4, 47, 189, 110, 30, 117, 188, 44, 126, 33, 189, 244, 127, 240, 187, 79, 109, 133, 60, 87, 44, 15, 61, 210, 225, 166, 188, 75, 95, 211, 187, 160, 138, 18, 61, 143, 118, 6, 60, 80, 17, 218, 60, 59, 108, 210, 187, 24, 113, 65, 59, 242, 190, 118, 58, 212, 202, 218, 60, 123, 10, 13, 61, 228, 178, 225, 188, 163, 85, 21, 61, 118, 17, 51, 189, 38, 142, 11, 61, 173, 193, 82, 188, 0, 94, 64, 61, 26, 237, 57, 189, 119, 200, 27, 61, 71, 153, 175, 60, 232, 252, 39, 189, 130, 245, 164, 58, 64, 134, 22, 61, 128, 36, 13, 61, 234, 86, 40, 61, 233, 139, 205, 187, 124, 204, 137, 188, 151, 169, 7, 60, 151, 250, 237, 187, 174, 218, 225, 59, 159, 219, 35, 185, 80, 99, 98, 60, 188, 161, 96, 188, 237, 145, 191, 59, 147, 34, 79, 60, 62, 176, 249, 186, 76, 116, 220, 188, 191, 102, 19, 60, 201, 227, 253, 188, 233, 49, 58, 189, 211, 7, 215, 60, 197, 4, 64, 184, 130, 249, 43, 61, 103, 174, 234, 188, 83, 246, 59, 188, 191, 196, 196, 188, 134, 76, 43, 61, 248, 223, 252, 59, 17, 192, 232, 60, 166, 235, 39, 189, 189, 11, 12, 61, 108, 120, 2, 61, 116, 4, 13, 61, 3, 151, 49, 189, 115, 122, 179, 188, 125, 192, 86, 60, 32, 113, 62, 61, 111, 209, 159, 188, 73, 59, 156, 188, 87, 58, 53, 189, 25, 252, 29, 61, 47, 120, 125, 188, 229, 54, 29, 61, 181, 100, 12, 61, 106, 191, 67, 61, 134, 244, 175, 60, 149, 17, 100, 188, 91, 75, 73, 59, 73, 49, 30, 60, 67, 3, 34, 189, 66, 48, 10, 61, 242, 236, 4, 61, 84, 14, 136, 188, 36, 52, 5, 60, 108, 50, 56, 60, 29, 208, 26, 61, 108, 254, 5, 61, 185, 127, 22, 60, 113, 224, 5, 189, 244, 24, 49, 188, 85, 42, 151, 60, 98, 4, 35, 61, 106, 109, 35, 61, 83, 118, 5, 61, 59, 176, 159, 188, 78, 33, 232, 60, 245, 248, 195, 188, 136, 27, 163, 188, 126, 185, 149, 187, 141, 207, 24, 61, 39, 74, 58, 61, 10, 157, 158, 60, 31, 189, 34, 189, 97, 27, 39, 61, 90, 248, 178, 188, 95, 58, 158, 60, 109, 85, 32, 61, 230, 116, 142, 59, 99, 223, 41, 189, 248, 149, 187, 188, 57, 115, 172, 60, 124, 177, 19, 60, 211, 206, 10, 61, 107, 244, 73, 188, 242, 253, 16, 61, 106, 98, 36, 189, 207, 160, 82, 188, 64, 64, 9, 189, 131, 216, 17, 60, 34, 39, 162, 60, 54, 21, 246, 188, 136, 204, 201, 60, 228, 148, 41, 189, 57, 115, 240, 60, 120, 73, 221, 188, 147, 42, 29, 61, 138, 21, 163, 187, 90, 203, 52, 61, 172, 70, 39, 61, 92, 131, 62, 189, 144, 115, 182, 60, 136, 43, 16, 189, 253, 118, 212, 60, 220, 214, 36, 61, 88, 28, 22, 189, 134, 98, 194, 188, 176, 170, 220, 60, 126, 224, 57, 188, 144, 49, 49, 61, 197, 142, 115, 60, 210, 59, 14, 61, 237, 248, 162, 59, 219, 120, 241, 188, 199, 130, 22, 189, 84, 111, 254, 188, 34, 14, 50, 61, 89, 95, 104, 60, 195, 47, 161, 59, 17, 196, 14, 189, 170, 196, 68, 189, 72, 223, 214, 188, 3, 150, 187, 188, 118, 35, 64, 189, 227, 110, 223, 60, 105, 54, 133, 188, 145, 180, 20, 189, 154, 20, 196, 60, 65, 101, 192, 60, 60, 228, 41, 61, 204, 46, 72, 60, 16, 192, 34, 189, 221, 110, 134, 60, 109, 176, 58, 59, 150, 107, 182, 60, 129, 25, 88, 188, 235, 49, 245, 60, 46, 231, 66, 187, 103, 72, 29, 189, 11, 9, 177, 188, 78, 228, 11, 61, 76, 145, 138, 60, 173, 217, 32, 189, 33, 154, 232, 60, 113, 105, 10, 61, 22, 133, 219, 60, 59, 132, 3, 61, 37, 10, 221, 60, 162, 225, 131, 188, 139, 77, 217, 188, 134, 252, 199, 186, 188, 152, 30, 188, 93, 2, 8, 189, 62, 184, 203, 188, 142, 231, 183, 188, 0, 74, 232, 186, 168, 230, 52, 60, 134, 248, 40, 61, 93, 41, 20, 189, 252, 78, 166, 60, 144, 196, 178, 60, 68, 165, 49, 189, 36, 91, 8, 61, 242, 168, 176, 188, 160, 64, 11, 188, 252, 5, 203, 60, 32, 239, 131, 60, 98, 80, 132, 188, 249, 43, 25, 189, 204, 223, 229, 60, 9, 62, 7, 189, 7, 3, 141, 188, 167, 165, 53, 189, 128, 212, 61, 60, 88, 79, 241, 187, 94, 190, 200, 188, 20, 162, 241, 60, 16, 60, 136, 59, 249, 118, 34, 189, 208, 145, 165, 59, 86, 8, 55, 61, 184, 29, 188, 60, 104, 155, 172, 60, 48, 236, 36, 59, 16, 29, 117, 60, 84, 104, 253, 60, 200, 34, 162, 187, 228, 109, 171, 188, 144, 151, 9, 61, 128, 0, 91, 188, 226, 201, 59, 61, 94, 198, 58, 189, 148, 184, 205, 60, 102, 97, 25, 189, 52, 112, 133, 188, 44, 57, 4, 61, 32, 196, 193, 187, 128, 37, 127, 187, 236, 255, 115, 188, 242, 177, 3, 189, 134, 180, 20, 189, 149, 3, 200, 188, 184, 208, 0, 61, 160, 226, 62, 188, 189, 156, 185, 188, 84, 187, 79, 188, 0, 44, 20, 188, 88, 142, 21, 188, 236, 167, 12, 188, 100, 249, 21, 188, 72, 49, 0, 61, 196, 243, 16, 188, 170, 187, 171, 188, 135, 108, 234, 188, 224, 49, 51, 61, 88, 241, 30, 61, 70, 173, 4, 189, 95, 232, 233, 188, 88, 183, 178, 60, 76, 60, 97, 60, 64, 96, 196, 58, 104, 20, 19, 60, 134, 84, 34, 61, 212, 145, 183, 188, 247, 133, 5, 189, 72, 83, 156, 188, 38, 67, 60, 61, 1, 118, 242, 188, 121, 69, 51, 189, 65, 177, 212, 188, 228, 37, 65, 61, 43, 24, 174, 188, 67, 58, 208, 188, 178, 98, 229, 188, 0, 170, 214, 57, 224, 67, 209, 187, 54, 66, 241, 188, 80, 121, 168, 60, 84, 143, 51, 60, 180, 115, 63, 61, 0, 161, 38, 187, 80, 202, 84, 188, 116, 219, 253, 188, 92, 237, 18, 61, 176, 32, 200, 60, 244, 182, 166, 60, 100, 101, 235, 60, 144, 255, 2, 59, 64, 160, 122, 58, 32, 8, 80, 60, 20, 246, 18, 188, 243, 35, 61, 189, 88, 113, 72, 60, 208, 97, 237, 60, 150, 223, 22, 61, 184, 196, 5, 61, 36, 45, 252, 188, 72, 243, 227, 188, 252, 167, 135, 60, 61, 28, 238, 188, 118, 213, 20, 189, 192, 44, 108, 187, 148, 134, 42, 60, 196, 37, 49, 188, 160, 200, 226, 186, 100, 19, 191, 60, 200, 23, 180, 60, 10, 12, 192, 188, 232, 104, 242, 187, 6, 114, 15, 189, 160, 13, 10, 60, 192, 196, 24, 189, 0, 156, 172, 56, 32, 160, 220, 186, 40, 109, 129, 60, 8, 20, 126, 188, 92, 111, 57, 188, 204, 116, 191, 60, 228, 184, 32, 60, 9, 180, 198, 188, 28, 67, 75, 60, 168, 5, 181, 187, 188, 232, 37, 189, 52, 58, 227, 60, 136, 85, 102, 60, 6, 75, 29, 189, 44, 100, 246, 188, 64, 108, 148, 60, 92, 32, 32, 61, 168, 45, 62, 188, 224, 215, 77, 188, 136, 75, 132, 60, 30, 65, 19, 189, 92, 252, 104, 60, 126, 208, 31, 189, 102, 82, 66, 61, 94, 115, 35, 61, 216, 134, 57, 189, 81, 80, 15, 189, 128, 179, 60, 59, 220, 146, 227, 60, 112, 219, 0, 189, 51, 88, 238, 188, 162, 17, 23, 189, 8, 208, 210, 187, 100, 201, 57, 60, 84, 99, 148, 60, 188, 33, 167, 60, 100, 175, 152, 60, 80, 180, 19, 187, 40, 203, 12, 188, 83, 66, 228, 188, 28, 101, 113, 188, 75, 10, 157, 188, 244, 126, 74, 60, 227, 237, 207, 188, 222, 162, 37, 61, 83, 144, 5, 189, 28, 165, 42, 189, 96, 246, 42, 60, 164, 225, 10, 188, 44, 100, 18, 189, 100, 249, 16, 60, 168, 39, 80, 188, 16, 81, 233, 60, 166, 117, 14, 61, 160, 86, 164, 60, 16, 108, 242, 187, 192, 3, 53, 186, 224, 16, 89, 188, 180, 8, 66, 60, 23, 171, 188, 188, 128, 53, 149, 185, 248, 237, 47, 60, 72, 202, 123, 60, 64, 104, 130, 60, 211, 192, 205, 188, 56, 136, 183, 187, 160, 143, 232, 59, 144, 90, 29, 61, 170, 241, 166, 188, 6, 147, 23, 189, 64, 88, 200, 59, 25, 17, 62, 189, 94, 176, 22, 189, 174, 0, 49, 61, 156, 126, 139, 60, 114, 187, 60, 61, 132, 13, 81, 188, 130, 181, 66, 61, 170, 109, 246, 188, 216, 8, 22, 61, 214, 25, 20, 61, 70, 85, 23, 189, 109, 169, 53, 189, 173, 8, 39, 189, 240, 95, 191, 187, 200, 144, 161, 188, 72, 107, 191, 60, 200, 99, 177, 187, 184, 110, 101, 188, 56, 181, 39, 61, 192, 52, 169, 187, 216, 104, 47, 61, 172, 128, 142, 188, 72, 104, 158, 187, 52, 187, 36, 60, 67, 25, 47, 189, 38, 249, 187, 188, 32, 216, 215, 187, 192, 222, 133, 186, 157, 38, 230, 188, 180, 25, 206, 60, 190, 99, 57, 61, 43, 45, 40, 189, 76, 160, 55, 61, 230, 167, 65, 61, 72, 75, 229, 60, 168, 170, 17, 61, 140, 19, 117, 188, 141, 90, 27, 189, 152, 49, 193, 187, 128, 155, 18, 58, 176, 161, 130, 60, 16, 31, 48, 61, 42, 218, 227, 188, 158, 108, 64, 189, 123, 186, 212, 188, 248, 189, 187, 187, 102, 22, 35, 61, 184, 136, 235, 188, 176, 25, 32, 61, 31, 62, 231, 188, 184, 192, 160, 59, 166, 131, 15, 61, 74, 185, 32, 189, 231, 211, 249, 188, 56, 43, 199, 60, 205, 138, 14, 189, 144, 236, 165, 59, 124, 174, 31, 61, 44, 173, 38, 188, 128, 134, 109, 60, 76, 114, 53, 61, 88, 184, 247, 60, 172, 231, 50, 60, 137, 133, 255, 188, 201, 112, 65, 189, 148, 116, 5, 189, 200, 141, 43, 60, 90, 126, 65, 189, 76, 178, 132, 188, 196, 160, 255, 60, 96, 143, 218, 60, 246, 109, 33, 189, 56, 94, 216, 188, 128, 182, 225, 185, 67, 53, 26, 189, 8, 103, 243, 60, 4, 190, 151, 60, 153, 124, 40, 189, 104, 21, 24, 189, 94, 111, 15, 189, 180, 228, 212, 60, 46, 249, 156, 188, 165, 15, 17, 189, 27, 1, 68, 189, 170, 196, 148, 188, 124, 250, 228, 60, 246, 162, 51, 189, 240, 56, 204, 60, 125, 216, 59, 189, 240, 154, 55, 189, 105, 74, 248, 188, 86, 181, 207, 188, 225, 1, 54, 189, 198, 4, 222, 188, 128, 156, 12, 58, 19, 244, 57, 189, 114, 95, 32, 61, 64, 67, 6, 189, 120, 220, 111, 60, 128, 186, 219, 186, 224, 206, 99, 59, 44, 233, 140, 60, 192, 155, 11, 186, 64, 122, 29, 61, 104, 245, 158, 59, 208, 3, 134, 59, 128, 236, 27, 61, 168, 113, 32, 61, 108, 246, 62, 189, 128, 124, 150, 186, 121, 51, 30, 189, 52, 240, 47, 61, 224, 181, 190, 60, 72, 65, 199, 60, 166, 127, 9, 61, 96, 84, 232, 58, 72, 15, 15, 61, 158, 14, 45, 61, 32, 67, 157, 58, 0, 113, 70, 185, 124, 63, 50, 61, 48, 83, 45, 188, 112, 145, 106, 187, 0, 203, 134, 60, 148, 187, 246, 60, 244, 62, 164, 188, 64, 88, 183, 60, 176, 42, 202, 187, 186, 59, 50, 189, 128, 201, 158, 185, 8, 9, 161, 187, 160, 103, 133, 186, 148, 85, 17, 60, 27, 220, 39, 189, 0, 48, 86, 187, 160, 20, 245, 58, 72, 94, 39, 189, 44, 78, 23, 61, 8, 47, 124, 60, 16, 130, 146, 60, 64, 5, 67, 189, 189, 245, 45, 189, 156, 69, 166, 60, 136, 4, 89, 60, 56, 131, 13, 61, 94, 150, 8, 61, 148, 63, 219, 188, 96, 65, 200, 59, 144, 40, 180, 60, 192, 27, 118, 60, 224, 243, 225, 60, 204, 162, 236, 188, 64, 70, 24, 189, 68, 77, 34, 61, 106, 244, 16, 189, 108, 203, 26, 61, 84, 132, 61, 188, 168, 81, 130, 60, 220, 107, 197, 60, 177, 103, 46, 189, 112, 160, 64, 187, 126, 9, 20, 189, 56, 217, 135, 187, 208, 233, 79, 59, 24, 92, 186, 60, 244, 168, 161, 60, 16, 209, 22, 61, 130, 91, 17, 61, 92, 82, 251, 60, 136, 195, 179, 60, 152, 66, 238, 60, 72, 48, 13, 189, 200, 36, 148, 59, 211, 36, 29, 189, 122, 45, 13, 61, 88, 247, 174, 59, 24, 23, 219, 59, 237, 221, 202, 188, 117, 189, 201, 188, 164, 80, 169, 60, 0, 140, 107, 57, 63, 226, 36, 189, 128, 43, 211, 58, 93, 152, 26, 189, 180, 0, 164, 60, 51, 114, 178, 188, 107, 191, 32, 189, 40, 86, 154, 60, 158, 52, 18, 61, 56, 193, 195, 187, 165, 110, 62, 189, 180, 72, 156, 60, 38, 143, 208, 188, 208, 109, 83, 59, 244, 140, 18, 60, 64, 224, 51, 58, 228, 159, 13, 188, 120, 197, 82, 60, 77, 67, 32, 189, 162, 28, 165, 188, 101, 174, 17, 189, 144, 37, 104, 60, 36, 228, 30, 189, 60, 105, 10, 61, 240, 80, 32, 189, 166, 130, 30, 189, 71, 227, 238, 188, 148, 14, 183, 60, 1, 11, 190, 188, 36, 132, 0, 61, 0, 125, 109, 59, 4, 46, 13, 188, 192, 248, 121, 58, 146, 255, 19, 189, 204, 169, 147, 60, 76, 155, 227, 60, 60, 186, 140, 60, 24, 110, 188, 60, 36, 31, 54, 61, 207, 5, 226, 188, 124, 165, 136, 60, 156, 189, 215, 60, 132, 147, 64, 189, 68, 183, 43, 188, 157, 70, 23, 189, 182, 59, 17, 61, 152, 207, 186, 60, 176, 87, 73, 187, 40, 141, 120, 188, 8, 59, 200, 60, 100, 28, 170, 60, 56, 130, 95, 188, 120, 205, 166, 60, 88, 147, 135, 187, 132, 230, 34, 60, 136, 79, 253, 60, 202, 241, 177, 188, 144, 209, 111, 187, 108, 122, 75, 60, 248, 215, 36, 189, 96, 219, 71, 187, 112, 70, 223, 60, 239, 34, 18, 189, 2, 37, 19, 61, 44, 20, 10, 61, 142, 167, 14, 189, 254, 101, 54, 61, 155, 28, 253, 188, 66, 218, 17, 61, 180, 203, 192, 60, 196, 227, 163, 60, 32, 100, 42, 61, 16, 55, 51, 61, 0, 143, 203, 186, 240, 209, 14, 61, 63, 40, 172, 188, 17, 184, 240, 188, 27, 102, 219, 188, 32, 204, 238, 58, 238, 168, 149, 188, 200, 160, 149, 188, 146, 49, 49, 189, 112, 147, 145, 59, 179, 73, 172, 188, 133, 108, 165, 188, 20, 61, 37, 188, 24, 175, 33, 188, 108, 148, 146, 60, 164, 86, 10, 188, 50, 180, 54, 61, 63, 28, 6, 189, 100, 62, 150, 188, 91, 42, 165, 188, 128, 149, 64, 59, 172, 62, 35, 61, 40, 224, 184, 60, 134, 147, 211, 188, 217, 224, 182, 188, 0, 72, 167, 55, 4, 52, 40, 61, 88, 220, 242, 59, 76, 200, 89, 60, 144, 56, 125, 59, 228, 160, 42, 189, 99, 127, 170, 188, 144, 192, 96, 60, 164, 66, 143, 188, 152, 157, 123, 60, 248, 43, 29, 60, 4, 6, 83, 188, 112, 235, 216, 59, 207, 40, 66, 189, 242, 187, 12, 61, 252, 192, 60, 188, 168, 53, 210, 187, 94, 106, 38, 61, 178, 34, 179, 188, 161, 14, 50, 189, 192, 245, 27, 60, 128, 71, 222, 58, 81, 220, 204, 188, 108, 117, 60, 189, 128, 123, 240, 58, 197, 243, 245, 188, 234, 135, 32, 189, 176, 237, 17, 61, 80, 168, 13, 61, 180, 44, 249, 60, 160, 61, 169, 60, 126, 159, 11, 189, 119, 170, 242, 188, 56, 224, 31, 60, 190, 82, 10, 189, 224, 37, 13, 59, 2, 197, 58, 189, 158, 50, 5, 61, 92, 120, 42, 61, 80, 140, 208, 60, 176, 156, 109, 187, 216, 85, 150, 60, 160, 90, 98, 188, 28, 140, 182, 60, 144, 209, 164, 59, 104, 31, 163, 187, 204, 159, 48, 61, 244, 150, 190, 60, 232, 99, 216, 59, 34, 250, 9, 61, 36, 77, 63, 60, 96, 158, 21, 59, 214, 164, 129, 188, 164, 177, 44, 61, 76, 253, 229, 60, 112, 15, 38, 59, 114, 63, 64, 189, 65, 196, 191, 188, 24, 74, 126, 60, 64, 1, 6, 59, 116, 215, 198, 60, 128, 218, 174, 188, 176, 217, 3, 61, 34, 164, 41, 61, 0, 29, 19, 61, 193, 9, 34, 189, 210, 16, 140, 188, 85, 170, 214, 188, 68, 118, 100, 188, 252, 245, 250, 188, 126, 209, 131, 188, 16, 115, 224, 60, 120, 51, 136, 60, 30, 105, 232, 188, 0, 22, 150, 187, 28, 87, 220, 188, 150, 31, 207, 188, 100, 118, 85, 188, 132, 237, 3, 188, 101, 144, 154, 188, 200, 155, 134, 60, 209, 141, 234, 188, 148, 201, 226, 60, 39, 202, 14, 189, 192, 68, 41, 61, 72, 101, 8, 61, 132, 177, 195, 60, 102, 224, 45, 189, 0, 163, 57, 189, 0, 160, 51, 184, 249, 255, 37, 189, 224, 106, 194, 188, 220, 213, 106, 188, 176, 188, 178, 59, 204, 53, 157, 60, 248, 18, 165, 60, 138, 223, 160, 188, 204, 130, 66, 61, 88, 120, 199, 60, 108, 95, 89, 60, 162, 104, 5, 61, 216, 58, 170, 188, 16, 83, 26, 61, 42, 63, 54, 61, 145, 222, 234, 188, 184, 14, 45, 61, 136, 25, 132, 187, 170, 195, 43, 189, 247, 135, 39, 189, 160, 241, 157, 186, 226, 114, 22, 189, 62, 139, 62, 61, 180, 41, 32, 60, 137, 111, 64, 189, 40, 233, 249, 187, 20, 163, 32, 60, 220, 65, 61, 189, 52, 23, 215, 188, 77, 27, 237, 188, 67, 17, 252, 188, 160, 144, 203, 186, 176, 236, 69, 59, 29, 19, 57, 189, 0, 132, 9, 185, 66, 54, 173, 188, 96, 212, 183, 60, 218, 35, 56, 189, 110, 245, 24, 61, 24, 34, 153, 187, 94, 76, 46, 61, 36, 226, 220, 188, 96, 77, 44, 188, 192, 225, 81, 59, 128, 213, 159, 59, 20, 116, 38, 189, 188, 148, 237, 60, 16, 214, 144, 187, 96, 103, 14, 61, 161, 69, 204, 188, 112, 131, 254, 59, 189, 219, 151, 188, 32, 80, 188, 58, 72, 209, 71, 60, 199, 90, 25, 189, 100, 101, 6, 188, 192, 222, 68, 59, 255, 165, 64, 189, 220, 155, 49, 189, 12, 80, 225, 188, 16, 151, 173, 188, 40, 19, 152, 60, 32, 49, 66, 61, 220, 245, 211, 60, 80, 173, 74, 187, 158, 19, 54, 61, 136, 160, 129, 60, 92, 15, 17, 188, 169, 62, 6, 189, 181, 242, 13, 189, 130, 165, 29, 189, 52, 115, 36, 60, 208, 219, 75, 60, 248, 12, 194, 59, 40, 209, 138, 187, 234, 120, 24, 189, 188, 169, 170, 188, 201, 26, 219, 188, 188, 104, 78, 188, 74, 187, 189, 188, 149, 203, 187, 188, 111, 209, 60, 189, 128, 224, 255, 187, 102, 11, 8, 61, 128, 100, 5, 189, 160, 168, 9, 61, 244, 226, 162, 60, 24, 39, 134, 59, 100, 171, 36, 61, 108, 157, 47, 61, 229, 166, 13, 189, 32, 24, 231, 60, 217, 78, 32, 189, 33, 185, 197, 188, 2, 186, 51, 189, 144, 56, 240, 187, 134, 144, 18, 61, 152, 248, 58, 61, 44, 24, 62, 188, 248, 230, 1, 188, 248, 96, 179, 60, 114, 143, 177, 188, 26, 236, 24, 61, 152, 80, 177, 60, 76, 225, 168, 60, 140, 16, 91, 188, 213, 68, 245, 188, 140, 48, 56, 60, 48, 197, 72, 59, 112, 32, 51, 60, 199, 93, 41, 189, 220, 66, 56, 60, 142, 223, 67, 61, 138, 125, 45, 189, 232, 193, 56, 189, 36, 237, 29, 61, 184, 213, 52, 189, 60, 176, 66, 189, 104, 189, 113, 60, 244, 98, 15, 189, 192, 164, 71, 59, 80, 230, 114, 60, 168, 228, 146, 60, 112, 118, 97, 59, 176, 184, 202, 59, 109, 228, 52, 189, 141, 223, 6, 189, 138, 91, 63, 61, 105, 67, 238, 188, 224, 126, 79, 59, 56, 38, 26, 189, 119, 214, 27, 189, 240, 197, 235, 60, 194, 78, 16, 189, 32, 237, 124, 60, 222, 221, 31, 61, 248, 36, 157, 60, 48, 0, 219, 60, 47, 217, 140, 188, 242, 9, 138, 188, 92, 10, 149, 60, 43, 165, 41, 189, 181, 243, 172, 188, 80, 49, 188, 59, 88, 228, 17, 188, 22, 116, 9, 61, 77, 121, 156, 188, 108, 88, 214, 60, 136, 157, 132, 188, 36, 190, 130, 60, 0, 139, 226, 188, 200, 127, 14, 189, 58, 102, 131, 188, 35, 173, 197, 188, 44, 170, 24, 61, 8, 67, 16, 61, 125, 121, 67, 189, 210, 3, 42, 189, 252, 139, 15, 60, 184, 159, 42, 188, 112, 228, 73, 59, 156, 8, 154, 188, 48, 194, 97, 187, 112, 114, 113, 187, 186, 18, 204, 188, 93, 5, 153, 188, 232, 216, 21, 60, 217, 222, 68, 189, 57, 26, 196, 188, 64, 135, 230, 58, 244, 93, 28, 60, 180, 151, 255, 60, 72, 200, 42, 60, 152, 220, 91, 60, 14, 238, 157, 188, 28, 14, 148, 60, 252, 39, 40, 188, 155, 99, 219, 188, 240, 175, 133, 60, 92, 83, 216, 60, 213, 35, 189, 188, 134, 189, 237, 188, 142, 231, 16, 61, 147, 132, 158, 188, 0, 170, 2, 187, 64, 107, 51, 59, 134, 8, 223, 188, 146, 69, 138, 188, 129, 153, 50, 189, 60, 113, 225, 60, 96, 195, 33, 61, 28, 165, 75, 60, 92, 147, 39, 61, 69, 26, 20, 189, 64, 137, 14, 189, 128, 208, 46, 188, 44, 210, 10, 188, 18, 70, 26, 61, 90, 74, 178, 188, 22, 87, 3, 61, 6, 210, 142, 188, 8, 236, 201, 60, 224, 191, 180, 188, 126, 89, 6, 61, 42, 70, 21, 189, 64, 137, 19, 59, 24, 58, 229, 59, 72, 191, 165, 187, 250, 239, 56, 61, 14, 101, 26, 61, 224, 22, 155, 187, 132, 218, 168, 60, 254, 52, 65, 61, 230, 201, 51, 61, 95, 83, 65, 189, 45, 116, 243, 188, 136, 244, 31, 61, 130, 156, 151, 188, 116, 110, 191, 60, 68, 218, 221, 60, 214, 90, 22, 189, 208, 87, 124, 60, 8, 63, 7, 188, 23, 192, 29, 189, 46, 90, 33, 189, 1, 98, 235, 188, 48, 59, 152, 187, 8, 23, 11, 61, 175, 64, 64, 189, 124, 189, 96, 188, 49, 29, 24, 189, 192, 119, 162, 187, 160, 127, 191, 58, 184, 254, 94, 188, 104, 148, 242, 60, 128, 236, 220, 188, 214, 83, 39, 189, 160, 143, 133, 58, 120, 20, 154, 187, 160, 132, 203, 58, 228, 236, 235, 188, 58, 123, 13, 189, 162, 26, 32, 61, 0, 254, 250, 59, 106, 186, 40, 61, 128, 234, 245, 187, 128, 69, 194, 187, 26, 250, 20, 61, 248, 183, 146, 60, 176, 115, 43, 61, 32, 231, 7, 188, 136, 25, 72, 60, 224, 89, 28, 187, 96, 127, 194, 60, 168, 133, 36, 60, 82, 132, 51, 189, 48, 90, 222, 187, 210, 247, 224, 188, 104, 114, 240, 187, 164, 214, 127, 188, 144, 219, 173, 187, 112, 10, 5, 189, 108, 0, 65, 61, 50, 225, 48, 189, 16, 166, 5, 189, 78, 13, 50, 61, 136, 34, 111, 60, 47, 187, 221, 188, 156, 38, 40, 189, 192, 148, 106, 187, 226, 217, 65, 61, 208, 50, 244, 60, 164, 200, 135, 60, 208, 170, 22, 59, 108, 21, 49, 188, 128, 132, 219, 57, 72, 189, 206, 59, 144, 70, 66, 61, 178, 251, 42, 61, 232, 248, 191, 60, 100, 185, 146, 188, 120, 26, 235, 59, 1, 160, 226, 188, 184, 12, 168, 60, 20, 243, 28, 189, 64, 55, 48, 187, 68, 182, 242, 188, 132, 205, 167, 60, 164, 153, 37, 189, 196, 173, 83, 60, 148, 93, 244, 60, 248, 116, 104, 188, 208, 19, 13, 61, 152, 189, 19, 60, 136, 61, 184, 59, 172, 193, 254, 60, 96, 203, 145, 60, 82, 91, 58, 189, 222, 166, 28, 61, 92, 36, 113, 188, 130, 209, 169, 188, 2, 219, 9, 189, 99, 43, 8, 189, 216, 52, 135, 188, 32, 150, 173, 188, 84, 26, 203, 60, 4, 249, 54, 61, 205, 124, 233, 188, 148, 210, 17, 61, 20, 30, 42, 61, 232, 222, 115, 188, 8, 110, 142, 187, 56, 196, 104, 60, 88, 87, 33, 189, 194, 83, 152, 188, 101, 156, 171, 188, 192, 91, 143, 60, 252, 175, 136, 60, 148, 248, 27, 61, 134, 169, 34, 61, 98, 33, 67, 189, 252, 52, 235, 60, 156, 199, 30, 61, 32, 110, 209, 60, 192, 131, 146, 186, 100, 111, 182, 60, 132, 250, 244, 60, 118, 74, 55, 61, 168, 94, 109, 188, 160, 50, 162, 60, 139, 14, 201, 188, 227, 134, 41, 189, 47, 230, 31, 189, 56, 98, 130, 60, 244, 79, 99, 60, 246, 146, 190, 188, 123, 143, 246, 188, 128, 121, 56, 186, 132, 172, 243, 60, 88, 155, 160, 187, 84, 213, 170, 188, 52, 57, 67, 188, 92, 32, 216, 60, 232, 1, 127, 188, 86, 222, 207, 188, 184, 29, 99, 60, 44, 45, 237, 60, 156, 214, 50, 61, 161, 218, 243, 188, 132, 186, 181, 60, 168, 188, 11, 189, 154, 105, 67, 61, 160, 191, 108, 60, 228, 142, 68, 189, 28, 15, 133, 188, 238, 88, 39, 61, 99, 198, 228, 188, 74, 34, 132, 188, 252, 246, 27, 61, 83, 14, 193, 188, 0, 201, 92, 59, 108, 105, 95, 188, 56, 29, 232, 188, 90, 76, 12, 189, 8, 49, 53, 189, 102, 25, 185, 188, 168, 189, 132, 60, 212, 111, 196, 60, 12, 125, 15, 60, 220, 82, 43, 188, 40, 71, 219, 60, 106, 66, 19, 189, 207, 39, 13, 189, 36, 103, 167, 60, 98, 115, 148, 188, 160, 153, 61, 187, 140, 46, 56, 61, 32, 214, 249, 59, 20, 249, 63, 189, 64, 238, 30, 58, 154, 35, 9, 189, 254, 145, 48, 189, 238, 111, 32, 189, 8, 145, 132, 187, 0, 53, 131, 186, 228, 36, 244, 188, 136, 80, 17, 60, 240, 34, 3, 59, 160, 44, 136, 60, 176, 58, 72, 60, 140, 81, 8, 60, 230, 68, 15, 61, 246, 67, 36, 61, 124, 150, 57, 60, 0, 238, 176, 184, 81, 3, 18, 189, 54, 190, 174, 188, 112, 97, 209, 60, 101, 67, 32, 189, 148, 245, 32, 61, 63, 8, 46, 189, 35, 224, 204, 188, 240, 37, 155, 187, 28, 106, 149, 188, 136, 58, 116, 60, 188, 246, 134, 60, 114, 149, 32, 61, 152, 186, 40, 61, 0, 249, 231, 188, 212, 181, 68, 60, 136, 182, 161, 59, 32, 101, 247, 58, 144, 170, 5, 188, 236, 84, 43, 61, 128, 44, 168, 59, 128, 9, 206, 188, 28, 102, 188, 60, 88, 170, 159, 187, 122, 75, 16, 61, 36, 69, 19, 61, 160, 81, 58, 59, 196, 117, 204, 60, 113, 4, 31, 189, 71, 7, 31, 189, 104, 226, 233, 187, 44, 239, 242, 60, 82, 159, 159, 188, 16, 160, 22, 59, 24, 135, 43, 61, 240, 67, 146, 187, 29, 181, 145, 188, 96, 28, 182, 60, 116, 226, 80, 188, 220, 126, 135, 60, 218, 158, 55, 189, 128, 216, 155, 186, 220, 239, 70, 60, 208, 55, 36, 189, 220, 117, 73, 188, 106, 99, 171, 188, 48, 69, 56, 189, 208, 6, 188, 187, 4, 255, 13, 60, 220, 219, 163, 60, 228, 26, 37, 61, 184, 216, 237, 187, 89, 160, 140, 188, 188, 139, 63, 188, 7, 86, 67, 189, 122, 161, 190, 188, 48, 84, 186, 60, 212, 131, 125, 188, 188, 63, 138, 60, 32, 5, 27, 60, 168, 169, 0, 61, 32, 14, 70, 187, 172, 233, 205, 60, 127, 39, 217, 188, 208, 8, 9, 60, 88, 178, 209, 187, 236, 154, 89, 60, 74, 53, 8, 189, 12, 5, 206, 60, 110, 16, 1, 61, 118, 8, 44, 61, 60, 151, 13, 60, 73, 203, 170, 188, 22, 150, 14, 61, 62, 62, 33, 61, 224, 4, 42, 59, 166, 71, 5, 61, 77, 157, 53, 189, 95, 185, 198, 188, 192, 134, 221, 60, 165, 214, 207, 188, 248, 25, 175, 60, 165, 15, 63, 189, 97, 133, 186, 188, 240, 203, 245, 59, 114, 63, 187, 188, 192, 11, 145, 186, 192, 156, 30, 59, 90, 109, 151, 188, 244, 67, 232, 60, 196, 30, 249, 188, 145, 190, 161, 188, 250, 226, 31, 189, 24, 183, 215, 60, 210, 248, 255, 188, 58, 40, 6, 61, 158, 183, 23, 61, 200, 193, 21, 188, 109, 50, 206, 188, 96, 75, 21, 59, 34, 211, 15, 61, 224, 103, 87, 60, 44, 152, 239, 60, 148, 210, 246, 188, 40, 126, 114, 60, 232, 213, 161, 60, 138, 138, 215, 188, 216, 63, 244, 59, 27, 131, 201, 188, 200, 104, 73, 60, 61, 140, 204, 188, 190, 68, 13, 61, 216, 12, 43, 61, 148, 134, 128, 188, 66, 207, 137, 188, 94, 75, 44, 61, 52, 193, 251, 60, 192, 122, 138, 60, 107, 160, 236, 188, 44, 120, 13, 61, 134, 21, 26, 61, 113, 19, 240, 188, 178, 14, 67, 189, 156, 223, 168, 60, 30, 53, 29, 61, 168, 14, 227, 60, 94, 140, 53, 61, 90, 242, 21, 189, 55, 233, 58, 189, 148, 33, 22, 61, 69, 151, 206, 188, 192, 154, 135, 59, 161, 4, 225, 188, 192, 100, 84, 188, 64, 253, 162, 186, 192, 209, 191, 187, 192, 217, 104, 59, 184, 121, 110, 188, 112, 118, 248, 60, 221, 184, 245, 188, 135, 99, 206, 188, 72, 123, 229, 188, 146, 188, 252, 188, 0, 50, 102, 60, 168, 152, 221, 187, 148, 109, 169, 188, 54, 184, 17, 61, 0, 87, 56, 188, 45, 73, 33, 189, 128, 167, 138, 58, 224, 85, 157, 186, 192, 167, 203, 60, 208, 78, 24, 188, 156, 26, 29, 61, 112, 143, 236, 187, 218, 145, 50, 61, 238, 116, 34, 189, 239, 201, 8, 189, 124, 136, 65, 61, 126, 21, 35, 189, 185, 67, 192, 188, 34, 76, 36, 61, 196, 237, 38, 60, 192, 37, 156, 186, 74, 178, 39, 189, 116, 40, 2, 61, 63, 16, 197, 188, 32, 53, 165, 60, 140, 81, 54, 61, 238, 159, 2, 61, 6, 195, 139, 188, 162, 141, 28, 61, 136, 46, 243, 60, 184, 160, 183, 187, 176, 91, 19, 60, 165, 240, 47, 189, 118, 233, 248, 188, 224, 64, 253, 58, 220, 71, 240, 60, 64, 142, 63, 59, 160, 240, 49, 189, 64, 51, 229, 187, 134, 162, 67, 189, 108, 61, 25, 61, 12, 32, 180, 60, 142, 81, 212, 188, 124, 163, 40, 189, 64, 211, 101, 58, 160, 136, 104, 188, 208, 18, 14, 61, 128, 133, 36, 59, 16, 167, 27, 61, 32, 164, 245, 188, 62, 98, 182, 188, 192, 121, 106, 58, 140, 58, 74, 188, 52, 161, 23, 61, 98, 91, 39, 189, 4, 38, 246, 60, 120, 241, 152, 60, 112, 44, 33, 188, 0, 107, 153, 60, 177, 176, 16, 189, 199, 211, 237, 188, 216, 52, 149, 187, 226, 246, 26, 61, 132, 177, 84, 188, 132, 239, 147, 60, 250, 74, 48, 61, 229, 106, 9, 189, 36, 94, 160, 60, 122, 83, 40, 61, 90, 127, 46, 61, 136, 240, 78, 60, 14, 20, 12, 189, 68, 220, 14, 60, 64, 30, 54, 189, 16, 48, 172, 60, 236, 188, 15, 60, 18, 123, 63, 61, 62, 65, 133, 188, 254, 156, 160, 188, 224, 27, 15, 189, 184, 133, 16, 61, 32, 120, 216, 60, 56, 163, 123, 60, 20, 222, 9, 60, 45, 227, 175, 188, 168, 171, 91, 60, 188, 195, 38, 189, 167, 32, 228, 188, 172, 237, 3, 61, 244, 132, 138, 60, 48, 102, 14, 189, 24, 100, 238, 60, 160, 189, 5, 189, 93, 67, 40, 189, 126, 9, 33, 61, 172, 143, 196, 60, 48, 130, 229, 60, 68, 216, 135, 188, 218, 88, 37, 61, 236, 239, 5, 188, 233, 31, 28, 189, 95, 160, 62, 189, 22, 205, 24, 61, 136, 125, 11, 61, 142, 72, 142, 188, 122, 115, 30, 61, 160, 203, 215, 59, 150, 57, 20, 189, 64, 186, 141, 60, 56, 124, 217, 187, 128, 80, 210, 185, 76, 131, 152, 60, 116, 228, 42, 188, 232, 61, 18, 61, 81, 89, 14, 189, 32, 94, 242, 187, 112, 6, 59, 60, 64, 185, 71, 186, 0, 214, 36, 189, 0, 39, 41, 59, 54, 210, 60, 61, 223, 117, 19, 189, 241, 154, 197, 188, 8, 113, 5, 61, 11, 228, 49, 189, 108, 45, 200, 60, 16, 211, 248, 60, 46, 32, 43, 189, 144, 111, 188, 60, 96, 121, 214, 58, 172, 240, 8, 61, 172, 215, 206, 60, 0, 212, 6, 189, 192, 21, 66, 189, 64, 101, 156, 186, 68, 236, 113, 188, 144, 143, 41, 60, 77, 10, 50, 189, 35, 1, 255, 188, 226, 84, 35, 189, 228, 31, 57, 61, 188, 57, 253, 60, 255, 203, 250, 188, 216, 247, 242, 59, 60, 15, 151, 60, 160, 135, 26, 188, 160, 228, 137, 58, 144, 116, 246, 60, 112, 50, 50, 59, 52, 10, 228, 60, 96, 186, 250, 58, 88, 229, 107, 188, 224, 227, 0, 189, 128, 74, 195, 187, 245, 197, 184, 188, 192, 224, 61, 187, 12, 13, 10, 61, 194, 30, 64, 61, 124, 7, 53, 60, 120, 187, 57, 61, 225, 132, 15, 189, 212, 140, 40, 188, 38, 197, 27, 61, 40, 31, 111, 60, 16, 198, 252, 187, 31, 156, 21, 189, 156, 152, 151, 60, 158, 244, 209, 188, 42, 97, 136, 188, 158, 112, 33, 61, 82, 157, 146, 188, 48, 187, 72, 59, 236, 23, 24, 60, 216, 214, 38, 188, 152, 203, 25, 188, 98, 202, 42, 61, 236, 227, 241, 60, 172, 17, 44, 60, 189, 229, 160, 188, 186, 130, 216, 188, 64, 131, 245, 60, 189, 155, 152, 188, 176, 254, 115, 60, 195, 166, 55, 189, 121, 126, 36, 189, 0, 14, 107, 188, 116, 181, 59, 60, 125, 107, 171, 188, 219, 161, 26, 189, 4, 181, 63, 189, 192, 50, 175, 188, 0, 16, 58, 61, 112, 12, 247, 59, 110, 69, 62, 61, 4, 168, 104, 188, 21, 202, 68, 189, 128, 105, 177, 57, 12, 221, 64, 61, 212, 184, 103, 60, 44, 237, 182, 60, 176, 62, 95, 59, 108, 91, 20, 61, 84, 169, 41, 60, 0, 52, 214, 56, 253, 71, 215, 188, 64, 200, 74, 187, 158, 93, 13, 189, 134, 111, 40, 61, 136, 225, 55, 189, 220, 102, 180, 60, 122, 202, 143, 188, 0, 86, 216, 188, 68, 141, 63, 188, 160, 49, 203, 60, 132, 6, 107, 188, 80, 2, 196, 60, 119, 148, 66, 189, 148, 90, 192, 188, 48, 31, 24, 189, 176, 168, 22, 187, 20, 46, 205, 188, 68, 176, 158, 188, 153, 11, 220, 188, 15, 166, 20, 189, 172, 6, 172, 188, 128, 220, 189, 186, 164, 33, 58, 60, 38, 63, 220, 188, 92, 35, 32, 188, 88, 131, 122, 188, 104, 7, 203, 60, 0, 10, 201, 188, 52, 40, 6, 189, 167, 105, 47, 189, 16, 215, 28, 61, 80, 2, 50, 61, 0, 141, 9, 58, 178, 87, 10, 61, 252, 207, 158, 60, 64, 65, 149, 60, 183, 48, 43, 189, 14, 93, 12, 189, 94, 74, 210, 188, 68, 174, 150, 188, 150, 169, 6, 189, 192, 124, 80, 186, 100, 207, 223, 60, 220, 217, 141, 60, 32, 0, 38, 188, 12, 110, 243, 188, 20, 21, 248, 188, 114, 113, 13, 189, 120, 246, 58, 61, 173, 191, 18, 189, 88, 49, 110, 188, 176, 45, 86, 187, 176, 81, 21, 188, 32, 170, 8, 60, 236, 212, 18, 189, 0, 2, 253, 185, 192, 68, 66, 59, 192, 120, 203, 58, 128, 143, 139, 188, 40, 226, 82, 188, 98, 115, 64, 61, 88, 184, 177, 60, 140, 211, 14, 61, 36, 254, 103, 188, 144, 6, 22, 188, 48, 112, 215, 187, 48, 127, 69, 60, 27, 204, 49, 189, 50, 66, 207, 188, 138, 23, 41, 61, 160, 236, 225, 60, 96, 175, 223, 186, 112, 140, 142, 59, 24, 153, 152, 188, 82, 156, 61, 189, 240, 20, 5, 59, 116, 171, 22, 189, 144, 70, 79, 59, 112, 114, 68, 61, 149, 126, 242, 188, 197, 108, 182, 188, 160, 232, 89, 59, 221, 128, 190, 188, 180, 198, 141, 188, 224, 224, 119, 60, 112, 228, 122, 188, 93, 223, 239, 188, 192, 79, 211, 188, 224, 19, 238, 60, 148, 118, 230, 60, 92, 131, 60, 188, 224, 253, 27, 61, 64, 142, 115, 188, 180, 164, 5, 189, 236, 198, 9, 188, 56, 156, 213, 187, 4, 1, 3, 189, 192, 69, 167, 60, 8, 24, 169, 59, 154, 240, 6, 189, 100, 237, 230, 60, 64, 26, 158, 60, 160, 185, 46, 188, 128, 61, 71, 58, 56, 63, 80, 60, 158, 8, 48, 189, 43, 36, 39, 189, 116, 179, 37, 189, 48, 57, 166, 187, 156, 70, 205, 60, 232, 51, 68, 188, 112, 89, 81, 59, 160, 193, 249, 187, 64, 128, 189, 186, 152, 24, 184, 59, 168, 239, 227, 60, 117, 101, 220, 188, 60, 59, 15, 188, 203, 22, 58, 189, 4, 23, 34, 60, 80, 203, 198, 59, 32, 7, 43, 61, 50, 114, 219, 188, 52, 255, 138, 188, 93, 29, 7, 189, 198, 253, 63, 61, 242, 226, 0, 61, 192, 202, 55, 61, 144, 159, 49, 187, 168, 125, 199, 187, 16, 4, 226, 187, 2, 27, 3, 61, 64, 36, 112, 186, 176, 235, 239, 60, 15, 62, 3, 189, 35, 114, 252, 188, 64, 138, 232, 59, 78, 127, 67, 61, 160, 235, 47, 189, 18, 49, 37, 61, 116, 118, 7, 60, 228, 86, 30, 188, 68, 19, 130, 60, 45, 39, 249, 188, 160, 162, 143, 60, 20, 157, 75, 60, 136, 70, 138, 60, 18, 4, 64, 61, 80, 95, 174, 60, 27, 18, 214, 188, 52, 231, 60, 60, 42, 157, 48, 61, 144, 139, 246, 60, 0, 194, 128, 57, 252, 228, 14, 189, 109, 239, 10, 189, 68, 68, 42, 189, 240, 73, 209, 60, 16, 44, 62, 61, 80, 141, 15, 61, 32, 198, 128, 60, 148, 185, 133, 188, 112, 102, 85, 188, 15, 92, 68, 189, 108, 154, 177, 60, 204, 130, 31, 189, 116, 196, 70, 60, 204, 171, 94, 188, 27, 46, 218, 188, 148, 5, 30, 61, 128, 119, 223, 187, 140, 41, 56, 61, 192, 108, 121, 188, 144, 190, 85, 187, 172, 95, 174, 60, 180, 205, 16, 60, 144, 212, 38, 187, 178, 127, 7, 61, 0, 191, 253, 60, 176, 255, 251, 60, 178, 253, 22, 189, 192, 76, 170, 186, 28, 101, 158, 60, 200, 8, 22, 188, 74, 225, 198, 188, 142, 254, 186, 188, 10, 216, 7, 189, 32, 230, 170, 60, 40, 170, 160, 60, 108, 81, 6, 61, 244, 236, 32, 61, 142, 18, 19, 189, 160, 161, 208, 58, 34, 29, 2, 61, 28, 238, 171, 188, 44, 164, 197, 60, 172, 121, 98, 188, 120, 172, 162, 188, 64, 76, 160, 186, 129, 78, 67, 189, 128, 36, 34, 61, 203, 61, 28, 189, 244, 197, 104, 60, 36, 180, 230, 60, 152, 188, 1, 61, 228, 141, 143, 188, 96, 105, 239, 58, 216, 27, 102, 188, 12, 84, 4, 189, 110, 161, 12, 189, 144, 46, 13, 189, 204, 46, 188, 60, 157, 90, 60, 189, 144, 98, 220, 187, 172, 84, 159, 60, 11, 11, 65, 189, 128, 46, 254, 58, 164, 68, 249, 188, 174, 227, 23, 61, 241, 199, 164, 188, 192, 9, 110, 59, 154, 51, 21, 189, 144, 231, 129, 187, 152, 208, 38, 60, 244, 143, 6, 61, 24, 99, 170, 60, 48, 45, 57, 59, 120, 219, 192, 59, 8, 146, 154, 60, 14, 66, 173, 188, 128, 12, 21, 187, 88, 91, 89, 60, 8, 75, 55, 60, 128, 88, 149, 59, 108, 37, 19, 60, 95, 187, 212, 188, 40, 192, 193, 59, 60, 194, 79, 60, 72, 84, 32, 189, 36, 255, 171, 60, 143, 248, 160, 188, 182, 198, 26, 189, 76, 188, 146, 60, 76, 192, 208, 188, 78, 255, 27, 61, 244, 153, 64, 60, 60, 215, 134, 188, 80, 10, 2, 189, 0, 147, 2, 61, 16, 157, 13, 187, 18, 229, 218, 188, 158, 162, 9, 61, 63, 80, 14, 189, 208, 236, 98, 59, 224, 5, 176, 58, 212, 133, 14, 189, 176, 22, 121, 59, 42, 96, 61, 189, 120, 147, 15, 61, 144, 105, 227, 187, 211, 128, 163, 188, 176, 112, 101, 60, 0, 253, 166, 60, 189, 202, 137, 188, 112, 71, 202, 60, 224, 110, 122, 187, 184, 144, 162, 60, 104, 89, 76, 188, 116, 139, 99, 60, 13, 106, 50, 189, 204, 223, 145, 60, 0, 159, 47, 60, 160, 26, 52, 188, 32, 197, 218, 60, 130, 225, 27, 189, 57, 161, 163, 188, 202, 149, 27, 189, 26, 13, 28, 61, 148, 72, 199, 60, 180, 37, 93, 188, 228, 31, 36, 61, 150, 42, 40, 61, 17, 179, 235, 188, 113, 20, 41, 189, 160, 143, 93, 187, 54, 235, 39, 189, 207, 51, 229, 188, 89, 56, 19, 189, 240, 125, 235, 60, 160, 217, 191, 60, 160, 157, 118, 60, 184, 34, 25, 189, 24, 1, 127, 188, 212, 237, 28, 61, 192, 83, 93, 60, 24, 119, 189, 59, 200, 144, 3, 189, 120, 59, 35, 61, 32, 177, 186, 58, 99, 217, 11, 189, 192, 157, 160, 187, 250, 120, 27, 189, 252, 224, 64, 61, 140, 239, 175, 60, 212, 80, 240, 60, 88, 78, 51, 61, 8, 96, 193, 60, 204, 194, 164, 188, 152, 102, 15, 189, 128, 104, 209, 59, 132, 54, 152, 60, 168, 253, 64, 189, 148, 51, 152, 188, 32, 52, 206, 187, 8, 101, 233, 60, 96, 85, 97, 59, 96, 28, 200, 59, 220, 252, 33, 60, 56, 54, 13, 61, 200, 36, 213, 60, 48, 154, 49, 61, 172, 57, 52, 61, 106, 51, 159, 188, 116, 245, 190, 60, 208, 110, 13, 188, 242, 175, 35, 189, 166, 10, 28, 61, 168, 148, 214, 188, 230, 141, 6, 189, 88, 183, 180, 60, 152, 215, 10, 188, 168, 179, 164, 59, 16, 185, 196, 60, 236, 172, 159, 60, 48, 39, 55, 59, 144, 18, 120, 187, 62, 177, 189, 188, 64, 158, 172, 60, 124, 161, 254, 60, 168, 174, 126, 60, 146, 133, 35, 61, 220, 47, 228, 60, 132, 65, 207, 60, 5, 46, 236, 188, 206, 116, 252, 188, 20, 212, 253, 60, 62, 137, 217, 188, 56, 49, 148, 60, 216, 127, 171, 188, 102, 223, 37, 61, 65, 9, 245, 188, 64, 150, 66, 60, 198, 239, 28, 189, 136, 197, 174, 59, 207, 241, 62, 189, 104, 237, 245, 60, 192, 219, 241, 186, 225, 233, 168, 188, 197, 114, 67, 189, 0, 207, 33, 60, 162, 227, 30, 61, 105, 137, 45, 189, 146, 10, 40, 61, 208, 240, 122, 59, 89, 206, 193, 188, 48, 251, 36, 187, 200, 232, 51, 60, 196, 239, 79, 188, 176, 101, 251, 188, 170, 11, 213, 188, 139, 29, 52, 189, 244, 161, 6, 189, 192, 1, 213, 186, 173, 71, 58, 189, 188, 37, 51, 61, 187, 186, 226, 188, 218, 118, 36, 61, 188, 52, 219, 60, 64, 230, 18, 61, 172, 217, 150, 188, 26, 47, 16, 61, 208, 187, 231, 188, 172, 14, 43, 61, 224, 101, 6, 60, 128, 50, 114, 60, 84, 85, 13, 61, 206, 63, 64, 61, 240, 54, 76, 60, 196, 104, 7, 189, 119, 78, 142, 188, 101, 46, 166, 188, 140, 83, 84, 60, 50, 187, 20, 61, 190, 235, 1, 189, 0, 203, 29, 189, 32, 16, 71, 187, 16, 30, 42, 59, 72, 237, 31, 60, 32, 170, 141, 58, 32, 161, 57, 187, 116, 164, 132, 60, 200, 161, 126, 60, 0, 117, 188, 58, 244, 241, 128, 188, 200, 215, 229, 60, 243, 200, 57, 189, 57, 66, 44, 189, 240, 252, 207, 60, 0, 200, 255, 186, 32, 121, 56, 188, 105, 246, 16, 189, 36, 237, 22, 60, 56, 143, 211, 60, 46, 237, 65, 61, 38, 117, 17, 189, 72, 196, 190, 60, 248, 162, 35, 61, 8, 3, 160, 60, 0, 216, 186, 60, 186, 226, 38, 61, 243, 77, 63, 189, 68, 32, 217, 60, 120, 191, 251, 60, 128, 69, 68, 187, 43, 64, 62, 189, 160, 26, 65, 61, 40, 85, 6, 61, 74, 172, 60, 61, 33, 196, 54, 189, 23, 255, 198, 188, 199, 79, 215, 188, 92, 0, 146, 60, 96, 6, 154, 60, 216, 249, 154, 59, 24, 100, 14, 61, 104, 190, 169, 60, 6, 60, 67, 189, 203, 41, 67, 189, 146, 91, 152, 188, 96, 114, 149, 58, 200, 124, 48, 189, 16, 136, 234, 187, 204, 26, 23, 60, 80, 128, 10, 61, 220, 250, 206, 60, 205, 18, 32, 189, 219, 203, 205, 188, 176, 168, 14, 188, 220, 65, 58, 189, 32, 178, 72, 187, 140, 191, 141, 60, 240, 190, 103, 187, 218, 151, 15, 61, 240, 141, 45, 61, 228, 119, 166, 60, 192, 115, 54, 189, 112, 43, 62, 61, 189, 122, 247, 188, 108, 163, 128, 60, 208, 208, 33, 59, 4, 112, 21, 60, 32, 116, 245, 60, 229, 9, 183, 188, 100, 3, 5, 61, 112, 220, 208, 60, 224, 119, 179, 187, 48, 158, 209, 60, 228, 205, 61, 61, 63, 31, 148, 188, 208, 102, 16, 61, 224, 235, 169, 60, 200, 221, 62, 60, 183, 217, 65, 189, 250, 185, 13, 61, 128, 209, 220, 187, 49, 95, 60, 189, 28, 142, 243, 60, 252, 51, 23, 189, 152, 226, 58, 61, 18, 114, 37, 189, 12, 52, 178, 188, 88, 86, 234, 59, 96, 15, 179, 186, 24, 25, 209, 60, 48, 220, 7, 61, 96, 27, 239, 60, 128, 161, 65, 60, 151, 82, 218, 188, 24, 179, 61, 60, 200, 171, 165, 60, 72, 202, 239, 187, 88, 36, 68, 60, 88, 254, 118, 60, 232, 61, 51, 188, 64, 183, 239, 188, 104, 214, 231, 187, 224, 99, 130, 186, 232, 217, 22, 60, 64, 31, 106, 59, 64, 242, 205, 59, 188, 139, 146, 60, 84, 1, 38, 188, 48, 62, 46, 60, 60, 17, 121, 188, 1, 87, 50, 189, 200, 213, 221, 60, 0, 157, 174, 185, 9, 129, 199, 188, 19, 0, 43, 189, 162, 154, 53, 189, 184, 2, 3, 189, 148, 21, 46, 60, 228, 81, 12, 61, 148, 121, 34, 61, 76, 233, 175, 60, 70, 230, 43, 61, 160, 161, 17, 188, 70, 70, 20, 189, 4, 23, 53, 61, 64, 19, 48, 61, 8, 4, 179, 59, 128, 198, 10, 187, 160, 96, 67, 61, 184, 197, 39, 61, 16, 135, 156, 187, 12, 120, 8, 188, 148, 16, 58, 61, 252, 164, 7, 189, 134, 130, 23, 61, 236, 11, 81, 60, 68, 187, 18, 189, 184, 33, 165, 59, 48, 70, 111, 60, 88, 34, 227, 59, 72, 254, 100, 188, 48, 65, 72, 60, 72, 253, 97, 188, 84, 182, 16, 61, 216, 136, 49, 188, 52, 148, 49, 189, 224, 54, 10, 187, 198, 43, 33, 61, 88, 13, 168, 187, 82, 141, 206, 188, 6, 221, 45, 189, 140, 215, 128, 188, 216, 17, 218, 60, 251, 92, 12, 189, 120, 65, 25, 189, 252, 117, 26, 61, 100, 71, 169, 188, 139, 20, 6, 189, 140, 253, 232, 60, 152, 181, 156, 60, 160, 124, 200, 58, 14, 45, 178, 188, 242, 131, 25, 61, 192, 119, 109, 186, 96, 145, 189, 188, 76, 57, 149, 188, 240, 98, 0, 188, 0, 224, 253, 55, 84, 146, 10, 188, 162, 127, 128, 188, 234, 33, 65, 61, 104, 123, 106, 60, 248, 43, 171, 60, 87, 242, 225, 188, 12, 101, 172, 60, 192, 63, 123, 60, 222, 219, 22, 61, 130, 55, 229, 188, 58, 207, 223, 188, 60, 81, 197, 60, 228, 72, 119, 188, 224, 18, 32, 188, 33, 81, 232, 188, 152, 151, 237, 60, 208, 230, 147, 60, 6, 113, 12, 189, 120, 162, 211, 60, 198, 255, 46, 189, 197, 21, 57, 189, 76, 171, 130, 60, 40, 51, 247, 59, 91, 15, 145, 188, 120, 45, 73, 60, 79, 179, 143, 188, 160, 116, 245, 59, 204, 22, 129, 188, 58, 89, 21, 61, 179, 8, 39, 189, 64, 175, 6, 186, 113, 42, 62, 189, 112, 113, 198, 188, 26, 188, 180, 188, 54, 1, 53, 61, 128, 90, 243, 59, 224, 147, 203, 60, 100, 185, 58, 60, 12, 110, 15, 189, 32, 101, 135, 60, 199, 254, 149, 188, 200, 172, 9, 61, 48, 81, 151, 188, 100, 136, 30, 60, 160, 149, 221, 60, 144, 27, 111, 188, 116, 143, 65, 189, 64, 238, 145, 186, 220, 52, 13, 61, 90, 151, 2, 61, 26, 205, 50, 189, 169, 193, 46, 189, 56, 159, 121, 188, 222, 168, 168, 188, 239, 46, 39, 189, 192, 243, 38, 58, 71, 189, 181, 188, 106, 124, 24, 61, 188, 142, 20, 189, 84, 30, 17, 189, 224, 77, 187, 59, 138, 212, 4, 61, 84, 173, 235, 60, 152, 121, 19, 189, 104, 55, 31, 60, 102, 91, 67, 189, 188, 239, 37, 60, 116, 228, 219, 60, 40, 130, 5, 189, 236, 183, 63, 61, 52, 11, 201, 60, 225, 57, 59, 189, 192, 128, 160, 60, 120, 132, 51, 60, 160, 188, 22, 189, 222, 193, 136, 188, 222, 52, 28, 61, 24, 246, 160, 59, 57, 168, 25, 189, 237, 127, 237, 188, 68, 50, 52, 188, 188, 190, 40, 61, 180, 191, 221, 60, 5, 220, 234, 188, 126, 194, 20, 61, 10, 217, 8, 61, 245, 198, 214, 188, 96, 62, 157, 60, 8, 39, 42, 61, 68, 151, 20, 61, 210, 212, 34, 61, 66, 183, 58, 61, 76, 54, 161, 60, 24, 177, 33, 189, 232, 98, 161, 187, 193, 60, 190, 188, 167, 196, 221, 188, 184, 216, 42, 189, 108, 146, 45, 189, 96, 167, 144, 186, 38, 113, 150, 188, 10, 165, 8, 61, 68, 251, 197, 60, 43, 0, 62, 189, 128, 44, 165, 60, 68, 243, 250, 188, 112, 110, 181, 59, 176, 27, 174, 59, 194, 32, 23, 189, 214, 184, 141, 188, 207, 107, 237, 188, 36, 226, 230, 60, 248, 109, 199, 59, 24, 62, 64, 188, 61, 24, 172, 188, 31, 32, 219, 188, 240, 242, 84, 59, 192, 73, 186, 186, 156, 251, 2, 189, 188, 218, 48, 60, 177, 28, 11, 189, 88, 81, 98, 60, 188, 68, 185, 60, 104, 11, 142, 60, 132, 48, 141, 60, 39, 37, 61, 189, 196, 51, 59, 189, 158, 0, 130, 188, 128, 185, 92, 188, 204, 206, 226, 60, 221, 112, 26, 189, 36, 48, 26, 60, 145, 216, 26, 189, 212, 166, 46, 60, 90, 134, 158, 188, 130, 62, 186, 188, 202, 134, 19, 189, 184, 122, 253, 60, 74, 75, 2, 61, 114, 202, 172, 188, 4, 15, 243, 60, 87, 129, 54, 189, 96, 45, 66, 189, 54, 178, 55, 61, 100, 203, 107, 60, 160, 103, 235, 60, 213, 206, 246, 188, 24, 231, 0, 189, 222, 88, 137, 188, 160, 113, 196, 60, 82, 55, 11, 189, 88, 229, 4, 60, 68, 208, 56, 61, 96, 54, 4, 188, 0, 211, 2, 189, 136, 235, 224, 59, 231, 247, 44, 189, 222, 33, 28, 61, 28, 49, 216, 188, 64, 218, 162, 60, 47, 120, 51, 189, 98, 140, 56, 189, 2, 123, 30, 189, 22, 231, 31, 189, 152, 216, 209, 188, 124, 179, 201, 188, 180, 225, 43, 188, 206, 223, 18, 61, 204, 207, 82, 188, 86, 240, 201, 188, 40, 21, 71, 60, 132, 143, 232, 60, 16, 50, 148, 60, 48, 189, 29, 187, 96, 202, 118, 59, 132, 16, 245, 60, 58, 64, 14, 61, 80, 9, 159, 187, 152, 156, 221, 60, 185, 22, 167, 188, 148, 48, 36, 189, 168, 29, 142, 188, 194, 204, 12, 189, 68, 239, 175, 188, 160, 100, 254, 186, 70, 65, 43, 189, 173, 26, 146, 188, 99, 243, 252, 188, 216, 234, 161, 59, 30, 53, 47, 61, 57, 74, 10, 189, 76, 110, 61, 189, 116, 5, 10, 189, 254, 114, 58, 61, 200, 83, 156, 60, 224, 251, 187, 186, 29, 131, 169, 188, 172, 152, 41, 61, 74, 220, 200, 188, 108, 19, 144, 60, 0, 135, 255, 60, 120, 180, 154, 60, 0, 103, 222, 58, 48, 58, 12, 60, 8, 67, 123, 188, 112, 229, 219, 60, 208, 129, 255, 187, 252, 132, 31, 61, 64, 142, 98, 188, 4, 66, 186, 60, 172, 66, 191, 60, 240, 3, 193, 187, 124, 218, 26, 188, 19, 4, 16, 189, 80, 11, 149, 187, 80, 66, 29, 187, 48, 220, 0, 59, 108, 101, 163, 60, 218, 140, 54, 61, 42, 184, 144, 188, 212, 255, 184, 60, 105, 81, 63, 189, 88, 111, 3, 60, 192, 50, 59, 59, 32, 72, 106, 60, 116, 3, 44, 61, 162, 188, 55, 61, 159, 18, 237, 188, 44, 148, 122, 188, 132, 108, 42, 60, 44, 181, 90, 60, 240, 169, 228, 60, 240, 101, 173, 60, 122, 162, 60, 61, 20, 8, 238, 60, 60, 105, 233, 60, 89, 74, 220, 188, 144, 212, 116, 59, 226, 100, 29, 61, 113, 223, 206, 188, 250, 209, 40, 61, 224, 43, 218, 60, 220, 124, 210, 188, 192, 100, 99, 59, 4, 49, 211, 60, 128, 254, 66, 189, 254, 117, 68, 61, 190, 224, 43, 61, 128, 151, 50, 188, 12, 216, 227, 60, 48, 1, 43, 61, 32, 66, 43, 188, 112, 95, 64, 187, 120, 185, 200, 60, 228, 84, 70, 188, 136, 71, 71, 60, 92, 124, 129, 60, 164, 248, 194, 60, 152, 134, 55, 61, 22, 138, 180, 188, 77, 86, 59, 189, 192, 54, 43, 61, 16, 197, 22, 189, 240, 249, 22, 61, 32, 119, 62, 59, 64, 128, 123, 59, 159, 36, 184, 188, 65, 128, 173, 188, 248, 104, 173, 59, 100, 56, 31, 61, 90, 56, 229, 188, 120, 227, 92, 60, 64, 37, 59, 61, 232, 244, 69, 188, 207, 212, 10, 189, 140, 44, 36, 60, 172, 73, 124, 188, 86, 203, 31, 61, 200, 27, 186, 59, 128, 232, 29, 189, 160, 125, 34, 59, 229, 84, 217, 188, 112, 20, 82, 60, 160, 69, 24, 61, 32, 93, 56, 59, 128, 71, 107, 60, 114, 163, 36, 189, 62, 196, 45, 189, 208, 251, 252, 59, 125, 86, 54, 189, 64, 247, 10, 189, 172, 101, 104, 60, 128, 71, 215, 186, 185, 208, 54, 189, 217, 132, 28, 189, 120, 36, 36, 60, 172, 145, 27, 60, 240, 217, 80, 187, 20, 43, 42, 189, 75, 178, 48, 189, 137, 38, 41, 189, 148, 133, 45, 189, 97, 15, 35, 189, 72, 62, 37, 61, 140, 25, 7, 60, 0, 143, 94, 186, 126, 214, 235, 188, 134, 55, 37, 61, 224, 35, 31, 61, 76, 252, 69, 60, 4, 156, 55, 188, 6, 183, 21, 189, 18, 153, 31, 61, 96, 150, 247, 58, 216, 213, 138, 60, 244, 155, 163, 60, 180, 192, 251, 60, 222, 185, 234, 188, 240, 57, 136, 59, 34, 113, 5, 61, 218, 134, 20, 61, 123, 228, 59, 189, 236, 14, 201, 60, 50, 173, 23, 61, 16, 61, 58, 187, 192, 52, 215, 58, 152, 232, 22, 189, 164, 9, 154, 188, 244, 191, 25, 60, 154, 149, 136, 188, 124, 197, 139, 60, 192, 191, 38, 59, 120, 240, 234, 60, 124, 179, 243, 60, 200, 55, 255, 187, 224, 84, 57, 60, 170, 89, 42, 61, 122, 82, 53, 61, 188, 199, 129, 60, 202, 37, 35, 61, 74, 172, 13, 61, 65, 72, 16, 189, 38, 183, 2, 189, 129, 236, 32, 189, 248, 85, 251, 187, 180, 138, 210, 188, 108, 86, 249, 60, 253, 149, 58, 189, 234, 49, 140, 188, 22, 35, 9, 61, 56, 199, 25, 60, 96, 186, 13, 61, 62, 50, 1, 189, 42, 126, 46, 61, 59, 98, 56, 189, 254, 251, 204, 188, 88, 13, 201, 60, 140, 161, 134, 60, 62, 248, 67, 61, 204, 17, 220, 188, 184, 95, 157, 59, 152, 82, 92, 188, 240, 221, 86, 60, 16, 142, 111, 188, 214, 136, 56, 61, 50, 246, 197, 188, 52, 248, 231, 60, 163, 94, 31, 189, 80, 148, 19, 60, 36, 41, 62, 60, 16, 178, 217, 187, 8, 224, 48, 61, 88, 37, 58, 60, 251, 127, 248, 188, 0, 225, 166, 57, 153, 28, 189, 188, 110, 198, 11, 61, 232, 74, 121, 60, 192, 129, 151, 60, 232, 48, 102, 60, 192, 49, 67, 188, 236, 126, 254, 60, 188, 47, 243, 60, 188, 150, 77, 60, 32, 194, 235, 59, 208, 8, 217, 60, 92, 65, 216, 60, 108, 223, 43, 61, 124, 190, 73, 188, 68, 52, 130, 60, 237, 66, 3, 189, 56, 109, 43, 189, 224, 167, 251, 60, 22, 233, 217, 188, 184, 247, 146, 59, 32, 96, 101, 59, 155, 36, 45, 189, 182, 65, 158, 188, 96, 145, 108, 60, 113, 11, 242, 188, 216, 66, 1, 61, 32, 136, 188, 60, 154, 252, 26, 61, 56, 102, 218, 60, 234, 245, 31, 61, 138, 77, 8, 189, 54, 145, 42, 61, 74, 29, 30, 189, 128, 15, 215, 187, 176, 191, 165, 187, 224, 56, 139, 186, 200, 119, 23, 189, 21, 231, 24, 189, 148, 67, 45, 60, 68, 0, 24, 189, 152, 89, 195, 59, 160, 2, 206, 58, 160, 45, 207, 60, 119, 149, 154, 188, 146, 205, 53, 61, 242, 74, 41, 189, 212, 137, 28, 188, 223, 244, 65, 189, 236, 111, 0, 61, 76, 69, 208, 60, 192, 176, 150, 58, 36, 63, 143, 60, 192, 113, 96, 59, 112, 68, 161, 60, 82, 172, 252, 188, 192, 250, 117, 60, 183, 227, 195, 188, 62, 211, 47, 61, 92, 215, 155, 60, 36, 176, 30, 188, 216, 9, 132, 60, 28, 169, 96, 60, 244, 35, 195, 188, 224, 221, 183, 60, 20, 94, 8, 188, 53, 97, 229, 188, 16, 149, 151, 60, 252, 129, 90, 188, 60, 24, 38, 189, 219, 61, 5, 189, 122, 157, 218, 188, 224, 26, 13, 59, 213, 49, 165, 188, 48, 97, 245, 60, 168, 169, 2, 61, 156, 50, 57, 189, 95, 118, 12, 189, 224, 42, 200, 59, 201, 211, 254, 188, 246, 214, 6, 61, 120, 215, 185, 60, 12, 112, 255, 188, 100, 3, 22, 189, 112, 246, 246, 60, 236, 112, 67, 189, 200, 209, 184, 60, 140, 203, 32, 61, 20, 54, 58, 188, 90, 63, 41, 189, 168, 230, 250, 60, 88, 128, 2, 61, 184, 43, 17, 61, 196, 233, 112, 188, 152, 28, 239, 60, 200, 226, 211, 59, 248, 2, 25, 61, 200, 50, 21, 60, 207, 183, 153, 188, 104, 213, 5, 189, 124, 199, 155, 60, 142, 230, 26, 61, 220, 61, 138, 188, 71, 221, 154, 188, 144, 90, 220, 59, 12, 64, 154, 60, 163, 46, 167, 188, 56, 253, 203, 187, 8, 98, 145, 59, 204, 92, 1, 189, 28, 138, 221, 60, 32, 52, 121, 59, 68, 89, 216, 60, 160, 9, 177, 60, 160, 43, 25, 61, 4, 75, 165, 60, 24, 69, 130, 187, 14, 135, 129, 188, 95, 118, 36, 189, 58, 88, 68, 61, 20, 45, 6, 189, 136, 173, 196, 59, 32, 165, 96, 188, 118, 219, 48, 189, 56, 135, 163, 60, 196, 118, 50, 188, 224, 14, 170, 59, 248, 172, 54, 61, 37, 156, 45, 189, 248, 61, 10, 61, 72, 134, 203, 60, 112, 150, 118, 60, 54, 171, 60, 61, 215, 203, 174, 188, 32, 143, 146, 59, 164, 188, 212, 60, 172, 152, 104, 60, 168, 174, 36, 61, 206, 145, 11, 189, 140, 250, 11, 60, 147, 82, 141, 188, 44, 38, 14, 61, 72, 81, 139, 60, 134, 35, 4, 61, 252, 141, 7, 189, 236, 142, 6, 188, 63, 22, 51, 189, 140, 9, 59, 61, 9, 80, 27, 189, 192, 41, 206, 60, 0, 130, 26, 189, 187, 111, 44, 189, 174, 241, 46, 61, 128, 198, 41, 186, 76, 150, 228, 60, 34, 85, 29, 61, 161, 239, 138, 188, 200, 19, 249, 188, 0, 132, 111, 56, 142, 136, 42, 61, 172, 177, 182, 60, 248, 151, 210, 188, 244, 136, 88, 60, 48, 110, 96, 60, 74, 47, 54, 61, 88, 205, 63, 60, 228, 174, 122, 188, 154, 197, 249, 188, 208, 101, 116, 59, 52, 44, 203, 188, 104, 148, 39, 61, 23, 93, 212, 188, 90, 136, 21, 61, 112, 90, 113, 60, 0, 191, 1, 186, 122, 120, 60, 61, 8, 154, 202, 188, 204, 103, 17, 189, 232, 141, 175, 60, 222, 142, 65, 61, 184, 150, 25, 60, 28, 55, 140, 60, 40, 68, 64, 60, 46, 151, 216, 188, 72, 133, 137, 60, 32, 220, 247, 60, 136, 77, 188, 60, 62, 189, 3, 189, 232, 163, 2, 61, 32, 74, 195, 187, 232, 192, 158, 59, 184, 127, 36, 189, 179, 121, 233, 188, 48, 72, 6, 189, 146, 2, 37, 189, 174, 103, 244, 188, 173, 125, 156, 188, 124, 200, 38, 61, 0, 162, 89, 57, 176, 69, 126, 60, 94, 9, 4, 189, 67, 43, 245, 188, 104, 25, 197, 188, 156, 115, 212, 60, 126, 160, 40, 189, 24, 20, 209, 187, 176, 174, 43, 61, 12, 167, 4, 61, 152, 173, 200, 60, 64, 163, 234, 59, 239, 40, 3, 189, 56, 222, 172, 60, 223, 155, 227, 188, 178, 153, 154, 188, 72, 49, 234, 60, 67, 172, 2, 189, 39, 126, 21, 189, 80, 104, 70, 187, 88, 53, 234, 60, 124, 12, 251, 60, 120, 53, 247, 59, 253, 135, 164, 188, 174, 160, 32, 61, 112, 33, 6, 61, 117, 5, 67, 189, 240, 156, 62, 60, 128, 104, 31, 186, 112, 244, 232, 60, 0, 156, 15, 186, 242, 72, 32, 61, 149, 172, 43, 189, 188, 102, 234, 60, 117, 41, 197, 188, 128, 44, 166, 59, 136, 16, 54, 60, 80, 243, 92, 59, 210, 89, 52, 61, 192, 178, 165, 60, 104, 100, 38, 61, 8, 253, 61, 61, 50, 103, 34, 61, 233, 174, 14, 189, 3, 96, 241, 188, 112, 253, 56, 189, 136, 82, 64, 61, 0, 224, 9, 61, 28, 228, 49, 60, 80, 217, 207, 188, 136, 176, 47, 60, 64, 204, 219, 186, 48, 254, 75, 59, 124, 114, 27, 61, 116, 92, 13, 61, 88, 137, 50, 61, 128, 61, 15, 58, 148, 115, 14, 188, 135, 140, 252, 188, 136, 31, 81, 60, 118, 165, 5, 189, 140, 215, 239, 60, 116, 230, 13, 189, 13, 148, 56, 189, 130, 14, 26, 189, 25, 39, 184, 188, 130, 234, 8, 189, 8, 154, 39, 188, 40, 5, 80, 188, 180, 126, 197, 188, 160, 183, 232, 59, 209, 175, 43, 189, 50, 126, 41, 189, 74, 200, 62, 61, 56, 184, 52, 61, 48, 39, 117, 60, 60, 227, 106, 188, 226, 42, 211, 188, 204, 28, 170, 60, 56, 182, 52, 188, 48, 218, 231, 60, 104, 206, 33, 61, 170, 174, 2, 189, 12, 109, 29, 188, 7, 107, 165, 188, 168, 20, 22, 61, 24, 2, 167, 187, 16, 5, 89, 188, 180, 80, 48, 61, 0, 166, 27, 57, 216, 178, 56, 188, 36, 213, 11, 188, 212, 195, 27, 189, 136, 84, 145, 60, 86, 218, 28, 189, 248, 177, 24, 60, 164, 164, 11, 188, 44, 114, 102, 188, 86, 130, 252, 188, 80, 184, 26, 60, 215, 49, 187, 188, 44, 4, 47, 188, 104, 108, 182, 60, 42, 156, 40, 61, 132, 12, 232, 60, 236, 65, 29, 188, 148, 153, 76, 188, 103, 207, 141, 188, 221, 79, 245, 188, 98, 5, 68, 61, 36, 163, 148, 60, 8, 10, 46, 188, 68, 157, 43, 60, 0, 103, 125, 60, 148, 85, 140, 188, 104, 131, 203, 59, 190, 80, 44, 61, 88, 191, 186, 60, 192, 174, 156, 59, 158, 53, 42, 61, 240, 99, 155, 60, 24, 96, 210, 188, 0, 104, 188, 55, 64, 241, 213, 58, 52, 9, 36, 61, 140, 169, 233, 60, 184, 173, 246, 60, 128, 227, 214, 58, 80, 194, 62, 187, 232, 103, 194, 59, 200, 188, 161, 60, 223, 231, 123, 60, 86, 232, 144, 188, 163, 0, 54, 61, 100, 71, 176, 60, 0, 162, 15, 60, 89, 143, 123, 188, 140, 42, 151, 60, 206, 250, 34, 61, 78, 115, 184, 60, 88, 190, 192, 60, 169, 170, 137, 60, 151, 59, 68, 61, 42, 139, 219, 188, 22, 240, 89, 61, 69, 241, 201, 187, 113, 22, 69, 59, 140, 166, 138, 188, 97, 240, 22, 189, 125, 234, 252, 188, 129, 169, 32, 61, 41, 160, 23, 60, 128, 170, 237, 186, 135, 5, 222, 60, 183, 217, 202, 188, 235, 57, 33, 189, 140, 151, 9, 189, 149, 146, 74, 188, 18, 200, 21, 189, 104, 172, 230, 59, 26, 226, 12, 61, 105, 243, 67, 61, 224, 157, 8, 61, 191, 181, 24, 189, 56, 166, 66, 61, 224, 15, 104, 187, 246, 5, 42, 61, 92, 168, 92, 188, 64, 14, 3, 189, 84, 246, 184, 188, 220, 132, 156, 60, 158, 11, 89, 61, 53, 38, 75, 61, 192, 205, 25, 61, 174, 78, 51, 61, 184, 120, 133, 60, 71, 152, 10, 189, 166, 144, 24, 61, 136, 26, 153, 187, 87, 41, 47, 189, 56, 195, 1, 188, 108, 167, 63, 61, 47, 172, 3, 186, 245, 167, 244, 60, 32, 114, 46, 61, 66, 67, 52, 61, 149, 234, 153, 188, 58, 201, 183, 188, 232, 47, 187, 188, 75, 53, 204, 188, 200, 215, 239, 188, 244, 178, 57, 61, 210, 245, 4, 61, 72, 80, 30, 58, 250, 225, 92, 188, 124, 138, 13, 61, 246, 199, 127, 59, 180, 238, 56, 61, 190, 210, 245, 60, 93, 72, 64, 189, 194, 88, 12, 189, 184, 52, 32, 189, 128, 31, 7, 61, 185, 236, 8, 189, 56, 238, 46, 61, 182, 233, 33, 60, 227, 114, 71, 60, 232, 172, 232, 60, 62, 153, 8, 60, 56, 148, 147, 187, 56, 230, 188, 59, 214, 43, 180, 188, 174, 244, 50, 189, 244, 205, 57, 188, 0, 21, 7, 61, 41, 220, 109, 188, 240, 249, 90, 60, 208, 79, 85, 187, 129, 34, 75, 61, 83, 71, 189, 60, 43, 101, 3, 61, 171, 129, 200, 60, 6, 89, 34, 61, 104, 106, 178, 60, 0, 6, 50, 57, 112, 40, 233, 59, 78, 176, 152, 60, 34, 80, 127, 61, 12, 245, 35, 61, 172, 34, 2, 189, 160, 111, 254, 188, 185, 246, 13, 188, 127, 199, 60, 61, 145, 195, 6, 61, 232, 202, 118, 60, 128, 46, 33, 187, 149, 128, 182, 59, 80, 103, 168, 59, 92, 213, 220, 186, 113, 86, 103, 61, 137, 11, 236, 60, 164, 123, 3, 189, 92, 47, 131, 61, 51, 79, 12, 189, 80, 166, 149, 60, 9, 90, 161, 60, 245, 51, 191, 60, 126, 206, 46, 188, 130, 214, 37, 61, 240, 169, 30, 60, 95, 243, 37, 61, 49, 79, 180, 188, 227, 42, 56, 189, 212, 235, 193, 58, 179, 110, 57, 189, 183, 24, 185, 188, 4, 225, 52, 61, 112, 71, 200, 60, 214, 232, 218, 188, 27, 88, 77, 58, 34, 185, 212, 57, 20, 177, 48, 61, 60, 89, 220, 188, 12, 209, 84, 188, 97, 194, 67, 61, 24, 79, 164, 188, 191, 207, 29, 189, 167, 183, 205, 60, 25, 141, 27, 189, 165, 54, 96, 187, 26, 162, 64, 189, 13, 74, 35, 61, 163, 223, 52, 189, 104, 60, 155, 187, 125, 37, 182, 186, 128, 17, 204, 187, 102, 128, 8, 59, 212, 182, 193, 188, 104, 44, 242, 60, 17, 188, 238, 58, 244, 112, 253, 60, 42, 16, 1, 188, 246, 25, 22, 61, 244, 8, 7, 60, 42, 49, 21, 61, 142, 75, 232, 188, 87, 100, 159, 60, 252, 12, 251, 187, 213, 180, 50, 189, 67, 151, 25, 61, 85, 102, 160, 188, 196, 93, 125, 60, 208, 185, 140, 60, 224, 157, 230, 187, 53, 215, 67, 61, 242, 203, 150, 188, 211, 80, 106, 60, 41, 244, 17, 61, 189, 128, 3, 61, 83, 112, 41, 189, 65, 122, 77, 189, 214, 132, 192, 188, 251, 47, 134, 60, 16, 100, 27, 61, 191, 87, 37, 189, 216, 130, 228, 187, 115, 204, 46, 187, 208, 127, 9, 189, 126, 77, 140, 188, 165, 239, 242, 186, 26, 10, 31, 61, 41, 99, 90, 188, 121, 236, 26, 188, 58, 88, 210, 188, 76, 82, 9, 189, 208, 215, 106, 187, 124, 94, 232, 188, 2, 112, 121, 59, 79, 162, 255, 58, 213, 15, 161, 187, 112, 100, 174, 60, 201, 139, 2, 61, 161, 77, 84, 188, 43, 210, 5, 60, 240, 47, 218, 60, 235, 252, 135, 60, 37, 78, 146, 60, 81, 185, 52, 61, 54, 74, 88, 60, 81, 202, 6, 61, 56, 15, 221, 60, 166, 46, 64, 61, 160, 207, 49, 61, 154, 132, 155, 188, 60, 41, 231, 188, 143, 249, 89, 188, 118, 124, 12, 61, 136, 113, 72, 188, 24, 124, 77, 60, 236, 245, 161, 60, 31, 197, 66, 189, 227, 84, 89, 61, 196, 107, 61, 60, 217, 180, 241, 59, 66, 44, 42, 189, 47, 119, 26, 58, 255, 134, 97, 186, 175, 166, 177, 188, 196, 96, 36, 60, 92, 33, 76, 188, 229, 159, 147, 60, 37, 118, 15, 61, 224, 0, 95, 188, 207, 210, 196, 188, 71, 107, 183, 188, 116, 188, 16, 189, 194, 234, 237, 188, 208, 11, 183, 60, 246, 141, 17, 189, 110, 163, 51, 189, 121, 156, 38, 60, 172, 195, 168, 187, 9, 127, 232, 188, 139, 2, 137, 60, 136, 4, 103, 188, 118, 23, 204, 187, 146, 6, 26, 61, 51, 255, 142, 188, 106, 61, 198, 188, 232, 31, 133, 60, 140, 245, 22, 61, 3, 72, 123, 188, 66, 75, 222, 60, 183, 53, 154, 59, 132, 166, 68, 189, 72, 165, 26, 189, 228, 140, 20, 61, 159, 101, 91, 61, 145, 221, 219, 187, 48, 201, 31, 188, 226, 146, 253, 188, 251, 