
const unsigned char model[] = {
  28, 0, 0, 0, 84, 70, 76, 51, 20, 0, 32, 0, 28, 0, 24, 0, 20, 0, 16, 0, 12, 0, 0, 0, 8, 0, 4, 0, 20, 0, 0, 0, 28, 0, 0, 0, 136, 0, 0, 0, 224, 0, 0, 0, 196, 45, 5, 0, 212, 45, 5, 0, 236, 52, 5, 0, 3, 0, 0, 0, 1, 0, 0, 0, 4, 0, 0, 0, 46, 209, 250, 255, 12, 0, 0, 0, 28, 0, 0, 0, 56, 0, 0, 0, 15, 0, 0, 0, 115, 101, 114, 118, 105, 110, 103, 95, 100, 101, 102, 97, 117, 108, 116, 0, 1, 0, 0, 0, 4, 0, 0, 0, 148, 255, 255, 255, 12, 0, 0, 0, 4, 0, 0, 0, 7, 0, 0, 0, 100, 101, 110, 115, 101, 95, 49, 0, 1, 0, 0, 0, 4, 0, 0, 0, 30, 210, 250, 255, 4, 0, 0, 0, 12, 0, 0, 0, 99, 111, 110, 118, 50, 100, 95, 105, 110, 112, 117, 116, 0, 0, 0, 0, 2, 0, 0, 0, 52, 0, 0, 0, 4, 0, 0, 0, 220, 255, 255, 255, 15, 0, 0, 0, 4, 0, 0, 0, 19, 0, 0, 0, 67, 79, 78, 86, 69, 82, 83, 73, 79, 78, 95, 77, 69, 84, 65, 68, 65, 84, 65, 0, 8, 0, 12, 0, 8, 0, 4, 0, 8, 0, 0, 0, 14, 0, 0, 0, 4, 0, 0, 0, 19, 0, 0, 0, 109, 105, 110, 95, 114, 117, 110, 116, 105, 109, 101, 95, 118, 101, 114, 115, 105, 111, 110, 0, 16, 0, 0, 0, 224, 44, 5, 0, 216, 44, 5, 0, 180, 44, 5, 0, 148, 5, 5, 0, 4, 5, 5, 0, 232, 4, 5, 0, 208, 4, 5, 0, 64, 2, 0, 0, 176, 0, 0, 0, 168, 0, 0, 0, 160, 0, 0, 0, 152, 0, 0, 0, 144, 0, 0, 0, 136, 0, 0, 0, 104, 0, 0, 0, 4, 0, 0, 0, 218, 210, 250, 255, 4, 0, 0, 0, 84, 0, 0, 0, 12, 0, 0, 0, 8, 0, 14, 0, 8, 0, 4, 0, 8, 0, 0, 0, 16, 0, 0, 0, 36, 0, 0, 0, 0, 0, 6, 0, 8, 0, 4, 0, 6, 0, 0, 0, 4, 0, 0, 0, 0, 0, 0, 0, 0, 0, 10, 0, 16, 0, 12, 0, 8, 0, 4, 0, 10, 0, 0, 0, 2, 0, 0, 0, 2, 0, 0, 0, 4, 0, 0, 0, 6, 0, 0, 0, 50, 46, 49, 50, 46, 48, 0, 0, 58, 211, 250, 255, 4, 0, 0, 0, 16, 0, 0, 0, 49, 46, 53, 46, 48, 0, 0, 0, 0, 0, 0, 0, 0, 0, 0, 0, 232, 204, 250, 255, 236, 204, 250, 255, 240, 204, 250, 255, 244, 204, 250, 255, 248, 204, 250, 255, 106, 211, 250, 255, 4, 0, 0, 0, 128, 1, 0, 0, 136, 228, 160, 62, 167, 51, 70, 62, 64, 246, 98, 61, 169, 87, 142, 189, 160, 238, 82, 190, 82, 148, 205, 62, 33, 247, 235, 61, 36, 34, 91, 62, 170, 223, 218, 189, 48, 254, 45, 190, 18, 134, 234, 189, 246, 182, 168, 190, 246, 80, 81, 62, 217, 114, 192, 188, 224, 173, 79, 189, 219, 182, 69, 61, 176, 137, 24, 62, 136, 208, 112, 62, 56, 165, 166, 188, 199, 129, 238, 189, 250, 36, 203, 62, 174, 65, 115, 61, 6, 43, 127, 62, 80, 164, 79, 61, 161, 32, 89, 190, 202, 129, 70, 190, 5, 136, 123, 190, 14, 64, 40, 189, 206, 116, 23, 62, 63, 98, 143, 189, 86, 169, 189, 188, 11, 3, 13, 62, 201, 243, 70, 190, 188, 147, 135, 188, 80, 49, 179, 190, 152, 185, 207, 61, 64, 226, 204, 62, 34, 151, 110, 190, 93, 13, 64, 190, 68, 25, 202, 62, 98, 155, 71, 188, 121, 222, 67, 62, 115, 84, 215, 190, 204, 222, 165, 190, 83, 145, 188, 190, 227, 143, 200, 62, 78, 104, 142, 189, 227, 94, 187, 62, 207, 245, 211, 190, 159, 234, 76, 62, 199, 202, 129, 61, 156, 196, 43, 189, 80, 41, 13, 62, 45, 226, 76, 59, 250, 74, 124, 62, 35, 13, 94, 190, 187, 139, 133, 62, 87, 136, 133, 62, 0, 5, 155, 62, 192, 57, 152, 190, 161, 28, 193, 188, 66, 33, 108, 190, 176, 19, 156, 61, 232, 202, 227, 187, 151, 122, 75, 190, 187, 232, 65, 189, 240, 175, 201, 190, 14, 253, 84, 62, 149, 72, 47, 62, 86, 169, 236, 61, 193, 140, 160, 62, 49, 183, 53, 62, 28, 202, 3, 189, 199, 74, 164, 62, 247, 62, 131, 190, 107, 78, 146, 62, 8, 180, 34, 62, 229, 192, 133, 189, 30, 183, 145, 190, 170, 60, 199, 62, 66, 229, 180, 62, 1, 146, 31, 62, 220, 54, 153, 62, 211, 185, 192, 189, 116, 162, 209, 190, 25, 87, 220, 190, 147, 62, 154, 61, 101, 4, 97, 190, 32, 10, 223, 189, 38, 157, 26, 189, 89, 28, 237, 61, 47, 97, 171, 190, 204, 182, 44, 190, 12, 15, 180, 188, 190, 186, 110, 190, 119, 112, 55, 189, 246, 212, 250, 255, 4, 0, 0, 0, 128, 2, 5, 0, 98, 244, 225, 60, 10, 4, 134, 188, 240, 189, 166, 59, 107, 218, 12, 189, 24, 111, 74, 60, 7, 168, 32, 61, 216, 62, 61, 189, 89, 221, 46, 187, 91, 155, 40, 188, 144, 190, 24, 188, 180, 123, 193, 59, 7, 13, 66, 61, 115, 222, 195, 188, 104, 49, 149, 188, 224, 177, 195, 60, 39, 179, 218, 188, 162, 250, 57, 61, 63, 211, 61, 188, 10, 99, 140, 58, 116, 237, 192, 60, 144, 68, 132, 59, 36, 141, 88, 60, 231, 63, 35, 61, 167, 164, 24, 60, 166, 117, 49, 189, 117, 220, 129, 188, 48, 181, 210, 60, 82, 222, 92, 186, 144, 212, 138, 60, 111, 145, 16, 189, 236, 203, 201, 60, 115, 13, 59, 61, 188, 9, 111, 188, 109, 144, 64, 61, 31, 244, 26, 61, 5, 43, 181, 188, 46, 49, 116, 60, 178, 119, 24, 61, 99, 205, 170, 188, 232, 16, 200, 60, 50, 229, 23, 188, 106, 233, 102, 60, 51, 126, 138, 187, 226, 173, 24, 188, 162, 180, 132, 59, 127, 187, 7, 189, 15, 9, 103, 60, 8, 73, 55, 60, 160, 17, 91, 60, 12, 142, 13, 189, 198, 175, 9, 188, 3, 231, 9, 189, 68, 82, 59, 61, 170, 179, 254, 188, 248, 192, 43, 61, 87, 129, 12, 61, 224, 117, 170, 59, 243, 138, 254, 59, 130, 41, 237, 60, 184, 203, 10, 189, 184, 232, 65, 188, 135, 128, 204, 187, 161, 114, 199, 59, 34, 81, 71, 60, 223, 217, 251, 187, 196, 194, 210, 60, 234, 244, 33, 189, 21, 4, 213, 60, 140, 240, 58, 61, 122, 203, 6, 60, 204, 106, 38, 61, 77, 116, 117, 189, 40, 139, 193, 60, 216, 114, 21, 189, 232, 38, 43, 189, 142, 146, 10, 61, 66, 83, 67, 188, 245, 76, 224, 60, 231, 196, 190, 60, 60, 79, 150, 60, 103, 154, 247, 188, 88, 66, 0, 189, 178, 179, 55, 60, 9, 147, 15, 189, 221, 242, 139, 188, 199, 23, 243, 188, 172, 233, 198, 188, 60, 240, 249, 60, 198, 19, 192, 60, 212, 57, 53, 187, 116, 247, 65, 61, 38, 133, 67, 188, 6, 168, 164, 60, 53, 182, 24, 60, 142, 119, 243, 60, 19, 67, 229, 60, 131, 7, 180, 188, 3, 10, 101, 189, 247, 57, 7, 188, 177, 9, 190, 188, 154, 183, 243, 187, 95, 89, 180, 188, 99, 30, 127, 188, 67, 127, 42, 189, 82, 245, 26, 61, 247, 15, 54, 61, 232, 181, 110, 188, 90, 220, 36, 189, 137, 246, 65, 61, 231, 55, 39, 61, 145, 75, 198, 58, 47, 11, 85, 187, 153, 252, 56, 61, 193, 196, 5, 60, 71, 217, 32, 61, 99, 4, 126, 60, 67, 144, 53, 188, 56, 209, 238, 59, 1, 229, 0, 58, 188, 123, 7, 189, 132, 148, 71, 188, 245, 197, 101, 189, 18, 225, 52, 61, 40, 183, 27, 189, 216, 226, 28, 186, 52, 213, 198, 58, 43, 57, 63, 188, 148, 204, 26, 61, 100, 93, 77, 61, 169, 171, 52, 61, 182, 89, 96, 186, 110, 135, 250, 188, 5, 211, 90, 187, 15, 147, 43, 188, 150, 43, 44, 188, 24, 241, 42, 56, 68, 165, 11, 189, 103, 129, 177, 60, 123, 7, 24, 189, 115, 13, 66, 189, 212, 28, 238, 60, 115, 52, 132, 60, 219, 195, 80, 61, 185, 37, 168, 188, 10, 95, 189, 60, 104, 34, 140, 188, 137, 120, 63, 189, 158, 50, 124, 60, 185, 73, 44, 60, 127, 39, 215, 188, 148, 143, 131, 60, 237, 18, 106, 188, 228, 186, 135, 60, 185, 254, 64, 189, 143, 35, 232, 188, 45, 251, 238, 58, 214, 150, 14, 189, 11, 255, 42, 61, 147, 98, 210, 59, 116, 137, 238, 187, 86, 90, 62, 189, 105, 159, 54, 189, 59, 221, 2, 61, 79, 235, 0, 189, 247, 209, 224, 188, 110, 78, 175, 188, 18, 212, 55, 189, 128, 43, 148, 60, 61, 28, 162, 59, 218, 221, 182, 60, 126, 83, 27, 189, 82, 192, 181, 60, 143, 105, 208, 187, 169, 243, 7, 189, 75, 124, 86, 189, 124, 165, 245, 60, 210, 14, 209, 188, 7, 213, 228, 60, 55, 178, 152, 59, 69, 64, 249, 188, 169, 194, 30, 189, 196, 101, 132, 189, 237, 160, 146, 58, 89, 183, 200, 188, 115, 126, 231, 188, 42, 73, 186, 60, 46, 235, 40, 189, 231, 70, 63, 61, 254, 244, 183, 57, 61, 76, 22, 188, 172, 91, 40, 189, 247, 227, 217, 188, 72, 118, 154, 188, 17, 222, 249, 59, 186, 158, 180, 188, 160, 229, 161, 188, 46, 57, 39, 188, 145, 46, 204, 60, 105, 217, 211, 60, 241, 195, 115, 189, 221, 90, 31, 60, 253, 65, 11, 60, 180, 244, 39, 61, 227, 225, 201, 60, 74, 10, 236, 59, 89, 116, 17, 189, 22, 246, 87, 189, 219, 17, 34, 61, 116, 228, 41, 60, 133, 92, 162, 59, 220, 181, 254, 188, 6, 189, 90, 189, 241, 45, 143, 61, 73, 108, 111, 59, 250, 165, 111, 60, 167, 112, 252, 59, 219, 196, 198, 60, 94, 213, 8, 189, 68, 153, 58, 189, 153, 176, 204, 187, 151, 241, 2, 188, 196, 178, 222, 188, 206, 120, 230, 184, 169, 130, 35, 189, 104, 91, 4, 189, 7, 247, 189, 60, 51, 18, 2, 60, 110, 70, 96, 61, 213, 93, 172, 188, 221, 218, 22, 61, 108, 227, 125, 60, 42, 14, 1, 189, 238, 64, 31, 60, 206, 165, 42, 188, 129, 56, 216, 188, 44, 112, 164, 60, 110, 161, 205, 188, 57, 185, 19, 61, 5, 3, 138, 188, 175, 132, 209, 59, 242, 178, 26, 189, 8, 59, 0, 189, 177, 145, 239, 60, 235, 236, 40, 61, 32, 47, 136, 187, 19, 199, 40, 189, 24, 29, 227, 188, 59, 213, 236, 60, 153, 175, 18, 189, 17, 139, 128, 188, 8, 102, 78, 61, 74, 195, 36, 61, 133, 160, 35, 61, 104, 149, 121, 59, 22, 213, 234, 60, 112, 117, 63, 61, 235, 79, 52, 61, 7, 103, 184, 187, 232, 182, 49, 189, 89, 170, 6, 61, 206, 50, 210, 60, 56, 229, 8, 189, 239, 44, 22, 188, 53, 31, 28, 59, 160, 217, 174, 188, 240, 134, 190, 184, 26, 99, 219, 188, 7, 78, 80, 188, 15, 103, 37, 187, 101, 189, 57, 61, 37, 137, 216, 188, 190, 50, 104, 188, 140, 147, 236, 188, 217, 21, 22, 189, 81, 94, 71, 189, 49, 5, 84, 61, 117, 143, 198, 188, 61, 47, 69, 188, 87, 171, 29, 189, 211, 10, 181, 187, 55, 96, 55, 61, 234, 184, 215, 60, 207, 185, 52, 189, 35, 42, 238, 60, 34, 123, 77, 189, 20, 192, 82, 61, 67, 59, 92, 189, 104, 237, 215, 186, 236, 165, 175, 60, 91, 238, 34, 61, 62, 241, 253, 58, 241, 72, 182, 60, 125, 100, 43, 60, 151, 109, 50, 61, 229, 95, 63, 61, 152, 39, 185, 188, 121, 200, 57, 188, 180, 174, 251, 60, 138, 182, 76, 60, 36, 74, 199, 188, 37, 97, 27, 189, 87, 21, 151, 187, 120, 23, 153, 60, 106, 166, 245, 60, 128, 80, 203, 59, 8, 251, 85, 188, 238, 131, 197, 188, 224, 233, 73, 58, 60, 167, 64, 61, 239, 144, 17, 61, 54, 11, 36, 188, 43, 42, 0, 189, 96, 224, 1, 189, 157, 105, 30, 188, 116, 8, 247, 60, 53, 33, 112, 60, 4, 202, 207, 60, 102, 76, 16, 61, 247, 162, 76, 60, 155, 73, 6, 61, 107, 111, 255, 59, 221, 181, 157, 188, 87, 210, 71, 61, 160, 15, 59, 61, 208, 231, 18, 61, 222, 207, 20, 187, 139, 176, 54, 61, 220, 142, 16, 61, 157, 65, 37, 188, 226, 151, 16, 61, 144, 247, 128, 188, 98, 176, 32, 189, 69, 220, 218, 60, 252, 234, 118, 61, 156, 29, 18, 61, 216, 174, 211, 187, 97, 30, 29, 61, 42, 226, 180, 188, 7, 80, 168, 60, 199, 183, 144, 59, 189, 111, 129, 60, 218, 12, 203, 60, 167, 164, 104, 61, 107, 252, 130, 61, 44, 160, 10, 61, 191, 230, 136, 60, 14, 15, 59, 58, 24, 254, 123, 60, 188, 155, 111, 60, 49, 148, 228, 188, 153, 121, 105, 60, 165, 81, 175, 59, 55, 48, 33, 61, 29, 246, 33, 59, 174, 52, 118, 61, 26, 39, 9, 61, 203, 188, 40, 61, 151, 101, 51, 61, 195, 91, 21, 189, 174, 232, 233, 60, 74, 106, 31, 61, 66, 36, 54, 60, 135, 9, 42, 61, 113, 233, 141, 60, 29, 46, 148, 60, 153, 189, 233, 188, 6, 14, 83, 186, 209, 72, 7, 189, 194, 91, 138, 188, 155, 45, 105, 61, 182, 193, 22, 60, 19, 172, 237, 188, 113, 164, 7, 60, 79, 204, 202, 188, 110, 176, 98, 188, 1, 38, 9, 189, 32, 254, 50, 60, 223, 144, 41, 60, 128, 79, 43, 61, 47, 227, 51, 188, 113, 33, 228, 188, 228, 218, 49, 189, 93, 24, 237, 60, 103, 28, 32, 60, 236, 45, 231, 60, 162, 46, 1, 61, 39, 63, 53, 189, 234, 198, 73, 188, 235, 210, 21, 188, 138, 20, 195, 58, 137, 33, 6, 61, 224, 172, 97, 189, 164, 56, 130, 61, 200, 143, 160, 59, 189, 79, 187, 188, 169, 229, 245, 188, 105, 255, 146, 60, 141, 2, 9, 61, 143, 80, 34, 61, 107, 98, 9, 61, 177, 206, 8, 189, 253, 170, 59, 59, 252, 34, 8, 188, 124, 72, 71, 59, 141, 66, 22, 188, 240, 121, 73, 60, 192, 10, 171, 188, 168, 17, 246, 185, 12, 188, 67, 60, 109, 112, 159, 60, 80, 69, 28, 189, 24, 61, 154, 60, 153, 109, 40, 61, 169, 244, 63, 60, 39, 176, 0, 189, 29, 142, 97, 189, 249, 241, 29, 189, 148, 228, 11, 189, 32, 106, 7, 60, 145, 172, 202, 60, 56, 111, 36, 189, 220, 108, 15, 189, 174, 205, 36, 61, 252, 117, 89, 61, 200, 131, 228, 188, 236, 121, 81, 61, 151, 122, 148, 60, 215, 58, 105, 188, 64, 194, 53, 61, 163, 168, 68, 61, 152, 68, 190, 187, 145, 130, 229, 60, 128, 57, 85, 188, 214, 44, 195, 188, 187, 198, 218, 60, 18, 126, 19, 189, 234, 54, 60, 189, 29, 127, 133, 187, 208, 250, 45, 61, 208, 101, 178, 188, 41, 105, 251, 60, 253, 39, 90, 61, 176, 238, 183, 60, 190, 249, 33, 61, 68, 102, 113, 61, 142, 65, 128, 59, 54, 243, 11, 189, 97, 29, 112, 61, 225, 84, 55, 61, 33, 236, 31, 61, 155, 149, 38, 188, 134, 204, 78, 189, 94, 135, 251, 188, 129, 43, 208, 188, 224, 49, 60, 60, 67, 91, 52, 60, 110, 234, 200, 188, 186, 155, 18, 189, 84, 39, 253, 60, 41, 15, 215, 188, 115, 53, 251, 188, 172, 108, 76, 189, 239, 66, 88, 59, 92, 111, 61, 188, 94, 235, 101, 188, 251, 122, 23, 188, 127, 97, 16, 61, 32, 105, 126, 60, 222, 200, 85, 61, 72, 85, 55, 189, 234, 35, 0, 189, 75, 193, 147, 188, 163, 145, 217, 60, 218, 52, 150, 188, 113, 98, 1, 189, 97, 190, 134, 188, 112, 202, 36, 61, 178, 87, 199, 186, 254, 134, 12, 188, 215, 97, 135, 187, 93, 215, 139, 188, 15, 32, 121, 189, 139, 156, 197, 188, 112, 153, 249, 186, 226, 183, 132, 61, 117, 174, 75, 189, 100, 243, 170, 59, 60, 219, 136, 59, 162, 81, 81, 61, 63, 240, 79, 61, 5, 63, 95, 185, 128, 223, 28, 61, 171, 205, 104, 186, 114, 60, 42, 188, 200, 99, 81, 61, 224, 74, 156, 59, 140, 183, 62, 61, 6, 242, 38, 60, 89, 52, 91, 61, 42, 1, 0, 61, 149, 108, 32, 189, 19, 126, 225, 187, 203, 154, 113, 61, 209, 140, 203, 188, 181, 29, 79, 60, 39, 115, 183, 60, 138, 55, 88, 189, 231, 9, 23, 61, 92, 12, 132, 188, 235, 251, 166, 59, 44, 185, 1, 189, 41, 118, 58, 189, 71, 77, 4, 188, 7, 50, 150, 60, 197, 222, 2, 188, 131, 109, 179, 187, 152, 130, 19, 189, 102, 2, 40, 188, 27, 201, 223, 60, 224, 124, 176, 60, 253, 62, 192, 59, 55, 203, 13, 189, 134, 183, 20, 189, 46, 144, 78, 188, 201, 227, 92, 61, 97, 221, 113, 188, 157, 137, 215, 59, 75, 248, 27, 189, 173, 139, 122, 188, 75, 149, 26, 61, 76, 58, 26, 61, 244, 68, 4, 189, 173, 75, 84, 61, 54, 47, 168, 188, 4, 81, 128, 60, 242, 43, 154, 188, 93, 47, 248, 187, 230, 44, 0, 61, 32, 140, 91, 60, 178, 155, 236, 60, 174, 27, 43, 187, 165, 14, 186, 60, 66, 216, 222, 60, 130, 28, 27, 61, 251, 107, 107, 61, 41, 158, 29, 61, 52, 29, 131, 58, 94, 13, 29, 188, 233, 116, 224, 187, 11, 102, 90, 61, 11, 13, 93, 189, 234, 66, 67, 61, 181, 20, 43, 61, 70, 125, 76, 61, 245, 215, 7, 61, 136, 13, 147, 188, 56, 219, 2, 61, 44, 154, 34, 60, 45, 144, 102, 61, 92, 204, 69, 60, 97, 12, 208, 187, 187, 69, 58, 61, 227, 101, 159, 60, 193, 157, 122, 186, 161, 91, 2, 189, 169, 246, 46, 189, 119, 105, 5, 189, 179, 242, 233, 187, 13, 39, 169, 188, 195, 115, 7, 189, 58, 67, 174, 188, 7, 84, 99, 188, 249, 122, 159, 188, 215, 208, 181, 188, 60, 182, 11, 60, 85, 155, 49, 61, 125, 89, 173, 188, 19, 241, 42, 189, 170, 71, 176, 59, 179, 26, 160, 188, 154, 163, 42, 59, 188, 21, 247, 188, 85, 118, 48, 188, 172, 122, 44, 189, 81, 63, 153, 60, 7, 90, 234, 60, 200, 150, 239, 60, 230, 105, 183, 187, 153, 114, 9, 188, 144, 245, 8, 61, 38, 84, 233, 187, 189, 33, 5, 60, 95, 144, 161, 60, 104, 242, 176, 60, 140, 48, 151, 61, 231, 91, 83, 60, 15, 247, 137, 60, 213, 199, 153, 59, 75, 98, 218, 60, 35, 97, 15, 188, 255, 53, 226, 188, 225, 249, 36, 59, 108, 220, 18, 189, 51, 207, 48, 61, 159, 234, 20, 61, 128, 74, 141, 188, 66, 223, 4, 61, 249, 100, 43, 189, 36, 192, 122, 59, 206, 242, 48, 187, 37, 126, 164, 188, 75, 218, 33, 189, 186, 188, 22, 189, 228, 45, 66, 61, 20, 228, 169, 188, 223, 95, 78, 189, 73, 157, 88, 188, 21, 169, 164, 188, 181, 74, 57, 61, 4, 191, 141, 60, 83, 26, 110, 189, 205, 196, 18, 59, 20, 101, 196, 188, 1, 200, 205, 188, 71, 3, 9, 187, 145, 53, 189, 59, 148, 66, 162, 187, 6, 87, 112, 188, 185, 34, 222, 60, 82, 251, 186, 188, 53, 40, 102, 189, 247, 142, 246, 60, 75, 89, 1, 61, 68, 225, 135, 188, 77, 218, 27, 189, 64, 62, 1, 189, 69, 11, 38, 189, 247, 224, 209, 187, 200, 15, 87, 61, 59, 180, 159, 188, 147, 11, 98, 188, 35, 206, 153, 188, 103, 234, 94, 189, 59, 125, 157, 60, 254, 54, 2, 61, 239, 196, 101, 188, 31, 64, 54, 189, 46, 253, 246, 59, 230, 101, 0, 189, 26, 227, 165, 188, 64, 81, 47, 189, 224, 232, 189, 188, 16, 117, 62, 60, 223, 197, 20, 189, 6, 165, 34, 189, 167, 238, 65, 187, 222, 212, 45, 189, 67, 124, 63, 189, 173, 9, 255, 59, 44, 121, 234, 60, 37, 18, 60, 189, 111, 97, 36, 189, 153, 88, 50, 188, 20, 198, 85, 60, 107, 184, 74, 189, 86, 169, 231, 60, 254, 80, 14, 188, 126, 14, 159, 188, 44, 148, 22, 189, 106, 111, 24, 60, 19, 217, 128, 189, 147, 160, 0, 189, 76, 252, 22, 189, 204, 166, 130, 61, 114, 65, 22, 189, 229, 70, 9, 189, 252, 4, 95, 189, 197, 208, 35, 188, 239, 207, 127, 188, 10, 105, 26, 189, 124, 200, 193, 188, 131, 114, 85, 60, 4, 86, 6, 189, 161, 78, 80, 189, 50, 47, 180, 60, 4, 213, 5, 189, 45, 84, 91, 189, 113, 160, 175, 59, 57, 233, 13, 189, 123, 133, 178, 59, 68, 0, 191, 60, 241, 189, 106, 189, 112, 241, 162, 187, 233, 92, 224, 60, 164, 59, 135, 188, 144, 41, 91, 189, 132, 228, 77, 189, 66, 215, 20, 189, 244, 235, 79, 60, 74, 92, 52, 61, 231, 119, 15, 188, 11, 226, 2, 189, 93, 21, 200, 60, 165, 201, 33, 61, 133, 82, 175, 188, 224, 105, 68, 59, 138, 161, 161, 188, 170, 31, 17, 189, 17, 210, 140, 57, 3, 29, 54, 61, 70, 213, 119, 189, 202, 242, 166, 188, 203, 42, 89, 189, 93, 53, 114, 60, 207, 30, 91, 189, 23, 141, 218, 186, 82, 175, 107, 189, 216, 228, 10, 61, 102, 4, 92, 188, 155, 87, 8, 189, 204, 140, 7, 189, 131, 79, 198, 59, 242, 203, 7, 188, 196, 152, 122, 60, 34, 171, 183, 188, 67, 23, 74, 60, 241, 121, 105, 188, 217, 46, 234, 60, 132, 112, 53, 61, 219, 149, 22, 189, 142, 173, 163, 188, 17, 45, 85, 189, 213, 185, 121, 189, 254, 116, 37, 61, 61, 253, 227, 60, 22, 254, 120, 189, 12, 222, 13, 61, 106, 39, 90, 188, 155, 134, 49, 188, 170, 81, 103, 189, 225, 162, 172, 188, 183, 119, 71, 189, 177, 229, 50, 188, 171, 156, 48, 61, 130, 40, 76, 189, 107, 151, 252, 188, 235, 132, 174, 59, 20, 143, 162, 60, 93, 173, 13, 61, 200, 32, 194, 188, 163, 95, 13, 189, 144, 54, 233, 186, 13, 199, 175, 188, 97, 149, 47, 189, 30, 180, 215, 188, 214, 95, 217, 60, 4, 69, 254, 60, 116, 200, 204, 187, 254, 200, 173, 60, 184, 100, 191, 58, 173, 129, 195, 188, 124, 224, 233, 188, 244, 53, 183, 59, 190, 70, 13, 189, 6, 139, 233, 60, 117, 150, 221, 60, 14, 127, 22, 188, 73, 174, 247, 188, 26, 15, 235, 60, 110, 241, 222, 59, 131, 179, 102, 189, 146, 170, 250, 59, 27, 70, 129, 60, 107, 63, 121, 60, 138, 175, 159, 188, 50, 71, 220, 188, 249, 202, 197, 55, 67, 95, 31, 189, 145, 75, 230, 187, 77, 47, 181, 60, 189, 84, 69, 58, 227, 89, 5, 189, 220, 64, 60, 188, 237, 143, 149, 188, 94, 19, 7, 189, 18, 15, 133, 188, 86, 48, 62, 58, 185, 130, 12, 61, 175, 210, 211, 188, 138, 241, 51, 189, 172, 34, 60, 189, 177, 161, 129, 187, 185, 57, 145, 60, 0, 223, 20, 61, 246, 156, 214, 60, 129, 7, 141, 60, 216, 64, 79, 189, 129, 136, 212, 59, 201, 4, 148, 188, 238, 34, 243, 60, 128, 215, 90, 189, 162, 39, 128, 187, 204, 27, 221, 60, 104, 191, 33, 188, 12, 15, 106, 60, 226, 96, 145, 188, 36, 214, 153, 60, 171, 245, 85, 60, 110, 201, 9, 61, 241, 89, 31, 189, 149, 161, 90, 189, 34, 225, 37, 189, 150, 242, 205, 60, 223, 2, 230, 188, 204, 93, 116, 188, 175, 183, 64, 188, 16, 170, 170, 60, 228, 168, 76, 189, 129, 149, 52, 58, 227, 6, 4, 61, 219, 23, 88, 189, 252, 15, 35, 58, 162, 169, 51, 189, 56, 83, 21, 189, 47, 37, 178, 188, 153, 22, 82, 189, 46, 198, 70, 188, 246, 255, 6, 61, 84, 18, 8, 61, 11, 211, 42, 189, 15, 125, 124, 189, 136, 240, 81, 60, 122, 0, 236, 188, 222, 92, 27, 61, 159, 27, 247, 188, 149, 254, 188, 188, 107, 248, 63, 189, 83, 251, 95, 61, 95, 219, 82, 61, 224, 117, 190, 188, 38, 188, 107, 189, 94, 95, 208, 188, 173, 114, 195, 59, 35, 224, 18, 189, 129, 68, 187, 187, 219, 214, 40, 60, 152, 159, 228, 188, 57, 198, 216, 187, 11, 183, 96, 61, 76, 125, 33, 61, 240, 223, 63, 189, 223, 203, 196, 188, 126, 50, 171, 188, 58, 101, 127, 61, 146, 128, 41, 188, 73, 10, 88, 187, 25, 156, 29, 61, 78, 185, 104, 60, 181, 190, 62, 59, 169, 101, 161, 60, 189, 234, 162, 188, 122, 50, 158, 188, 129, 6, 230, 188, 55, 186, 229, 60, 108, 89, 200, 188, 193, 169, 114, 59, 208, 210, 132, 188, 66, 2, 115, 60, 56, 175, 172, 188, 194, 239, 197, 187, 112, 11, 237, 188, 147, 74, 93, 189, 161, 44, 159, 188, 225, 100, 248, 186, 230, 229, 7, 189, 39, 58, 133, 60, 50, 5, 1, 61, 93, 32, 23, 61, 82, 26, 144, 188, 118, 80, 158, 60, 176, 105, 129, 188, 219, 17, 27, 189, 78, 121, 63, 61, 20, 29, 21, 60, 39, 207, 228, 188, 132, 236, 103, 189, 96, 109, 6, 189, 202, 143, 22, 60, 244, 184, 169, 187, 107, 129, 198, 59, 166, 129, 14, 189, 77, 253, 238, 188, 91, 154, 52, 61, 86, 238, 126, 60, 114, 181, 121, 188, 29, 98, 133, 188, 52, 176, 5, 187, 243, 124, 51, 61, 130, 228, 159, 60, 234, 149, 13, 189, 165, 209, 146, 188, 119, 130, 65, 60, 66, 48, 48, 188, 70, 170, 232, 57, 159, 63, 179, 188, 74, 220, 84, 189, 3, 229, 36, 189, 252, 133, 201, 58, 78, 139, 5, 188, 84, 89, 124, 187, 221, 182, 6, 189, 134, 196, 225, 60, 35, 181, 231, 60, 39, 146, 222, 188, 135, 148, 183, 188, 35, 22, 22, 189, 170, 246, 98, 188, 27, 143, 61, 60, 169, 157, 149, 60, 181, 213, 149, 188, 195, 53, 13, 59, 118, 189, 105, 189, 22, 13, 11, 61, 198, 244, 107, 61, 247, 6, 73, 60, 224, 76, 59, 189, 46, 13, 43, 188, 164, 109, 3, 61, 84, 7, 200, 60, 217, 249, 241, 60, 126, 244, 28, 189, 180, 101, 195, 60, 124, 75, 18, 61, 166, 222, 32, 61, 253, 79, 13, 61, 22, 136, 29, 60, 136, 202, 24, 61, 31, 206, 36, 188, 140, 30, 248, 60, 45, 40, 215, 188, 219, 141, 82, 189, 13, 66, 20, 188, 127, 16, 101, 60, 237, 102, 66, 61, 88, 187, 220, 60, 164, 107, 8, 61, 218, 160, 199, 187, 143, 143, 252, 60, 203, 179, 253, 188, 121, 181, 94, 60, 243, 168, 85, 189, 197, 249, 182, 60, 85, 204, 236, 188, 92, 231, 124, 188, 91, 58, 167, 60, 244, 48, 106, 189, 134, 150, 169, 188, 158, 64, 107, 61, 12, 143, 195, 60, 94, 116, 229, 186, 130, 26, 31, 61, 167, 130, 141, 188, 160, 23, 238, 60, 237, 81, 150, 60, 249, 77, 226, 188, 231, 214, 90, 187, 105, 141, 13, 187, 29, 143, 68, 61, 19, 54, 12, 187, 24, 156, 207, 188, 133, 172, 67, 189, 22, 182, 134, 59, 22, 230, 181, 59, 127, 55, 215, 187, 14, 122, 14, 61, 182, 191, 214, 188, 249, 154, 21, 189, 245, 144, 44, 61, 148, 243, 59, 61, 66, 144, 80, 189, 155, 32, 244, 59, 45, 139, 94, 189, 212, 74, 214, 60, 201, 192, 142, 188, 255, 237, 48, 59, 88, 26, 50, 189, 166, 244, 151, 188, 91, 120, 232, 60, 182, 229, 0, 189, 73, 246, 28, 188, 160, 182, 177, 60, 248, 223, 2, 189, 99, 168, 199, 188, 193, 100, 220, 187, 183, 163, 3, 61, 70, 116, 19, 60, 171, 189, 217, 188, 78, 164, 64, 61, 9, 251, 189, 56, 220, 31, 64, 189, 12, 190, 20, 189, 138, 7, 191, 60, 222, 167, 33, 61, 36, 190, 253, 187, 104, 145, 168, 60, 153, 115, 100, 189, 193, 86, 247, 188, 66, 89, 66, 59, 45, 157, 233, 60, 28, 249, 204, 60, 253, 124, 88, 189, 19, 0, 206, 188, 49, 221, 231, 188, 194, 17, 220, 60, 240, 117, 41, 189, 21, 14, 10, 60, 84, 116, 159, 188, 48, 171, 147, 60, 200, 143, 225, 60, 101, 131, 116, 60, 127, 180, 50, 189, 178, 203, 153, 60, 13, 129, 37, 189, 96, 6, 126, 61, 71, 51, 4, 189, 149, 239, 148, 60, 144, 51, 98, 188, 79, 217, 65, 189, 139, 83, 84, 61, 222, 217, 237, 188, 197, 221, 0, 189, 224, 168, 39, 61, 207, 73, 94, 188, 168, 60, 128, 60, 241, 185, 159, 60, 187, 242, 196, 60, 177, 221, 112, 189, 43, 75, 183, 188, 194, 220, 224, 60, 109, 91, 27, 61, 8, 130, 181, 60, 229, 2, 123, 189, 160, 58, 157, 60, 128, 89, 121, 60, 218, 88, 250, 188, 229, 43, 98, 189, 219, 196, 103, 189, 168, 18, 83, 61, 35, 182, 7, 188, 24, 123, 122, 188, 201, 60, 167, 188, 132, 142, 234, 60, 229, 229, 170, 59, 176, 100, 217, 188, 29, 67, 194, 60, 48, 18, 150, 188, 249, 151, 96, 188, 84, 231, 115, 60, 114, 90, 215, 187, 150, 40, 52, 59, 202, 69, 105, 189, 101, 172, 46, 61, 192, 216, 65, 189, 236, 169, 143, 60, 208, 155, 69, 60, 137, 81, 37, 61, 48, 4, 40, 189, 160, 17, 225, 60, 213, 86, 104, 187, 50, 23, 65, 61, 158, 182, 25, 189, 247, 188, 225, 188, 168, 116, 35, 189, 197, 13, 33, 61, 141, 185, 53, 61, 40, 23, 115, 189, 187, 253, 10, 189, 44, 5, 35, 189, 221, 230, 46, 188, 165, 81, 77, 61, 20, 226, 166, 60, 201, 246, 207, 60, 194, 127, 114, 61, 111, 49, 235, 187, 179, 6, 136, 60, 10, 29, 132, 187, 87, 35, 166, 188, 29, 8, 241, 188, 25, 26, 183, 187, 25, 190, 74, 60, 211, 147, 239, 59, 175, 5, 104, 189, 130, 166, 140, 60, 156, 28, 106, 60, 13, 113, 91, 61, 98, 165, 166, 188, 103, 134, 35, 189, 116, 110, 226, 60, 64, 215, 208, 59, 133, 187, 51, 188, 95, 207, 123, 60, 162, 185, 194, 59, 144, 28, 248, 188, 214, 25, 233, 188, 65, 54, 7, 60, 130, 11, 7, 61, 9, 40, 236, 188, 155, 30, 22, 187, 253, 97, 249, 188, 237, 113, 58, 61, 220, 161, 190, 60, 87, 83, 39, 188, 63, 47, 210, 59, 31, 65, 126, 61, 148, 211, 188, 60, 212, 235, 245, 60, 82, 127, 55, 189, 149, 80, 95, 188, 96, 184, 251, 60, 7, 11, 231, 188, 201, 75, 150, 188, 8, 46, 233, 60, 66, 161, 227, 188, 32, 137, 41, 61, 32, 129, 226, 59, 45, 156, 4, 189, 181, 175, 136, 188, 79, 158, 208, 188, 151, 137, 39, 187, 247, 198, 126, 59, 16, 241, 144, 188, 249, 128, 208, 188, 41, 112, 6, 61, 113, 246, 48, 60, 75, 243, 11, 61, 31, 182, 250, 60, 50, 206, 8, 60, 231, 191, 163, 57, 76, 213, 41, 61, 7, 188, 6, 59, 217, 229, 48, 188, 19, 39, 77, 59, 22, 59, 102, 61, 188, 253, 31, 61, 14, 32, 241, 60, 97, 166, 138, 60, 126, 13, 72, 189, 124, 42, 138, 60, 68, 70, 221, 60, 11, 132, 220, 60, 93, 57, 194, 60, 18, 25, 93, 189, 49, 230, 41, 61, 9, 47, 169, 60, 177, 28, 158, 60, 63, 23, 165, 188, 151, 219, 253, 60, 205, 218, 60, 61, 49, 162, 164, 188, 184, 6, 45, 189, 143, 182, 30, 188, 203, 115, 152, 188, 69, 36, 236, 60, 192, 31, 219, 186, 173, 178, 96, 188, 198, 48, 18, 189, 71, 115, 106, 189, 93, 30, 73, 61, 212, 163, 195, 187, 153, 39, 16, 189, 81, 178, 86, 188, 37, 19, 219, 60, 90, 12, 255, 188, 209, 199, 195, 188, 224, 206, 48, 188, 206, 65, 10, 189, 147, 247, 61, 189, 138, 218, 36, 61, 168, 27, 196, 60, 66, 231, 88, 59, 235, 44, 114, 60, 247, 60, 0, 189, 55, 213, 182, 188, 241, 29, 160, 188, 208, 197, 27, 189, 68, 143, 25, 189, 171, 73, 45, 61, 107, 34, 3, 189, 213, 3, 54, 189, 23, 69, 233, 188, 32, 246, 82, 189, 95, 249, 242, 188, 238, 197, 49, 61, 252, 53, 112, 60, 11, 166, 0, 189, 243, 209, 110, 189, 159, 122, 58, 189, 108, 7, 169, 185, 8, 198, 6, 187, 199, 70, 112, 188, 7, 141, 69, 189, 13, 215, 220, 187, 49, 5, 22, 61, 128, 15, 38, 61, 80, 99, 180, 60, 63, 202, 58, 189, 101, 219, 156, 188, 176, 47, 41, 61, 206, 161, 173, 187, 213, 31, 54, 60, 139, 154, 181, 60, 246, 98, 251, 188, 46, 186, 52, 60, 53, 129, 28, 61, 75, 43, 139, 60, 29, 49, 61, 60, 130, 143, 255, 58, 20, 229, 54, 61, 104, 165, 114, 59, 99, 94, 11, 188, 118, 166, 30, 61, 145, 136, 150, 188, 251, 52, 203, 60, 48, 199, 19, 61, 166, 115, 17, 56, 208, 155, 157, 188, 64, 143, 26, 188, 6, 217, 78, 61, 70, 120, 44, 60, 18, 39, 155, 185, 102, 144, 185, 60, 191, 49, 128, 56, 42, 52, 245, 60, 224, 6, 50, 189, 58, 45, 193, 188, 44, 122, 36, 189, 77, 215, 39, 189, 139, 236, 210, 59, 73, 227, 128, 188, 90, 148, 123, 60, 27, 86, 60, 188, 38, 29, 156, 60, 247, 16, 78, 59, 156, 128, 66, 61, 9, 1, 175, 188, 61, 80, 0, 61, 159, 76, 3, 189, 222, 98, 14, 61, 80, 186, 68, 61, 78, 241, 66, 189, 207, 192, 185, 60, 140, 233, 176, 188, 101, 31, 193, 188, 76, 63, 165, 60, 128, 204, 23, 189, 31, 233, 132, 188, 120, 26, 110, 188, 240, 233, 52, 189, 219, 100, 211, 59, 211, 189, 186, 60, 97, 110, 34, 61, 25, 82, 230, 58, 82, 120, 38, 188, 32, 24, 220, 59, 164, 92, 186, 58, 4, 237, 160, 188, 54, 177, 146, 188, 193, 255, 81, 188, 51, 123, 15, 189, 5, 138, 161, 188, 203, 36, 23, 58, 112, 19, 65, 189, 122, 199, 64, 189, 34, 150, 223, 188, 225, 127, 30, 188, 253, 45, 201, 59, 22, 144, 178, 188, 111, 56, 39, 188, 0, 57, 53, 61, 12, 194, 39, 189, 156, 32, 51, 187, 32, 77, 12, 189, 232, 61, 38, 61, 210, 85, 57, 189, 110, 63, 89, 186, 205, 175, 239, 60, 209, 40, 98, 188, 69, 184, 42, 189, 122, 141, 102, 60, 85, 238, 32, 61, 10, 234, 21, 189, 240, 209, 226, 60, 155, 158, 224, 188, 137, 164, 81, 188, 153, 119, 40, 61, 4, 148, 57, 189, 130, 249, 232, 188, 206, 36, 98, 187, 131, 173, 43, 189, 178, 80, 83, 188, 244, 203, 254, 60, 205, 216, 159, 60, 129, 239, 18, 189, 87, 89, 6, 189, 77, 242, 193, 60, 42, 169, 95, 188, 199, 136, 214, 188, 137, 141, 215, 188, 49, 219, 217, 188, 36, 242, 153, 188, 122, 13, 179, 187, 136, 175, 19, 60, 194, 38, 47, 189, 194, 201, 188, 187, 121, 12, 101, 189, 117, 156, 172, 188, 188, 68, 0, 61, 231, 195, 143, 60, 151, 84, 51, 60, 232, 85, 99, 188, 155, 48, 26, 61, 164, 156, 12, 189, 15, 63, 155, 188, 152, 113, 110, 60, 214, 197, 183, 188, 200, 89, 36, 61, 143, 226, 36, 61, 8, 33, 43, 61, 190, 46, 185, 60, 164, 104, 82, 60, 198, 69, 94, 189, 150, 130, 26, 189, 174, 87, 159, 60, 117, 70, 155, 186, 42, 245, 65, 61, 150, 233, 119, 187, 167, 178, 19, 189, 101, 26, 184, 188, 30, 137, 201, 187, 215, 80, 145, 187, 112, 39, 9, 189, 150, 105, 168, 59, 127, 142, 18, 61, 133, 219, 106, 60, 71, 107, 4, 188, 210, 38, 15, 61, 142, 132, 81, 188, 184, 72, 165, 188, 56, 41, 96, 59, 187, 88, 135, 188, 118, 209, 58, 189, 177, 133, 6, 61, 248, 21, 16, 60, 198, 79, 115, 188, 201, 52, 84, 189, 241, 234, 5, 61, 90, 245, 77, 189, 49, 174, 239, 186, 177, 252, 15, 189, 225, 82, 2, 189, 29, 193, 126, 60, 69, 62, 218, 188, 7, 181, 212, 188, 116, 96, 35, 60, 135, 160, 22, 188, 242, 162, 117, 186, 30, 64, 54, 186, 233, 93, 12, 61, 255, 169, 172, 188, 48, 148, 155, 187, 98, 95, 98, 189, 147, 140, 32, 60, 232, 57, 94, 60, 113, 248, 54, 59, 245, 22, 7, 189, 212, 12, 245, 186, 158, 217, 78, 188, 53, 192, 215, 60, 206, 199, 160, 60, 104, 19, 32, 189, 117, 40, 146, 60, 218, 67, 125, 188, 7, 108, 24, 61, 186, 151, 69, 61, 48, 115, 227, 60, 51, 150, 73, 60, 117, 17, 218, 60, 109, 25, 72, 59, 173, 149, 128, 60, 29, 20, 104, 188, 56, 156, 57, 189, 227, 208, 38, 61, 119, 152, 12, 189, 123, 48, 185, 188, 238, 208, 184, 59, 210, 140, 233, 60, 49, 143, 214, 188, 218, 172, 37, 61, 182, 97, 63, 187, 10, 61, 104, 188, 221, 133, 96, 58, 189, 200, 43, 57, 27, 88, 214, 188, 133, 115, 32, 189, 153, 38, 21, 61, 60, 252, 24, 189, 122, 161, 24, 59, 51, 72, 199, 60, 183, 89, 252, 60, 170, 63, 188, 59, 208, 227, 38, 189, 204, 38, 49, 60, 31, 53, 207, 60, 155, 230, 11, 60, 101, 9, 49, 189, 240, 31, 66, 60, 132, 129, 224, 188, 54, 116, 12, 61, 108, 238, 143, 60, 148, 29, 70, 188, 65, 54, 40, 188, 3, 123, 50, 60, 2, 96, 150, 187, 188, 41, 95, 60, 219, 23, 73, 187, 15, 174, 113, 189, 104, 144, 66, 188, 191, 0, 22, 189, 219, 168, 148, 188, 113, 163, 136, 60, 151, 72, 108, 189, 232, 240, 48, 60, 247, 141, 203, 187, 126, 151, 11, 189, 86, 202, 194, 60, 136, 93, 3, 61, 20, 111, 171, 187, 100, 154, 198, 188, 99, 224, 73, 61, 72, 100, 8, 189, 157, 14, 19, 189, 241, 166, 169, 187, 250, 92, 57, 59, 172, 32, 1, 59, 250, 42, 13, 61, 137, 167, 75, 189, 208, 151, 106, 189, 21, 67, 119, 60, 203, 59, 77, 61, 225, 193, 141, 188, 79, 238, 123, 60, 190, 227, 46, 187, 120, 50, 132, 60, 18, 52, 174, 57, 72, 199, 26, 61, 78, 103, 55, 189, 213, 121, 250, 188, 82, 191, 50, 188, 245, 33, 85, 59, 43, 209, 6, 189, 35, 47, 65, 189, 184, 16, 191, 60, 221, 139, 45, 61, 85, 184, 209, 60, 227, 113, 199, 188, 64, 103, 23, 61, 242, 9, 20, 189, 176, 119, 50, 186, 152, 160, 227, 186, 20, 82, 133, 60, 96, 19, 250, 59, 169, 180, 174, 60, 7, 58, 229, 60, 144, 33, 136, 61, 168, 195, 70, 188, 66, 101, 130, 188, 138, 117, 45, 188, 11, 193, 173, 188, 170, 99, 228, 188, 235, 47, 202, 60, 73, 95, 133, 187, 54, 220, 245, 187, 25, 6, 30, 61, 254, 175, 100, 188, 14, 165, 67, 189, 98, 70, 81, 189, 20, 174, 71, 188, 115, 193, 246, 60, 119, 179, 222, 59, 40, 242, 231, 60, 93, 61, 33, 189, 239, 157, 247, 188, 9, 135, 22, 189, 52, 235, 34, 189, 115, 226, 63, 61, 184, 157, 165, 188, 92, 229, 5, 189, 153, 169, 23, 61, 9, 220, 132, 59, 229, 245, 195, 60, 94, 200, 45, 189, 56, 129, 62, 187, 37, 153, 209, 188, 116, 53, 33, 187, 54, 114, 108, 59, 164, 102, 183, 60, 241, 91, 248, 188, 215, 241, 30, 189, 208, 147, 62, 189, 75, 193, 105, 188, 218, 228, 48, 189, 199, 114, 16, 189, 100, 197, 122, 61, 237, 216, 11, 189, 189, 85, 56, 189, 50, 56, 32, 187, 127, 237, 214, 188, 148, 144, 118, 188, 9, 147, 66, 189, 13, 24, 253, 59, 182, 235, 181, 60, 113, 19, 189, 60, 235, 50, 101, 188, 27, 203, 225, 188, 224, 108, 70, 188, 84, 237, 33, 189, 254, 207, 171, 184, 40, 133, 83, 61, 18, 52, 247, 188, 22, 27, 71, 61, 188, 122, 174, 188, 82, 14, 100, 188, 209, 118, 164, 60, 205, 20, 217, 188, 131, 109, 16, 188, 9, 142, 16, 189, 234, 143, 226, 188, 49, 77, 244, 60, 183, 122, 93, 60, 77, 190, 17, 60, 45, 189, 242, 188, 78, 54, 158, 188, 237, 57, 210, 60, 122, 191, 216, 188, 53, 197, 79, 187, 253, 40, 28, 61, 47, 47, 61, 188, 122, 86, 221, 188, 56, 3, 21, 61, 130, 76, 40, 189, 54, 124, 11, 60, 83, 241, 17, 61, 64, 35, 221, 188, 97, 93, 239, 60, 22, 209, 204, 188, 9, 216, 64, 60, 123, 142, 95, 189, 37, 163, 242, 60, 106, 100, 183, 186, 173, 48, 157, 188, 81, 48, 116, 189, 152, 56, 140, 188, 69, 55, 38, 61, 51, 74, 52, 188, 62, 199, 121, 60, 76, 126, 86, 58, 25, 51, 157, 60, 42, 74, 69, 61, 90, 8, 20, 189, 37, 4, 42, 61, 99, 192, 54, 187, 211, 104, 15, 189, 252, 186, 0, 189, 253, 75, 12, 61, 90, 38, 17, 189, 248, 69, 92, 59, 93, 110, 23, 59, 67, 128, 198, 60, 150, 105, 1, 188, 65, 163, 157, 59, 245, 234, 45, 188, 173, 156, 28, 188, 176, 182, 22, 188, 163, 39, 226, 188, 11, 52, 145, 58, 0, 2, 3, 60, 210, 231, 30, 189, 37, 148, 37, 60, 145, 79, 230, 60, 146, 40, 2, 61, 8, 188, 244, 60, 183, 187, 99, 189, 57, 42, 241, 60, 187, 23, 152, 60, 4, 241, 142, 57, 13, 176, 102, 188, 157, 92, 70, 60, 71, 171, 221, 59, 42, 241, 32, 61, 74, 84, 6, 189, 60, 218, 165, 188, 181, 78, 11, 189, 168, 251, 189, 60, 207, 249, 143, 187, 253, 59, 152, 186, 191, 49, 2, 189, 11, 172, 241, 60, 11, 100, 220, 188, 80, 197, 255, 60, 208, 231, 53, 189, 32, 193, 242, 188, 102, 39, 165, 60, 206, 73, 193, 60, 233, 102, 242, 60, 96, 10, 104, 189, 109, 147, 9, 189, 94, 212, 3, 189, 68, 3, 252, 60, 0, 6, 61, 61, 166, 64, 133, 188, 7, 155, 46, 60, 223, 47, 26, 61, 132, 18, 6, 189, 253, 174, 177, 188, 173, 235, 121, 60, 151, 147, 70, 188, 213, 22, 130, 60, 43, 112, 109, 60, 18, 183, 9, 187, 171, 66, 68, 189, 247, 190, 7, 189, 55, 137, 188, 60, 127, 80, 25, 189, 30, 147, 12, 61, 190, 229, 12, 61, 176, 138, 48, 188, 50, 228, 50, 187, 164, 8, 242, 60, 0, 131, 168, 187, 175, 164, 37, 61, 107, 57, 49, 188, 180, 198, 77, 189, 235, 4, 66, 189, 124, 94, 232, 60, 151, 93, 88, 60, 84, 165, 52, 189, 46, 138, 34, 188, 133, 132, 19, 61, 31, 103, 206, 188, 6, 37, 23, 61, 252, 212, 200, 187, 238, 249, 238, 188, 186, 203, 45, 188, 249, 61, 137, 188, 17, 210, 17, 61, 92, 102, 220, 57, 254, 143, 110, 189, 196, 24, 200, 60, 50, 245, 67, 61, 213, 35, 230, 187, 105, 55, 231, 60, 100, 39, 234, 57, 143, 125, 178, 188, 128, 116, 72, 60, 218, 37, 48, 188, 62, 20, 43, 189, 201, 11, 155, 188, 231, 76, 169, 59, 77, 247, 43, 186, 51, 91, 96, 188, 36, 125, 74, 189, 243, 240, 85, 189, 48, 199, 170, 188, 203, 185, 26, 189, 92, 40, 248, 60, 37, 91, 155, 60, 203, 28, 25, 61, 200, 98, 32, 189, 191, 110, 70, 187, 58, 181, 70, 61, 38, 133, 31, 188, 151, 64, 33, 189, 64, 78, 52, 188, 48, 103, 23, 61, 234, 188, 112, 60, 248, 100, 95, 189, 74, 183, 13, 189, 41, 240, 120, 60, 90, 225, 66, 61, 210, 17, 225, 60, 82, 86, 30, 189, 52, 156, 101, 188, 54, 179, 22, 188, 15, 5, 199, 188, 12, 140, 18, 189, 232, 185, 142, 188, 177, 95, 79, 60, 201, 194, 114, 60, 155, 134, 237, 188, 179, 31, 2, 61, 32, 42, 0, 61, 241, 171, 13, 189, 181, 37, 3, 59, 234, 137, 167, 60, 170, 24, 27, 189, 92, 36, 3, 61, 56, 218, 252, 186, 4, 164, 145, 188, 30, 16, 16, 189, 30, 164, 18, 61, 136, 245, 172, 60, 94, 13, 184, 188, 115, 48, 65, 189, 30, 237, 44, 60, 55, 194, 29, 60, 109, 154, 35, 60, 204, 191, 152, 188, 116, 32, 9, 187, 64, 235, 18, 61, 135, 51, 7, 188, 124, 243, 209, 188, 173, 147, 32, 61, 124, 178, 20, 61, 109, 237, 15, 61, 189, 115, 52, 188, 202, 244, 163, 60, 171, 95, 178, 187, 218, 121, 131, 187, 117, 40, 2, 189, 232, 33, 34, 189, 19, 13, 237, 187, 105, 48, 107, 189, 107, 32, 31, 61, 94, 133, 58, 61, 156, 77, 129, 188, 182, 150, 54, 189, 25, 207, 75, 60, 86, 101, 8, 60, 33, 103, 66, 61, 50, 161, 44, 189, 94, 198, 43, 189, 121, 199, 180, 188, 13, 109, 185, 59, 83, 103, 147, 59, 168, 90, 201, 60, 214, 211, 94, 189, 174, 4, 237, 60, 25, 196, 132, 60, 131, 23, 216, 60, 218, 163, 198, 59, 72, 87, 53, 189, 120, 107, 5, 189, 51, 26, 237, 60, 119, 250, 198, 60, 176, 58, 42, 189, 96, 198, 99, 188, 7, 127, 104, 60, 192, 18, 21, 61, 39, 233, 31, 59, 162, 104, 16, 187, 30, 177, 68, 189, 180, 171, 162, 60, 114, 23, 119, 60, 97, 178, 53, 61, 87, 138, 124, 188, 191, 124, 209, 188, 183, 141, 69, 189, 73, 125, 209, 187, 174, 87, 20, 189, 43, 66, 155, 59, 27, 1, 59, 188, 159, 46, 9, 61, 220, 130, 235, 187, 89, 20, 155, 60, 214, 152, 174, 60, 34, 144, 9, 189, 35, 44, 83, 60, 195, 43, 87, 61, 244, 206, 27, 61, 194, 55, 240, 59, 180, 147, 200, 58, 97, 167, 7, 189, 238, 109, 17, 184, 102, 231, 8, 61, 52, 220, 41, 186, 186, 97, 107, 188, 221, 101, 227, 188, 153, 8, 245, 186, 134, 88, 106, 188, 170, 178, 133, 187, 117, 127, 168, 186, 246, 61, 48, 189, 119, 167, 133, 188, 128, 7, 51, 59, 221, 148, 64, 189, 19, 144, 247, 60, 215, 5, 188, 188, 167, 111, 11, 61, 34, 236, 181, 60, 242, 47, 65, 189, 166, 188, 160, 188, 238, 66, 241, 188, 124, 129, 39, 61, 133, 214, 180, 60, 23, 88, 132, 188, 164, 123, 173, 188, 235, 149, 133, 189, 233, 151, 5, 189, 212, 20, 36, 188, 144, 115, 158, 188, 132, 151, 85, 60, 218, 49, 237, 60, 46, 138, 245, 188, 76, 57, 75, 59, 19, 18, 110, 59, 244, 205, 45, 189, 95, 57, 10, 61, 33, 199, 57, 189, 82, 74, 209, 188, 108, 185, 82, 189, 69, 66, 233, 58, 108, 128, 3, 189, 72, 231, 137, 187, 253, 166, 202, 60, 245, 46, 68, 189, 141, 234, 71, 188, 250, 189, 95, 189, 229, 5, 239, 60, 13, 11, 190, 188, 113, 101, 225, 187, 179, 37, 15, 61, 253, 91, 250, 59, 47, 66, 39, 189, 84, 230, 231, 57, 100, 15, 230, 60, 225, 42, 167, 60, 67, 55, 16, 61, 59, 42, 239, 59, 227, 78, 10, 189, 157, 35, 210, 188, 96, 75, 225, 58, 220, 38, 77, 189, 226, 145, 24, 189, 106, 247, 33, 61, 69, 210, 13, 189, 248, 137, 2, 188, 191, 133, 218, 188, 197, 232, 235, 60, 180, 230, 212, 60, 212, 221, 59, 189, 178, 50, 36, 189, 189, 91, 37, 189, 140, 152, 70, 189, 227, 115, 7, 61, 207, 165, 180, 60, 196, 234, 80, 189, 38, 127, 229, 59, 228, 79, 79, 59, 78, 181, 144, 187, 209, 125, 9, 188, 182, 42, 7, 189, 132, 110, 4, 61, 218, 162, 186, 60, 210, 57, 46, 61, 106, 172, 156, 187, 170, 83, 172, 60, 79, 57, 2, 189, 59, 190, 204, 60, 167, 227, 173, 60, 63, 39, 26, 61, 37, 182, 36, 61, 91, 90, 106, 187, 236, 29, 251, 188, 181, 167, 217, 188, 220, 150, 155, 60, 65, 228, 34, 189, 13, 184, 36, 189, 158, 113, 19, 61, 83, 214, 14, 60, 245, 225, 87, 189, 209, 66, 56, 187, 49, 120, 19, 189, 94, 188, 106, 188, 169, 186, 16, 61, 104, 240, 224, 60, 209, 56, 205, 187, 59, 199, 9, 61, 170, 196, 116, 187, 223, 216, 40, 61, 52, 247, 34, 188, 226, 222, 213, 186, 192, 214, 214, 60, 211, 217, 51, 189, 225, 115, 218, 60, 118, 147, 38, 189, 105, 198, 0, 189, 195, 93, 165, 188, 85, 24, 130, 59, 180, 138, 5, 60, 139, 200, 14, 189, 140, 127, 59, 61, 218, 93, 93, 189, 113, 33, 129, 187, 74, 77, 60, 188, 19, 73, 163, 188, 245, 100, 229, 59, 134, 251, 167, 59, 166, 233, 189, 188, 238, 71, 219, 60, 33, 33, 66, 189, 177, 127, 69, 61, 16, 154, 3, 189, 6, 124, 57, 189, 16, 153, 134, 58, 139, 210, 191, 60, 179, 8, 4, 189, 97, 200, 133, 188, 234, 15, 87, 61, 221, 32, 80, 60, 186, 126, 216, 188, 42, 231, 238, 60, 164, 24, 25, 60, 147, 108, 99, 188, 202, 196, 24, 189, 51, 96, 212, 188, 112, 0, 48, 61, 223, 39, 69, 59, 157, 228, 58, 189, 154, 20, 54, 189, 199, 106, 1, 189, 146, 9, 2, 60, 189, 204, 253, 60, 211, 42, 187, 188, 232, 81, 182, 60, 249, 52, 242, 188, 177, 64, 27, 188, 58, 86, 205, 188, 108, 22, 246, 60, 12, 176, 229, 60, 15, 46, 150, 59, 242, 235, 73, 189, 53, 18, 125, 188, 123, 1, 144, 60, 214, 90, 12, 61, 187, 86, 173, 60, 38, 93, 48, 189, 170, 179, 157, 188, 114, 73, 185, 188, 53, 79, 47, 60, 158, 78, 36, 189, 92, 131, 136, 60, 133, 62, 91, 188, 176, 101, 144, 185, 168, 44, 95, 187, 20, 88, 30, 189, 184, 53, 122, 59, 167, 80, 66, 189, 9, 244, 51, 188, 56, 187, 1, 188, 92, 233, 0, 61, 181, 21, 37, 189, 144, 12, 10, 61, 205, 176, 46, 188, 65, 174, 3, 188, 207, 148, 86, 59, 155, 17, 18, 189, 225, 104, 58, 189, 3, 78, 22, 188, 65, 131, 9, 61, 5, 232, 231, 188, 190, 242, 144, 188, 167, 50, 57, 189, 161, 49, 107, 189, 119, 123, 137, 188, 20, 138, 224, 187, 70, 140, 230, 187, 33, 40, 160, 188, 198, 180, 0, 188, 239, 3, 66, 188, 252, 58, 151, 60, 22, 70, 115, 189, 228, 211, 31, 188, 19, 237, 62, 189, 170, 54, 212, 60, 150, 143, 12, 61, 131, 182, 143, 60, 230, 75, 43, 189, 235, 204, 173, 188, 55, 163, 151, 60, 222, 29, 33, 60, 24, 203, 31, 189, 104, 106, 36, 189, 106, 97, 18, 61, 104, 7, 173, 186, 251, 70, 213, 59, 208, 177, 168, 188, 109, 121, 33, 60, 95, 63, 1, 61, 137, 16, 207, 60, 224, 37, 250, 59, 175, 34, 33, 61, 206, 209, 25, 189, 112, 121, 49, 61, 87, 32, 48, 61, 73, 165, 146, 188, 143, 118, 94, 60, 251, 45, 43, 187, 229, 105, 12, 189, 31, 21, 224, 188, 237, 237, 234, 60, 204, 4, 1, 189, 133, 88, 32, 189, 195, 27, 241, 60, 175, 36, 64, 189, 145, 43, 119, 60, 189, 142, 11, 61, 43, 172, 199, 60, 13, 181, 236, 60, 208, 176, 163, 60, 236, 37, 60, 61, 205, 119, 248, 188, 184, 191, 141, 187, 219, 155, 2, 189, 128, 224, 19, 61, 116, 74, 122, 189, 165, 170, 230, 188, 36, 51, 19, 189, 173, 110, 247, 60, 154, 151, 91, 60, 194, 34, 48, 60, 23, 215, 43, 189, 36, 87, 2, 188, 203, 40, 107, 59, 190, 214, 26, 61, 26, 43, 231, 60, 97, 164, 23, 189, 40, 210, 91, 60, 173, 157, 190, 188, 103, 65, 180, 188, 45, 170, 45, 189, 117, 71, 3, 61, 35, 88, 241, 60, 240, 202, 48, 59, 161, 201, 65, 188, 180, 35, 62, 60, 229, 53, 8, 189, 42, 198, 5, 189, 3, 163, 51, 189, 231, 132, 69, 59, 210, 108, 61, 189, 242, 140, 201, 188, 140, 41, 139, 60, 233, 198, 28, 189, 152, 226, 250, 60, 129, 244, 31, 61, 228, 98, 113, 188, 65, 213, 159, 188, 52, 117, 181, 60, 32, 61, 167, 60, 65, 232, 191, 60, 113, 246, 82, 60, 176, 24, 86, 189, 68, 44, 185, 187, 73, 29, 165, 188, 100, 190, 238, 60, 58, 50, 150, 60, 3, 204, 43, 58, 187, 254, 30, 189, 219, 158, 148, 60, 244, 179, 71, 189, 234, 143, 180, 188, 158, 36, 183, 188, 98, 251, 74, 61, 227, 121, 50, 61, 187, 95, 93, 60, 85, 140, 150, 60, 251, 148, 117, 188, 217, 35, 177, 187, 29, 221, 8, 60, 131, 252, 27, 61, 25, 255, 149, 59, 192, 214, 202, 187, 103, 19, 201, 60, 193, 160, 27, 61, 44, 163, 150, 187, 165, 78, 97, 189, 122, 153, 30, 188, 240, 79, 146, 59, 244, 66, 109, 60, 113, 105, 179, 187, 71, 102, 28, 60, 58, 85, 52, 60, 11, 94, 51, 59, 50, 202, 142, 188, 219, 117, 2, 61, 205, 30, 15, 61, 22, 50, 92, 189, 107, 42, 22, 61, 200, 177, 128, 61, 145, 14, 9, 61, 191, 40, 151, 188, 202, 77, 18, 188, 194, 190, 159, 187, 18, 69, 0, 61, 34, 157, 156, 60, 5, 110, 51, 188, 5, 61, 7, 60, 182, 19, 2, 61, 115, 71, 73, 61, 155, 214, 45, 61, 99, 17, 10, 188, 117, 214, 205, 60, 194, 50, 250, 188, 161, 82, 64, 61, 178, 132, 64, 61, 236, 152, 26, 61, 246, 106, 234, 58, 43, 159, 157, 188, 166, 205, 172, 58, 211, 161, 17, 188, 11, 255, 18, 61, 133, 127, 66, 189, 59, 214, 203, 58, 183, 183, 9, 61, 80, 229, 87, 58, 23, 229, 33, 60, 106, 242, 59, 189, 86, 46, 67, 189, 184, 62, 230, 59, 225, 12, 22, 61, 42, 34, 83, 188, 126, 166, 201, 188, 49, 125, 13, 189, 8, 194, 220, 60, 250, 38, 53, 61, 122, 122, 252, 188, 112, 14, 220, 188, 229, 185, 30, 61, 152, 207, 16, 60, 28, 73, 131, 186, 45, 199, 86, 189, 51, 56, 81, 188, 90, 87, 254, 188, 207, 194, 161, 188, 184, 217, 42, 188, 193, 96, 67, 189, 136, 250, 29, 58, 183, 158, 148, 188, 55, 249, 68, 61, 243, 93, 50, 189, 251, 112, 178, 188, 132, 119, 2, 188, 98, 75, 32, 189, 18, 147, 72, 187, 10, 63, 42, 60, 6, 41, 254, 60, 36, 203, 194, 58, 252, 137, 116, 60, 171, 51, 25, 189, 231, 240, 34, 189, 91, 235, 172, 60, 121, 124, 209, 60, 165, 15, 72, 59, 200, 247, 176, 60, 253, 230, 4, 59, 62, 39, 37, 189, 140, 77, 32, 60, 32, 58, 78, 60, 47, 165, 56, 188, 233, 51, 130, 188, 246, 44, 199, 59, 223, 254, 143, 60, 217, 91, 215, 187, 206, 205, 34, 189, 194, 255, 31, 188, 85, 58, 0, 61, 92, 100, 60, 189, 30, 171, 70, 61, 182, 28, 58, 61, 197, 252, 190, 60, 31, 247, 97, 187, 128, 113, 89, 189, 6, 39, 136, 60, 153, 54, 40, 61, 252, 223, 239, 59, 66, 149, 222, 188, 1, 248, 205, 187, 160, 126, 54, 61, 8, 67, 109, 188, 236, 47, 52, 61, 165, 252, 177, 60, 81, 237, 14, 189, 2, 220, 213, 58, 88, 12, 143, 187, 93, 52, 69, 189, 0, 64, 121, 188, 225, 129, 169, 60, 105, 218, 94, 60, 35, 132, 45, 189, 128, 145, 250, 60, 112, 127, 217, 60, 27, 140, 19, 189, 90, 20, 162, 188, 252, 65, 8, 189, 120, 172, 91, 188, 123, 81, 42, 189, 108, 86, 177, 60, 156, 167, 10, 60, 222, 137, 194, 60, 43, 231, 80, 189, 247, 200, 11, 189, 180, 110, 58, 189, 56, 222, 12, 189, 46, 185, 38, 61, 142, 5, 160, 60, 173, 127, 130, 188, 209, 154, 102, 188, 208, 138, 138, 188, 35, 141, 162, 188, 31, 242, 165, 188, 159, 143, 3, 61, 49, 39, 37, 189, 197, 128, 48, 60, 178, 18, 43, 188, 240, 155, 186, 187, 239, 118, 166, 60, 148, 69, 247, 60, 32, 73, 47, 189, 144, 73, 20, 189, 235, 251, 44, 61, 180, 211, 6, 189, 96, 241, 214, 188, 33, 105, 118, 60, 119, 113, 21, 189, 131, 51, 45, 188, 185, 116, 47, 61, 195, 208, 165, 60, 160, 18, 245, 60, 141, 83, 186, 188, 229, 156, 159, 187, 22, 193, 88, 188, 211, 21, 166, 60, 40, 79, 215, 188, 171, 156, 12, 189, 138, 214, 87, 189, 183, 50, 23, 61, 128, 99, 198, 60, 75, 52, 85, 188, 158, 77, 60, 61, 121, 28, 162, 186, 100, 251, 221, 188, 34, 167, 145, 187, 148, 225, 184, 60, 74, 231, 25, 189, 40, 180, 221, 60, 83, 172, 164, 60, 97, 19, 157, 59, 198, 125, 33, 61, 61, 225, 234, 60, 79, 236, 249, 188, 240, 189, 19, 189, 37, 236, 164, 188, 94, 164, 85, 189, 1, 51, 184, 60, 131, 212, 7, 188, 202, 21, 29, 61, 130, 84, 32, 189, 155, 91, 182, 60, 164, 231, 237, 186, 243, 109, 38, 189, 106, 151, 23, 61, 93, 148, 93, 189, 46, 254, 170, 60, 100, 99, 151, 60, 109, 133, 25, 61, 199, 2, 14, 61, 116, 164, 36, 189, 58, 50, 167, 60, 192, 165, 95, 187, 180, 209, 222, 59, 202, 155, 136, 60, 47, 145, 144, 188, 222, 132, 207, 59, 253, 215, 218, 60, 45, 182, 70, 59, 171, 35, 2, 61, 188, 182, 28, 188, 75, 156, 27, 61, 45, 255, 246, 188, 192, 27, 123, 188, 244, 5, 51, 189, 38, 199, 25, 189, 115, 110, 147, 60, 183, 201, 42, 61, 120, 177, 141, 60, 108, 213, 183, 187, 246, 61, 98, 188, 98, 192, 32, 60, 149, 206, 22, 60, 111, 179, 160, 188, 227, 150, 229, 59, 137, 150, 61, 188, 196, 48, 198, 59, 211, 122, 219, 188, 5, 167, 74, 189, 248, 241, 131, 188, 107, 169, 46, 189, 243, 229, 13, 59, 93, 25, 21, 61, 137, 201, 19, 61, 87, 115, 128, 60, 202, 243, 82, 187, 109, 12, 133, 60, 126, 68, 25, 61, 185, 217, 39, 188, 116, 180, 24, 189, 153, 41, 73, 189, 241, 3, 31, 189, 37, 160, 147, 60, 63, 112, 202, 188, 127, 32, 28, 61, 179, 39, 78, 189, 70, 95, 41, 189, 235, 113, 39, 61, 231, 138, 242, 188, 98, 80, 146, 60, 121, 51, 152, 60, 63, 134, 4, 61, 109, 148, 37, 188, 128, 249, 222, 186, 219, 32, 47, 189, 84, 59, 158, 60, 173, 172, 137, 60, 102, 98, 23, 58, 58, 195, 19, 61, 255, 124, 221, 60, 119, 76, 112, 189, 44, 33, 214, 60, 249, 104, 220, 58, 90, 101, 113, 188, 153, 23, 64, 189, 156, 99, 8, 61, 86, 181, 42, 61, 2, 45, 169, 59, 32, 86, 43, 60, 5, 228, 77, 189, 72, 135, 105, 186, 82, 199, 208, 188, 111, 205, 154, 60, 190, 19, 161, 59, 219, 237, 44, 60, 98, 250, 220, 188, 50, 190, 216, 60, 86, 121, 34, 189, 55, 185, 36, 61, 130, 186, 171, 188, 127, 116, 19, 188, 168, 133, 56, 187, 214, 195, 176, 60, 83, 189, 98, 60, 68, 79, 218, 60, 185, 101, 163, 60, 39, 69, 45, 188, 166, 135, 10, 61, 90, 82, 46, 61, 69, 201, 58, 189, 220, 115, 52, 189, 9, 21, 43, 60, 94, 9, 46, 59, 210, 123, 184, 187, 240, 1, 197, 188, 181, 77, 209, 60, 198, 234, 32, 189, 217, 132, 132, 188, 15, 106, 47, 61, 95, 185, 134, 60, 228, 68, 233, 60, 132, 124, 204, 59, 162, 67, 37, 189, 221, 71, 13, 59, 136, 98, 93, 188, 60, 11, 233, 60, 233, 254, 124, 188, 111, 184, 43, 60, 189, 191, 168, 60, 44, 145, 20, 61, 73, 251, 136, 188, 224, 184, 1, 61, 218, 160, 228, 60, 103, 212, 27, 61, 37, 162, 44, 189, 218, 47, 9, 58, 68, 166, 124, 187, 97, 237, 171, 188, 106, 231, 244, 188, 9, 204, 2, 189, 11, 160, 59, 189, 35, 131, 131, 188, 208, 1, 204, 188, 19, 70, 236, 60, 153, 119, 81, 189, 216, 132, 81, 189, 171, 194, 41, 61, 79, 33, 72, 61, 210, 116, 104, 60, 157, 221, 74, 60, 171, 224, 16, 189, 30, 55, 6, 61, 240, 63, 46, 61, 147, 51, 203, 59, 174, 228, 59, 60, 33, 172, 106, 59, 247, 36, 138, 60, 224, 163, 120, 60, 220, 6, 210, 188, 81, 114, 221, 60, 48, 148, 49, 189, 50, 1, 139, 60, 85, 27, 36, 61, 207, 224, 45, 187, 184, 183, 147, 59, 195, 220, 242, 60, 183, 202, 72, 189, 51, 67, 2, 189, 17, 247, 56, 189, 188, 23, 21, 61, 251, 9, 107, 189, 107, 110, 139, 187, 133, 28, 72, 61, 111, 163, 55, 61, 145, 97, 10, 58, 107, 28, 29, 61, 110, 124, 25, 61, 224, 13, 180, 60, 19, 196, 1, 61, 161, 90, 226, 60, 120, 199, 19, 61, 89, 253, 152, 187, 30, 10, 44, 188, 253, 65, 148, 188, 180, 19, 218, 188, 69, 91, 170, 188, 176, 174, 232, 60, 60, 158, 37, 61, 228, 6, 213, 60, 86, 147, 88, 60, 69, 159, 158, 60, 120, 176, 54, 189, 218, 57, 253, 188, 166, 243, 222, 60, 47, 233, 135, 60, 51, 136, 251, 188, 148, 234, 219, 59, 63, 196, 243, 188, 235, 165, 124, 60, 149, 129, 142, 188, 191, 230, 149, 187, 85, 252, 24, 61, 149, 253, 1, 59, 145, 241, 108, 188, 114, 118, 188, 188, 147, 67, 126, 60, 247, 123, 40, 60, 143, 187, 69, 61, 149, 214, 226, 188, 71, 39, 40, 61, 5, 114, 8, 61, 98, 66, 9, 61, 189, 242, 25, 61, 108, 28, 151, 187, 206, 174, 207, 60, 157, 252, 228, 187, 218, 236, 139, 188, 223, 215, 144, 188, 14, 105, 137, 59, 69, 169, 202, 60, 115, 238, 227, 60, 252, 112, 100, 60, 149, 114, 157, 60, 183, 48, 61, 188, 134, 181, 226, 60, 14, 155, 175, 188, 14, 139, 11, 60, 123, 170, 6, 61, 219, 171, 62, 60, 19, 41, 45, 61, 31, 182, 227, 59, 224, 240, 6, 189, 112, 69, 170, 60, 243, 240, 173, 188, 197, 87, 97, 187, 231, 74, 39, 61, 2, 239, 77, 189, 102, 138, 180, 188, 66, 122, 58, 189, 215, 70, 22, 189, 222, 65, 228, 188, 77, 164, 27, 61, 237, 135, 75, 61, 150, 164, 146, 59, 69, 32, 50, 189, 201, 91, 246, 59, 36, 53, 163, 188, 143, 43, 150, 187, 70, 183, 124, 188, 40, 168, 63, 61, 214, 130, 53, 188, 234, 150, 147, 188, 121, 44, 1, 61, 217, 127, 118, 188, 1, 246, 176, 188, 112, 132, 47, 188, 40, 182, 215, 188, 112, 88, 161, 60, 211, 83, 24, 189, 215, 88, 4, 61, 196, 71, 183, 60, 191, 181, 107, 60, 60, 85, 135, 59, 73, 235, 255, 59, 228, 102, 65, 60, 10, 46, 97, 58, 109, 194, 107, 60, 58, 76, 176, 188, 188, 113, 190, 60, 23, 243, 234, 188, 14, 52, 3, 189, 171, 47, 74, 59, 208, 71, 164, 60, 26, 43, 4, 61, 217, 182, 26, 189, 233, 8, 23, 189, 103, 30, 254, 60, 11, 179, 184, 59, 232, 248, 233, 188, 143, 101, 50, 189, 129, 38, 22, 189, 165, 35, 231, 188, 53, 187, 88, 61, 113, 73, 223, 59, 188, 28, 131, 60, 118, 18, 10, 189, 191, 170, 34, 61, 57, 161, 167, 188, 40, 89, 206, 188, 204, 201, 23, 61, 32, 38, 233, 188, 101, 85, 42, 61, 49, 186, 219, 188, 89, 201, 42, 189, 115, 14, 102, 60, 121, 215, 51, 189, 165, 129, 176, 59, 148, 171, 139, 60, 200, 19, 42, 189, 249, 190, 150, 60, 81, 17, 46, 189, 93, 111, 61, 59, 78, 132, 131, 60, 19, 237, 131, 60, 82, 47, 85, 188, 175, 247, 170, 188, 133, 202, 240, 188, 24, 249, 28, 189, 62, 99, 88, 61, 129, 69, 206, 60, 85, 114, 140, 188, 62, 52, 38, 61, 215, 72, 0, 61, 49, 125, 3, 189, 92, 212, 49, 61, 163, 95, 193, 60, 30, 134, 203, 60, 117, 229, 63, 189, 143, 213, 197, 187, 28, 84, 14, 60, 8, 0, 55, 189, 41, 235, 33, 189, 45, 70, 18, 61, 198, 20, 161, 188, 5, 193, 188, 60, 99, 161, 35, 188, 98, 176, 100, 187, 61, 180, 55, 59, 109, 204, 91, 59, 90, 46, 50, 189, 153, 61, 23, 189, 100, 163, 243, 60, 42, 207, 116, 59, 187, 142, 54, 189, 18, 39, 62, 60, 245, 16, 47, 189, 146, 218, 125, 188, 141, 10, 13, 61, 207, 96, 42, 189, 211, 76, 166, 187, 135, 204, 95, 188, 79, 70, 29, 189, 76, 104, 48, 61, 63, 211, 234, 187, 179, 237, 136, 188, 48, 155, 239, 188, 212, 249, 183, 60, 180, 223, 24, 61, 252, 12, 182, 58, 203, 157, 38, 61, 213, 30, 20, 189, 166, 160, 138, 60, 106, 148, 253, 188, 31, 27, 153, 188, 57, 13, 20, 59, 244, 150, 50, 189, 89, 10, 221, 60, 209, 72, 236, 186, 67, 88, 2, 189, 80, 180, 219, 59, 214, 20, 107, 60, 64, 167, 18, 189, 60, 249, 172, 188, 230, 94, 149, 59, 18, 12, 226, 60, 28, 134, 46, 187, 170, 32, 59, 61, 182, 167, 30, 189, 224, 130, 19, 189, 116, 154, 41, 60, 136, 109, 16, 61, 209, 244, 177, 59, 148, 123, 74, 189, 186, 100, 64, 61, 19, 0, 220, 59, 229, 38, 168, 186, 185, 138, 55, 61, 168, 19, 54, 189, 19, 214, 23, 188, 6, 16, 227, 188, 204, 88, 80, 60, 0, 57, 241, 187, 107, 163, 33, 189, 222, 141, 14, 61, 135, 222, 69, 61, 102, 189, 195, 60, 148, 17, 136, 59, 122, 3, 34, 61, 208, 60, 39, 61, 18, 128, 225, 59, 177, 56, 137, 188, 94, 170, 88, 60, 211, 254, 29, 59, 248, 196, 147, 188, 81, 204, 152, 60, 159, 50, 57, 185, 134, 141, 19, 59, 147, 149, 246, 188, 163, 189, 29, 61, 151, 79, 35, 188, 94, 135, 44, 189, 49, 72, 161, 188, 102, 243, 9, 59, 119, 42, 223, 60, 133, 38, 154, 188, 72, 175, 17, 187, 126, 26, 208, 188, 14, 138, 218, 60, 45, 94, 215, 188, 243, 36, 7, 61, 26, 9, 44, 60, 104, 103, 168, 188, 20, 65, 9, 189, 250, 5, 209, 60, 249, 25, 134, 60, 78, 83, 173, 60, 222, 93, 103, 188, 86, 31, 30, 189, 237, 196, 47, 61, 224, 246, 44, 189, 94, 162, 252, 58, 149, 64, 29, 61, 162, 12, 225, 60, 111, 207, 7, 61, 37, 80, 222, 60, 26, 244, 4, 60, 102, 87, 175, 59, 247, 208, 242, 60, 31, 177, 9, 61, 21, 95, 116, 188, 154, 150, 213, 188, 98, 190, 234, 60, 5, 247, 130, 188, 227, 109, 159, 188, 78, 57, 65, 61, 28, 206, 95, 188, 66, 155, 34, 189, 228, 202, 196, 188, 96, 72, 212, 188, 69, 133, 48, 189, 238, 212, 113, 188, 100, 143, 13, 189, 69, 191, 1, 61, 197, 174, 51, 189, 47, 2, 181, 60, 95, 111, 63, 189, 69, 5, 4, 61, 73, 79, 44, 189, 82, 241, 171, 188, 3, 43, 109, 185, 149, 92, 31, 61, 227, 104, 250, 188, 26, 156, 172, 187, 63, 123, 61, 184, 193, 211, 12, 189, 254, 177, 252, 188, 218, 215, 45, 188, 139, 206, 1, 61, 97, 119, 64, 189, 233, 78, 108, 60, 186, 109, 234, 59, 148, 121, 94, 60, 166, 36, 8, 61, 138, 141, 238, 60, 157, 237, 50, 61, 241, 38, 44, 189, 114, 160, 225, 60, 203, 52, 84, 60, 85, 60, 219, 60, 10, 137, 78, 59, 188, 99, 211, 60, 117, 98, 156, 60, 127, 110, 30, 61, 74, 182, 223, 188, 151, 166, 226, 60, 244, 69, 43, 189, 142, 56, 121, 59, 7, 195, 21, 188, 12, 208, 129, 57, 234, 211, 77, 188, 58, 251, 200, 59, 163, 209, 246, 60, 65, 183, 55, 61, 6, 107, 67, 60, 4, 167, 51, 187, 37, 127, 7, 60, 110, 185, 151, 59, 76, 165, 175, 60, 207, 216, 36, 61, 123, 135, 52, 189, 9, 94, 7, 61, 52, 196, 123, 186, 141, 68, 236, 188, 217, 233, 56, 188, 62, 35, 138, 59, 46, 144, 200, 60, 255, 37, 202, 59, 128, 32, 238, 59, 251, 169, 69, 189, 110, 12, 213, 60, 70, 132, 55, 189, 48, 196, 128, 188, 182, 202, 222, 57, 239, 176, 63, 57, 123, 249, 48, 61, 77, 90, 7, 187, 112, 27, 241, 186, 20, 217, 151, 60, 159, 108, 219, 188, 78, 142, 184, 188, 193, 182, 249, 59, 77, 49, 12, 189, 79, 12, 7, 61, 36, 83, 90, 60, 116, 146, 240, 188, 20, 140, 50, 189, 96, 159, 185, 187, 70, 106, 36, 61, 81, 134, 227, 60, 85, 89, 24, 59, 36, 104, 247, 60, 69, 129, 8, 61, 192, 159, 33, 189, 96, 131, 4, 189, 31, 75, 51, 189, 54, 218, 123, 188, 169, 161, 51, 61, 57, 174, 208, 60, 30, 92, 43, 60, 124, 91, 38, 61, 162, 35, 25, 189, 25, 251, 146, 60, 96, 29, 30, 188, 154, 201, 15, 61, 44, 40, 210, 60, 202, 188, 30, 189, 168, 114, 59, 189, 25, 251, 133, 188, 199, 98, 18, 189, 156, 195, 56, 189, 221, 114, 253, 187, 98, 96, 181, 60, 248, 85, 173, 59, 61, 77, 28, 61, 177, 185, 28, 189, 246, 201, 141, 188, 152, 178, 191, 187, 19, 188, 27, 61, 158, 188, 129, 60, 230, 201, 228, 188, 133, 137, 54, 61, 52, 11, 174, 60, 240, 40, 74, 61, 29, 60, 7, 189, 4, 52, 0, 61, 149, 159, 209, 188, 141, 193, 91, 60, 123, 180, 194, 60, 150, 98, 28, 61, 229, 136, 129, 60, 253, 163, 34, 188, 167, 218, 189, 60, 136, 143, 90, 188, 189, 177, 79, 188, 44, 29, 173, 188, 30, 229, 142, 187, 59, 175, 6, 188, 185, 88, 175, 188, 125, 62, 185, 60, 93, 194, 33, 61, 175, 189, 61, 188, 72, 61, 71, 189, 70, 219, 200, 188, 221, 163, 74, 189, 147, 103, 58, 61, 156, 232, 210, 60, 187, 144, 152, 60, 234, 114, 66, 61, 143, 234, 230, 188, 36, 41, 145, 60, 79, 39, 208, 188, 29, 124, 182, 188, 6, 136, 9, 60, 221, 200, 147, 58, 87, 232, 151, 187, 64, 35, 134, 60, 167, 3, 180, 60, 114, 61, 16, 61, 212, 78, 111, 60, 68, 63, 34, 189, 1, 217, 236, 60, 109, 118, 130, 188, 34, 37, 44, 189, 23, 235, 167, 188, 45, 132, 149, 188, 254, 22, 248, 60, 245, 176, 15, 188, 200, 85, 12, 188, 115, 191, 197, 187, 128, 5, 148, 188, 107, 201, 179, 60, 5, 152, 24, 189, 77, 153, 148, 60, 11, 135, 207, 59, 84, 127, 78, 60, 54, 189, 179, 188, 10, 53, 80, 60, 205, 108, 162, 188, 171, 185, 14, 60, 255, 89, 164, 188, 202, 141, 122, 188, 120, 180, 44, 61, 141, 81, 8, 61, 130, 32, 210, 187, 24, 150, 214, 58, 73, 18, 149, 187, 70, 166, 65, 189, 15, 227, 135, 60, 103, 106, 211, 185, 135, 253, 60, 61, 160, 151, 166, 59, 91, 208, 221, 188, 252, 7, 92, 60, 13, 3, 68, 189, 149, 7, 43, 189, 130, 151, 155, 60, 101, 239, 162, 188, 229, 131, 3, 61, 220, 44, 198, 188, 40, 13, 156, 60, 248, 125, 18, 189, 29, 243, 180, 188, 175, 173, 188, 60, 68, 80, 33, 60, 141, 133, 243, 185, 99, 204, 240, 60, 74, 106, 175, 188, 33, 152, 131, 60, 6, 122, 85, 60, 84, 182, 149, 60, 23, 235, 37, 61, 238, 42, 4, 61, 15, 26, 177, 58, 178, 164, 142, 59, 84, 92, 64, 189, 236, 201, 146, 188, 91, 138, 62, 61, 211, 40, 53, 189, 215, 177, 246, 188, 100, 152, 91, 60, 87, 243, 159, 60, 248, 130, 152, 60, 86, 2, 238, 187, 253, 3, 63, 60, 191, 240, 215, 59, 157, 32, 64, 60, 61, 5, 42, 61, 166, 127, 53, 189, 165, 220, 27, 189, 60, 165, 244, 60, 77, 87, 63, 189, 208, 143, 3, 61, 133, 59, 0, 189, 5, 40, 44, 189, 52, 165, 44, 188, 208, 185, 130, 59, 7, 212, 64, 61, 153, 130, 197, 60, 105, 118, 185, 188, 96, 105, 156, 60, 218, 123, 206, 59, 229, 3, 251, 60, 136, 48, 253, 60, 230, 89, 204, 59, 72, 65, 33, 61, 100, 189, 27, 61, 249, 103, 147, 188, 181, 136, 59, 188, 69, 21, 55, 61, 230, 97, 205, 60, 86, 108, 179, 60, 198, 150, 28, 61, 140, 33, 18, 189, 5, 122, 47, 189, 227, 124, 4, 189, 153, 41, 119, 188, 237, 87, 23, 61, 149, 197, 18, 61, 172, 190, 53, 61, 56, 20, 162, 188, 99, 4, 130, 60, 178, 139, 33, 189, 33, 236, 149, 188, 125, 136, 17, 61, 1, 93, 60, 189, 65, 147, 57, 189, 99, 28, 45, 189, 210, 224, 45, 188, 252, 4, 57, 189, 155, 92, 28, 189, 17, 91, 51, 187, 25, 243, 142, 188, 0, 0, 0, 189, 219, 132, 87, 188, 60, 81, 11, 189, 241, 205, 217, 188, 241, 128, 133, 60, 58, 170, 220, 60, 30, 232, 32, 61, 114, 93, 238, 60, 91, 56, 96, 188, 102, 109, 25, 189, 217, 200, 187, 188, 46, 204, 203, 59, 220, 171, 29, 189, 100, 53, 24, 60, 7, 53, 152, 59, 212, 49, 20, 188, 2, 54, 2, 61, 189, 251, 102, 60, 5, 161, 64, 61, 174, 208, 194, 58, 46, 151, 220, 186, 40, 170, 45, 61, 11, 12, 1, 187, 120, 31, 59, 189, 122, 139, 21, 189, 246, 250, 22, 187, 152, 233, 71, 189, 184, 138, 2, 61, 233, 229, 38, 189, 214, 230, 33, 61, 121, 56, 31, 189, 146, 243, 13, 189, 34, 158, 62, 189, 69, 128, 55, 59, 216, 150, 50, 61, 52, 179, 186, 188, 59, 15, 50, 189, 22, 210, 200, 60, 15, 159, 240, 60, 244, 105, 48, 61, 15, 56, 152, 60, 59, 60, 188, 60, 96, 18, 47, 61, 178, 54, 165, 188, 86, 156, 198, 188, 212, 62, 206, 60, 231, 75, 253, 188, 142, 238, 5, 189, 201, 174, 9, 189, 108, 125, 28, 60, 252, 58, 234, 59, 150, 99, 65, 186, 185, 34, 98, 60, 226, 65, 17, 60, 250, 107, 44, 61, 247, 240, 21, 60, 218, 23, 53, 187, 34, 52, 8, 61, 98, 202, 49, 61, 150, 132, 28, 61, 146, 67, 94, 188, 182, 103, 28, 61, 92, 49, 153, 59, 205, 136, 238, 188, 89, 175, 30, 60, 10, 242, 72, 60, 14, 65, 77, 189, 193, 56, 246, 188, 242, 208, 67, 60, 232, 147, 4, 61, 60, 176, 20, 60, 75, 70, 2, 184, 64, 189, 39, 61, 111, 153, 31, 60, 135, 10, 26, 189, 39, 255, 168, 60, 8, 1, 29, 189, 191, 113, 44, 61, 204, 163, 38, 61, 14, 5, 137, 188, 215, 225, 34, 61, 40, 66, 201, 60, 59, 183, 207, 60, 25, 173, 251, 60, 64, 124, 222, 60, 104, 217, 169, 188, 22, 209, 213, 58, 219, 113, 227, 188, 31, 24, 65, 189, 122, 110, 177, 60, 150, 15, 51, 189, 171, 150, 164, 184, 68, 194, 29, 61, 24, 71, 3, 189, 231, 64, 46, 189, 89, 73, 50, 189, 85, 93, 53, 59, 71, 53, 4, 189, 13, 202, 248, 188, 212, 248, 185, 188, 186, 241, 220, 188, 27, 35, 92, 59, 130, 137, 146, 60, 187, 167, 151, 188, 237, 227, 61, 189, 122, 198, 160, 60, 52, 34, 70, 189, 76, 148, 241, 188, 141, 187, 48, 189, 187, 193, 237, 60, 211, 181, 158, 187, 243, 72, 126, 60, 21, 92, 36, 60, 140, 209, 229, 60, 224, 14, 100, 60, 91, 198, 86, 61, 123, 57, 68, 189, 41, 169, 57, 189, 161, 91, 157, 60, 246, 1, 26, 61, 203, 209, 6, 61, 30, 10, 64, 189, 108, 161, 191, 188, 97, 113, 75, 188, 255, 0, 223, 188, 231, 48, 50, 61, 150, 109, 75, 189, 179, 31, 196, 60, 154, 120, 10, 61, 148, 184, 150, 60, 234, 62, 250, 60, 27, 27, 43, 188, 235, 104, 48, 61, 180, 37, 214, 59, 235, 66, 174, 60, 23, 49, 8, 188, 108, 250, 37, 189, 73, 49, 33, 60, 92, 113, 21, 61, 196, 106, 8, 61, 219, 23, 4, 189, 226, 189, 161, 188, 110, 5, 132, 60, 22, 223, 17, 61, 253, 32, 197, 188, 110, 105, 29, 61, 135, 13, 40, 58, 105, 227, 153, 60, 141, 249, 24, 188, 199, 35, 247, 188, 131, 233, 16, 188, 97, 211, 205, 188, 178, 90, 63, 189, 104, 152, 42, 60, 97, 169, 135, 188, 193, 121, 1, 61, 65, 236, 224, 60, 149, 60, 148, 187, 106, 144, 128, 60, 238, 96, 132, 186, 186, 146, 79, 188, 191, 39, 233, 60, 31, 77, 244, 187, 216, 127, 72, 189, 199, 155, 89, 59, 103, 81, 56, 61, 78, 4, 210, 187, 143, 127, 165, 58, 207, 111, 74, 189, 71, 30, 143, 188, 8, 143, 217, 60, 74, 132, 16, 189, 237, 214, 133, 188, 238, 144, 211, 59, 45, 96, 95, 187, 252, 98, 12, 60, 154, 47, 47, 189, 241, 130, 239, 186, 116, 34, 131, 60, 92, 54, 34, 61, 206, 186, 253, 59, 72, 173, 78, 188, 200, 77, 220, 60, 232, 192, 217, 59, 197, 120, 185, 188, 11, 159, 20, 189, 196, 33, 251, 60, 95, 158, 196, 60, 248, 142, 198, 188, 145, 173, 224, 60, 236, 34, 29, 189, 175, 144, 33, 189, 52, 145, 244, 60, 97, 12, 54, 189, 130, 9, 222, 60, 29, 239, 205, 186, 104, 10, 153, 188, 59, 96, 190, 187, 181, 106, 35, 61, 229, 164, 150, 60, 2, 115, 93, 188, 137, 13, 229, 188, 124, 158, 33, 61, 153, 207, 25, 189, 2, 166, 138, 188, 5, 26, 49, 188, 71, 91, 46, 189, 59, 142, 104, 60, 136, 158, 254, 58, 225, 95, 248, 60, 10, 254, 228, 188, 137, 166, 27, 189, 181, 189, 125, 60, 162, 75, 1, 60, 65, 84, 36, 61, 94, 183, 39, 189, 136, 30, 44, 60, 68, 31, 214, 60, 164, 174, 181, 58, 213, 238, 7, 189, 116, 205, 177, 188, 1, 42, 155, 60, 34, 254, 43, 60, 180, 200, 51, 61, 20, 68, 177, 60, 221, 83, 13, 61, 77, 8, 10, 61, 19, 59, 252, 58, 158, 66, 250, 187, 88, 226, 52, 189, 97, 169, 230, 59, 116, 144, 202, 188, 144, 26, 49, 61, 101, 59, 40, 59, 105, 228, 76, 189, 120, 210, 45, 189, 151, 215, 36, 61, 3, 185, 38, 61, 241, 198, 29, 61, 72, 221, 93, 60, 34, 187, 27, 187, 132, 33, 106, 188, 74, 192, 131, 187, 13, 213, 170, 188, 75, 88, 115, 60, 11, 173, 1, 60, 233, 5, 14, 189, 55, 135, 152, 60, 33, 156, 27, 189, 80, 36, 221, 188, 51, 174, 68, 188, 133, 178, 236, 188, 149, 177, 9, 189, 174, 26, 207, 187, 155, 0, 180, 60, 123, 194, 30, 61, 203, 136, 18, 188, 78, 92, 110, 188, 76, 54, 184, 188, 204, 255, 107, 60, 144, 3, 175, 188, 3, 172, 230, 59, 48, 108, 15, 188, 236, 148, 7, 61, 182, 90, 28, 189, 173, 227, 134, 60, 251, 156, 33, 60, 45, 170, 11, 61, 204, 180, 101, 60, 27, 169, 200, 59, 195, 128, 28, 189, 162, 59, 183, 188, 174, 188, 49, 61, 29, 130, 24, 61, 132, 124, 117, 187, 245, 212, 11, 189, 7, 199, 45, 189, 72, 202, 48, 189, 172, 253, 4, 61, 93, 82, 231, 60, 201, 39, 65, 61, 178, 91, 63, 189, 16, 102, 46, 61, 251, 96, 244, 188, 109, 248, 164, 60, 176, 81, 201, 188, 156, 110, 50, 188, 45, 108, 3, 59, 213, 209, 166, 188, 174, 222, 195, 187, 241, 11, 70, 189, 204, 47, 30, 189, 73, 79, 237, 188, 220, 70, 236, 60, 230, 169, 227, 188, 175, 128, 182, 188, 79, 203, 30, 60, 246, 192, 20, 60, 246, 105, 95, 60, 91, 161, 37, 61, 21, 67, 193, 60, 57, 29, 74, 188, 89, 183, 211, 186, 17, 4, 89, 188, 178, 242, 136, 60, 205, 53, 88, 60, 98, 86, 54, 61, 133, 221, 53, 189, 96, 25, 162, 60, 94, 240, 164, 188, 226, 110, 12, 189, 102, 118, 9, 188, 195, 22, 49, 61, 37, 211, 71, 189, 149, 235, 51, 188, 161, 193, 64, 61, 118, 13, 37, 61, 175, 238, 174, 60, 82, 195, 36, 61, 33, 219, 8, 61, 68, 25, 216, 60, 178, 186, 168, 188, 97, 235, 102, 59, 91, 122, 27, 189, 142, 163, 32, 60, 213, 23, 53, 61, 158, 228, 92, 60, 134, 39, 152, 59, 48, 85, 31, 189, 155, 149, 219, 59, 99, 17, 18, 61, 95, 191, 123, 187, 187, 153, 61, 61, 37, 115, 47, 188, 70, 128, 51, 61, 75, 135, 167, 60, 136, 161, 206, 188, 193, 174, 221, 60, 205, 18, 29, 61, 157, 0, 23, 188, 236, 33, 247, 188, 42, 151, 76, 189, 182, 163, 91, 60, 140, 189, 150, 188, 242, 13, 217, 60, 241, 150, 147, 186, 255, 128, 167, 188, 154, 120, 200, 59, 153, 94, 16, 61, 229, 164, 215, 59, 5, 191, 114, 187, 199, 27, 152, 188, 227, 217, 48, 59, 195, 98, 130, 60, 92, 12, 118, 188, 228, 15, 252, 188, 88, 30, 73, 60, 244, 135, 20, 189, 144, 187, 19, 188, 203, 181, 22, 61, 46, 218, 62, 189, 90, 112, 74, 188, 29, 58, 47, 189, 110, 143, 44, 59, 173, 192, 42, 189, 224, 175, 136, 188, 116, 141, 35, 189, 114, 252, 128, 188, 50, 173, 56, 189, 148, 228, 215, 186, 186, 217, 37, 61, 111, 136, 158, 60, 47, 162, 59, 61, 30, 204, 70, 189, 218, 134, 76, 188, 252, 90, 52, 189, 254, 235, 66, 60, 196, 123, 232, 60, 77, 203, 179, 188, 236, 107, 24, 188, 248, 149, 17, 189, 179, 204, 65, 61, 184, 122, 42, 61, 47, 40, 39, 61, 4, 222, 98, 188, 238, 77, 16, 60, 123, 0, 196, 188, 21, 18, 226, 60, 251, 148, 123, 59, 131, 98, 224, 188, 254, 96, 36, 60, 133, 254, 198, 60, 80, 50, 200, 59, 136, 109, 5, 189, 251, 223, 143, 188, 248, 252, 151, 188, 218, 35, 143, 188, 67, 106, 195, 188, 194, 36, 18, 189, 105, 135, 139, 188, 51, 139, 81, 188, 136, 143, 48, 188, 236, 62, 35, 61, 45, 175, 163, 188, 110, 38, 26, 61, 189, 71, 69, 60, 32, 196, 237, 188, 149, 185, 221, 60, 198, 95, 26, 189, 73, 53, 15, 186, 34, 71, 193, 188, 218, 2, 43, 61, 161, 137, 33, 59, 30, 95, 167, 188, 195, 14, 69, 187, 106, 128, 130, 60, 110, 0, 37, 61, 186, 48, 176, 188, 46, 201, 239, 188, 100, 193, 176, 60, 218, 220, 212, 188, 184, 194, 45, 61, 231, 112, 126, 188, 114, 191, 229, 185, 167, 156, 187, 188, 177, 76, 13, 189, 233, 209, 203, 188, 153, 209, 132, 188, 33, 230, 141, 186, 108, 19, 79, 188, 56, 240, 103, 188, 179, 49, 83, 188, 209, 28, 173, 188, 5, 201, 79, 60, 158, 33, 150, 59, 170, 84, 33, 61, 201, 5, 143, 60, 92, 248, 25, 60, 81, 233, 151, 188, 232, 70, 37, 61, 106, 88, 110, 60, 203, 169, 146, 60, 40, 249, 244, 60, 148, 20, 7, 189, 211, 128, 144, 58, 84, 98, 128, 59, 95, 134, 138, 188, 44, 7, 212, 60, 21, 184, 103, 59, 41, 117, 33, 189, 13, 112, 198, 188, 13, 220, 194, 187, 96, 40, 200, 60, 176, 75, 211, 188, 201, 76, 121, 185, 31, 231, 129, 188, 106, 100, 41, 189, 249, 123, 38, 189, 67, 196, 238, 60, 62, 179, 3, 188, 146, 158, 137, 188, 2, 201, 26, 59, 31, 55, 44, 189, 180, 223, 66, 189, 11, 116, 223, 60, 143, 113, 188, 188, 207, 46, 185, 188, 249, 77, 8, 61, 104, 4, 86, 187, 29, 58, 240, 60, 62, 100, 245, 187, 124, 110, 238, 188, 56, 231, 10, 61, 24, 156, 78, 187, 224, 87, 60, 188, 37, 103, 168, 188, 219, 16, 21, 189, 219, 73, 41, 60, 109, 18, 189, 60, 46, 108, 77, 189, 92, 12, 37, 61, 74, 162, 162, 188, 132, 15, 146, 188, 26, 49, 54, 61, 32, 104, 47, 187, 210, 36, 195, 60, 54, 30, 75, 60, 58, 164, 26, 187, 59, 122, 20, 188, 104, 98, 213, 187, 251, 67, 61, 60, 29, 117, 121, 188, 159, 108, 25, 61, 156, 123, 56, 189, 156, 153, 36, 61, 8, 158, 250, 60, 151, 108, 187, 187, 202, 154, 112, 188, 164, 144, 54, 189, 104, 184, 5, 189, 132, 155, 200, 188, 188, 216, 214, 59, 81, 236, 118, 60, 182, 40, 34, 61, 230, 137, 8, 188, 35, 114, 32, 188, 7, 223, 37, 189, 235, 34, 199, 188, 126, 114, 126, 188, 164, 89, 26, 189, 158, 29, 236, 187, 159, 135, 73, 189, 44, 50, 33, 189, 230, 174, 33, 60, 217, 208, 67, 189, 167, 107, 2, 61, 237, 54, 67, 189, 89, 108, 33, 61, 202, 86, 59, 189, 45, 111, 27, 61, 79, 53, 23, 61, 187, 8, 122, 60, 144, 16, 203, 187, 149, 89, 85, 188, 16, 213, 60, 58, 240, 113, 171, 188, 242, 55, 176, 60, 168, 53, 155, 58, 20, 197, 1, 61, 104, 47, 93, 187, 25, 242, 190, 60, 121, 21, 51, 61, 20, 130, 17, 61, 220, 220, 33, 189, 173, 109, 47, 61, 44, 20, 61, 189, 64, 190, 122, 60, 82, 127, 185, 188, 194, 40, 72, 189, 186, 35, 4, 61, 33, 47, 5, 189, 43, 216, 82, 60, 49, 179, 205, 60, 119, 51, 213, 60, 101, 118, 131, 187, 122, 229, 205, 60, 218, 208, 24, 61, 71, 16, 179, 188, 244, 249, 224, 60, 91, 110, 9, 60, 31, 213, 192, 60, 198, 106, 236, 188, 219, 48, 73, 188, 111, 245, 43, 189, 141, 123, 199, 60, 0, 110, 246, 188, 41, 41, 29, 188, 228, 217, 210, 188, 75, 96, 7, 61, 53, 104, 191, 60, 147, 84, 249, 60, 79, 95, 38, 61, 109, 136, 0, 61, 33, 1, 212, 186, 19, 86, 22, 189, 98, 62, 62, 189, 61, 51, 46, 188, 245, 66, 9, 189, 8, 59, 171, 188, 221, 113, 189, 60, 206, 183, 182, 60, 192, 101, 17, 189, 82, 231, 8, 188, 77, 249, 24, 189, 161, 244, 12, 61, 150, 62, 176, 60, 126, 22, 25, 61, 181, 216, 200, 60, 4, 41, 84, 60, 17, 4, 113, 188, 46, 69, 61, 60, 175, 94, 239, 188, 129, 201, 65, 189, 116, 70, 64, 189, 42, 238, 3, 188, 198, 223, 189, 188, 10, 192, 25, 61, 102, 63, 48, 57, 155, 243, 43, 189, 12, 108, 152, 188, 102, 65, 54, 189, 92, 18, 166, 188, 184, 117, 70, 188, 226, 164, 90, 188, 67, 242, 25, 189, 154, 92, 27, 61, 100, 111, 14, 188, 47, 148, 157, 188, 160, 27, 221, 187, 1, 75, 17, 188, 178, 161, 162, 60, 56, 215, 24, 61, 155, 203, 230, 60, 214, 106, 0, 189, 6, 13, 37, 189, 11, 131, 72, 189, 173, 32, 43, 188, 19, 196, 2, 189, 158, 132, 5, 189, 130, 231, 31, 61, 242, 77, 42, 189, 43, 232, 170, 187, 0, 138, 18, 61, 86, 23, 96, 60, 153, 108, 224, 187, 196, 76, 54, 189, 54, 199, 11, 189, 248, 158, 208, 188, 93, 14, 147, 60, 101, 245, 38, 61, 10, 100, 136, 187, 32, 112, 70, 59, 121, 249, 24, 61, 152, 16, 57, 61, 251, 8, 50, 60, 230, 240, 32, 61, 111, 75, 172, 187, 164, 251, 41, 61, 9, 197, 181, 60, 96, 137, 9, 189, 107, 200, 224, 60, 154, 99, 34, 61, 3, 184, 33, 61, 224, 245, 210, 60, 81, 175, 68, 189, 183, 137, 207, 188, 23, 68, 192, 60, 172, 220, 182, 187, 17, 185, 16, 60, 172, 60, 246, 60, 128, 7, 38, 61, 129, 138, 53, 61, 188, 225, 128, 188, 250, 134, 187, 59, 179, 181, 172, 60, 243, 64, 34, 61, 93, 255, 220, 60, 8, 162, 119, 188, 33, 179, 11, 189, 57, 201, 151, 188, 137, 152, 182, 186, 194, 227, 207, 60, 156, 21, 7, 189, 175, 253, 46, 61, 253, 134, 67, 189, 61, 48, 11, 189, 232, 37, 23, 60, 158, 244, 226, 60, 223, 210, 52, 188, 7, 95, 38, 61, 157, 224, 112, 188, 157, 101, 19, 189, 8, 27, 208, 60, 51, 104, 66, 189, 63, 71, 212, 188, 112, 205, 246, 188, 239, 94, 188, 60, 18, 79, 1, 188, 9, 128, 1, 188, 241, 12, 197, 188, 226, 191, 135, 59, 230, 181, 240, 188, 220, 150, 152, 188, 113, 149, 198, 59, 62, 163, 233, 188, 202, 66, 64, 189, 252, 204, 217, 60, 56, 231, 248, 60, 102, 125, 44, 60, 55, 251, 204, 187, 212, 35, 209, 59, 144, 213, 112, 188, 0, 99, 31, 61, 69, 61, 196, 188, 255, 19, 93, 60, 32, 94, 11, 61, 172, 26, 4, 61, 39, 76, 215, 59, 226, 82, 166, 186, 181, 250, 181, 188, 218, 46, 198, 60, 197, 115, 15, 188, 89, 13, 41, 61, 127, 217, 193, 60, 170, 109, 38, 61, 215, 105, 198, 188, 118, 81, 155, 60, 80, 144, 19, 60, 175, 227, 53, 60, 66, 103, 102, 60, 116, 105, 12, 59, 30, 11, 31, 188, 126, 141, 213, 188, 206, 60, 140, 188, 49, 59, 3, 59, 175, 153, 214, 59, 4, 135, 163, 188, 227, 233, 87, 60, 98, 105, 15, 189, 144, 171, 66, 56, 72, 87, 27, 61, 174, 139, 130, 60, 237, 71, 120, 60, 159, 45, 82, 188, 38, 56, 225, 184, 182, 20, 192, 60, 85, 227, 31, 61, 114, 163, 36, 188, 65, 123, 24, 189, 71, 76, 17, 61, 219, 152, 55, 61, 253, 178, 28, 61, 161, 45, 182, 60, 213, 142, 93, 187, 102, 222, 130, 187, 244, 4, 208, 187, 101, 16, 181, 60, 27, 169, 159, 60, 250, 188, 99, 60, 185, 127, 163, 188, 84, 201, 15, 189, 128, 88, 183, 187, 189, 240, 45, 189, 101, 165, 25, 189, 57, 120, 22, 60, 208, 249, 195, 188, 174, 88, 156, 187, 45, 76, 203, 186, 84, 174, 10, 189, 87, 130, 188, 60, 57, 164, 35, 61, 76, 98, 115, 59, 115, 17, 46, 189, 214, 100, 138, 58, 8, 7, 118, 60, 15, 42, 55, 189, 164, 34, 210, 188, 247, 132, 209, 188, 197, 31, 32, 61, 0, 73, 132, 188, 68, 126, 65, 58, 69, 218, 88, 188, 13, 153, 206, 60, 92, 211, 162, 188, 19, 251, 195, 60, 28, 100, 52, 61, 25, 121, 248, 188, 104, 34, 66, 188, 12, 113, 23, 189, 95, 79, 241, 60, 38, 204, 162, 59, 186, 230, 110, 56, 167, 72, 183, 188, 188, 250, 250, 187, 217, 194, 37, 60, 157, 46, 24, 60, 210, 121, 27, 189, 124, 61, 5, 61, 39, 190, 56, 61, 165, 76, 24, 60, 167, 213, 97, 188, 13, 175, 58, 186, 246, 105, 71, 60, 96, 171, 17, 59, 36, 159, 2, 61, 247, 136, 14, 61, 149, 253, 29, 189, 28, 127, 79, 60, 115, 167, 248, 60, 5, 139, 222, 59, 239, 51, 174, 187, 127, 193, 13, 61, 132, 197, 179, 59, 98, 134, 183, 60, 197, 128, 173, 60, 221, 124, 211, 59, 41, 39, 163, 59, 225, 108, 154, 60, 120, 32, 183, 57, 186, 237, 73, 58, 42, 57, 100, 188, 139, 160, 138, 187, 140, 186, 199, 60, 209, 23, 249, 188, 181, 188, 216, 59, 234, 41, 52, 61, 118, 18, 3, 187, 100, 222, 9, 61, 83, 94, 176, 60, 35, 100, 58, 61, 181, 144, 164, 60, 220, 245, 191, 188, 136, 28, 90, 60, 203, 187, 33, 189, 153, 166, 34, 61, 168, 142, 44, 61, 117, 74, 78, 189, 199, 135, 167, 59, 8, 40, 12, 189, 38, 158, 128, 187, 62, 164, 186, 188, 91, 141, 19, 60, 81, 120, 165, 188, 20, 232, 48, 189, 214, 65, 51, 189, 70, 113, 100, 60, 186, 225, 44, 61, 90, 34, 147, 188, 7, 246, 20, 189, 213, 62, 2, 189, 20, 92, 0, 58, 233, 62, 247, 60, 188, 149, 51, 189, 52, 46, 43, 61, 99, 100, 50, 61, 117, 147, 132, 59, 11, 148, 92, 60, 16, 185, 241, 188, 107, 255, 133, 188, 148, 61, 37, 61, 220, 100, 49, 61, 105, 169, 158, 188, 239, 188, 176, 60, 132, 126, 30, 189, 246, 96, 191, 60, 161, 248, 9, 189, 152, 51, 163, 188, 174, 222, 175, 185, 8, 11, 215, 60, 22, 183, 233, 59, 224, 1, 247, 187, 53, 60, 46, 189, 23, 43, 253, 60, 62, 218, 183, 188, 37, 245, 20, 188, 136, 109, 162, 188, 222, 28, 120, 60, 180, 152, 165, 60, 209, 131, 42, 189, 123, 155, 218, 188, 153, 153, 3, 60, 89, 56, 211, 59, 74, 23, 170, 188, 52, 55, 195, 188, 249, 157, 212, 186, 99, 3, 47, 189, 31, 169, 241, 187, 161, 22, 4, 189, 218, 108, 222, 59, 217, 107, 178, 188, 154, 102, 39, 189, 172, 173, 25, 188, 208, 47, 248, 188, 192, 222, 45, 188, 206, 197, 80, 60, 122, 88, 94, 188, 80, 246, 21, 189, 168, 77, 51, 188, 50, 142, 162, 188, 46, 58, 102, 58, 251, 27, 70, 187, 74, 68, 48, 189, 148, 105, 209, 188, 153, 145, 36, 61, 197, 40, 236, 188, 141, 116, 26, 187, 47, 183, 166, 188, 124, 51, 207, 188, 64, 200, 46, 189, 71, 102, 33, 188, 219, 3, 28, 61, 211, 20, 64, 189, 155, 93, 250, 60, 31, 134, 215, 60, 123, 41, 100, 188, 32, 73, 72, 189, 246, 90, 161, 60, 88, 2, 48, 188, 204, 152, 207, 60, 252, 176, 143, 188, 4, 107, 90, 60, 69, 239, 218, 60, 174, 177, 58, 189, 101, 15, 140, 188, 30, 182, 95, 60, 143, 179, 131, 60, 18, 128, 7, 189, 166, 111, 54, 58, 68, 160, 59, 188, 168, 169, 245, 59, 238, 76, 254, 59, 13, 254, 7, 188, 144, 93, 206, 60, 77, 13, 3, 61, 100, 1, 144, 59, 104, 135, 120, 188, 54, 66, 184, 60, 148, 103, 16, 61, 212, 69, 243, 60, 180, 158, 13, 188, 107, 232, 188, 59, 77, 26, 54, 189, 118, 153, 131, 188, 27, 94, 62, 189, 197, 48, 25, 189, 133, 78, 120, 59, 155, 130, 77, 60, 4, 35, 169, 187, 248, 138, 1, 189, 213, 7, 170, 188, 203, 225, 131, 187, 100, 25, 177, 60, 134, 222, 156, 188, 78, 23, 224, 186, 30, 212, 232, 60, 253, 50, 131, 59, 44, 57, 150, 188, 197, 174, 38, 61, 110, 103, 87, 188, 19, 185, 6, 189, 52, 231, 156, 188, 27, 38, 28, 189, 215, 231, 252, 186, 40, 89, 238, 188, 111, 10, 221, 60, 237, 244, 248, 59, 64, 2, 67, 60, 52, 73, 7, 61, 88, 134, 37, 61, 135, 92, 252, 188, 38, 212, 223, 188, 57, 141, 67, 61, 122, 134, 34, 61, 98, 226, 69, 189, 15, 95, 25, 187, 140, 0, 143, 188, 133, 200, 199, 59, 219, 154, 55, 61, 147, 247, 113, 188, 214, 37, 130, 184, 171, 54, 12, 61, 32, 91, 141, 188, 11, 49, 186, 60, 203, 167, 30, 189, 104, 179, 18, 189, 81, 90, 121, 188, 111, 80, 50, 188, 92, 189, 43, 61, 162, 211, 3, 188, 12, 91, 17, 57, 230, 43, 34, 188, 181, 220, 161, 188, 202, 45, 18, 61, 29, 152, 36, 187, 105, 175, 127, 60, 50, 89, 169, 188, 51, 0, 30, 189, 48, 54, 155, 59, 146, 107, 21, 61, 119, 64, 0, 188, 164, 32, 16, 61, 164, 14, 45, 61, 197, 3, 213, 188, 5, 254, 236, 60, 6, 186, 187, 60, 25, 65, 169, 59, 110, 116, 118, 60, 1, 216, 62, 189, 47, 173, 10, 61, 128, 239, 147, 187, 21, 53, 214, 188, 5, 242, 24, 189, 28, 186, 54, 189, 126, 185, 6, 189, 42, 214, 46, 186, 181, 85, 162, 60, 180, 10, 21, 60, 90, 222, 8, 61, 245, 246, 247, 188, 29, 221, 11, 61, 135, 95, 3, 188, 12, 1, 222, 188, 17, 37, 154, 188, 100, 168, 43, 189, 185, 213, 66, 188, 210, 198, 206, 187, 95, 67, 40, 61, 81, 167, 189, 188, 237, 235, 14, 61, 14, 28, 188, 60, 182, 157, 34, 61, 156, 231, 64, 189, 62, 12, 33, 189, 238, 1, 41, 189, 228, 183, 44, 58, 21, 226, 17, 188, 126, 184, 50, 188, 96, 245, 13, 188, 74, 77, 189, 60, 159, 221, 63, 188, 168, 248, 136, 60, 201, 251, 25, 61, 216, 246, 216, 59, 97, 42, 200, 188, 223, 65, 75, 189, 115, 15, 14, 61, 129, 0, 61, 60, 193, 96, 222, 60, 142, 139, 208, 188, 64, 42, 222, 60, 152, 126, 7, 61, 150, 238, 80, 188, 224, 26, 205, 60, 173, 163, 59, 189, 7, 250, 129, 188, 113, 79, 27, 188, 127, 98, 41, 61, 205, 126, 202, 188, 161, 194, 185, 59, 34, 11, 134, 188, 126, 153, 167, 186, 140, 223, 33, 60, 191, 151, 0, 61, 162, 208, 206, 188, 18, 8, 133, 60, 233, 219, 58, 61, 216, 239, 43, 60, 251, 1, 36, 189, 193, 7, 2, 189, 103, 85, 43, 189, 91, 230, 173, 187, 55, 162, 104, 59, 24, 234, 248, 58, 153, 180, 92, 188, 195, 240, 248, 58, 25, 7, 44, 189, 73, 122, 236, 60, 155, 161, 23, 189, 10, 131, 215, 187, 153, 41, 29, 61, 97, 197, 48, 189, 38, 121, 73, 60, 209, 93, 56, 61, 98, 102, 2, 188, 148, 14, 20, 189, 119, 142, 80, 60, 3, 26, 162, 60, 45, 117, 20, 188, 184, 60, 151, 60, 181, 155, 50, 61, 254, 251, 55, 61, 20, 59, 213, 188, 134, 38, 82, 60, 240, 230, 200, 60, 148, 203, 137, 58, 80, 168, 232, 60, 201, 187, 56, 61, 183, 213, 35, 61, 34, 8, 84, 188, 69, 9, 190, 59, 220, 16, 235, 188, 216, 215, 41, 61, 17, 7, 52, 61, 27, 75, 153, 188, 107, 107, 180, 188, 40, 110, 238, 60, 4, 99, 29, 189, 244, 205, 31, 61, 85, 44, 245, 60, 28, 185, 3, 61, 170, 182, 254, 60, 199, 189, 218, 60, 80, 59, 16, 61, 100, 99, 8, 188, 167, 244, 247, 60, 247, 35, 205, 59, 114, 229, 52, 61, 220, 147, 1, 189, 2, 218, 2, 189, 22, 79, 94, 188, 244, 99, 106, 188, 250, 172, 199, 59, 99, 216, 203, 60, 181, 26, 51, 189, 149, 184, 128, 58, 224, 142, 43, 61, 152, 169, 200, 188, 133, 20, 14, 189, 33, 6, 1, 189, 246, 129, 151, 60, 53, 142, 51, 189, 146, 234, 66, 60, 110, 167, 198, 60, 30, 40, 161, 60, 248, 45, 8, 60, 79, 124, 3, 61, 15, 188, 7, 189, 76, 178, 36, 188, 34, 93, 162, 58, 69, 250, 148, 60, 212, 5, 47, 189, 175, 143, 34, 61, 136, 125, 50, 189, 142, 218, 30, 61, 222, 161, 76, 189, 57, 188, 33, 61, 67, 238, 4, 189, 139, 204, 23, 189, 4, 90, 41, 188, 114, 197, 137, 186, 189, 89, 155, 187, 220, 252, 4, 189, 173, 190, 28, 188, 229, 34, 69, 59, 200, 187, 205, 60, 118, 29, 36, 189, 159, 120, 22, 189, 56, 227, 231, 188, 246, 113, 250, 187, 222, 210, 180, 187, 224, 109, 46, 189, 214, 238, 9, 189, 241, 93, 29, 189, 177, 241, 78, 189, 107, 40, 9, 61, 63, 226, 41, 189, 211, 248, 164, 187, 25, 57, 240, 188, 180, 109, 69, 59, 123, 166, 135, 60, 213, 20, 163, 188, 159, 47, 234, 59, 210, 79, 153, 60, 197, 64, 26, 61, 124, 224, 164, 60, 55, 108, 56, 61, 4, 52, 93, 188, 150, 36, 114, 188, 221, 3, 168, 188, 86, 185, 4, 61, 242, 179, 218, 188, 25, 133, 220, 60, 107, 162, 139, 188, 186, 119, 68, 60, 74, 214, 40, 61, 35, 49, 125, 60, 61, 65, 97, 60, 97, 73, 142, 59, 32, 148, 18, 61, 76, 16, 65, 60, 111, 190, 190, 58, 71, 79, 235, 60, 241, 69, 188, 60, 0, 186, 3, 61, 109, 174, 80, 188, 96, 55, 51, 187, 232, 26, 50, 61, 87, 180, 58, 60, 51, 218, 239, 60, 243, 193, 103, 188, 116, 254, 36, 61, 204, 50, 64, 189, 157, 235, 169, 60, 127, 19, 0, 189, 80, 96, 129, 59, 79, 92, 20, 188, 233, 57, 35, 61, 69, 173, 49, 60, 79, 242, 204, 188, 72, 132, 52, 189, 184, 12, 214, 188, 212, 149, 32, 61, 1, 210, 139, 187, 235, 249, 168, 59, 145, 174, 74, 188, 1, 216, 34, 189, 164, 210, 228, 186, 82, 169, 105, 188, 74, 179, 176, 188, 84, 209, 96, 59, 179, 97, 33, 189, 5, 186, 125, 187, 192, 74, 18, 189, 4, 80, 163, 59, 28, 161, 217, 60, 153, 0, 203, 60, 88, 22, 204, 188, 47, 27, 70, 188, 13, 210, 104, 188, 175, 241, 58, 61, 122, 138, 57, 60, 18, 218, 40, 60, 48, 246, 207, 60, 201, 89, 51, 189, 110, 84, 114, 188, 41, 20, 141, 188, 212, 23, 67, 60, 234, 255, 211, 59, 45, 177, 216, 188, 169, 128, 47, 189, 7, 23, 9, 61, 212, 19, 139, 187, 139, 235, 53, 189, 21, 101, 13, 61, 39, 81, 125, 60, 152, 37, 21, 61, 47, 22, 2, 61, 124, 187, 181, 60, 32, 117, 195, 60, 51, 147, 62, 189, 27, 153, 18, 61, 53, 53, 44, 189, 109, 99, 56, 189, 194, 121, 170, 60, 236, 184, 186, 188, 244, 151, 47, 61, 51, 114, 2, 60, 251, 150, 196, 188, 98, 139, 46, 60, 206, 139, 56, 61, 77, 140, 53, 188, 149, 151, 251, 60, 237, 153, 134, 188, 23, 1, 48, 189, 210, 226, 36, 60, 48, 139, 66, 189, 22, 110, 207, 188, 66, 10, 230, 188, 126, 155, 173, 188, 138, 49, 43, 60, 27, 125, 28, 188, 121, 39, 9, 189, 236, 167, 253, 188, 198, 139, 20, 60, 35, 250, 162, 188, 204, 248, 131, 60, 134, 174, 92, 60, 185, 57, 51, 60, 83, 162, 75, 189, 185, 114, 205, 188, 65, 209, 167, 60, 107, 123, 135, 188, 227, 237, 57, 60, 10, 18, 68, 61, 37, 61, 212, 188, 198, 34, 39, 189, 172, 198, 198, 188, 139, 125, 17, 189, 116, 123, 19, 188, 248, 30, 253, 188, 102, 168, 64, 188, 101, 138, 44, 61, 27, 93, 3, 61, 221, 84, 18, 61, 248, 229, 59, 189, 71, 95, 232, 59, 99, 70, 84, 59, 35, 36, 193, 188, 157, 168, 24, 61, 56, 13, 46, 61, 20, 173, 32, 58, 73, 200, 160, 188, 225, 148, 216, 188, 100, 66, 110, 60, 58, 116, 249, 187, 68, 186, 208, 59, 161, 177, 197, 58, 221, 119, 58, 189, 52, 223, 42, 189, 172, 186, 152, 60, 127, 137, 44, 188, 90, 238, 16, 189, 176, 108, 212, 188, 74, 253, 26, 189, 59, 35, 121, 60, 49, 218, 36, 60, 109, 159, 60, 189, 240, 167, 208, 60, 229, 9, 130, 185, 169, 11, 26, 61, 254, 88, 120, 188, 44, 172, 223, 186, 124, 236, 24, 189, 123, 163, 9, 61, 189, 43, 204, 188, 101, 15, 162, 188, 38, 70, 57, 189, 223, 91, 104, 60, 180, 82, 9, 61, 113, 96, 126, 59, 205, 32, 112, 186, 242, 38, 11, 57, 46, 178, 232, 60, 82, 189, 208, 60, 38, 241, 174, 59, 32, 158, 119, 60, 104, 188, 159, 188, 150, 144, 203, 60, 200, 54, 140, 187, 129, 226, 137, 60, 96, 76, 21, 189, 14, 6, 252, 186, 132, 134, 18, 189, 27, 134, 134, 60, 119, 93, 140, 59, 214, 82, 66, 59, 139, 134, 59, 189, 107, 110, 119, 60, 202, 85, 162, 188, 11, 165, 28, 189, 0, 240, 211, 186, 132, 33, 159, 60, 154, 253, 72, 187, 52, 207, 7, 189, 171, 130, 27, 61, 66, 112, 144, 60, 195, 223, 230, 59, 137, 114, 12, 189, 44, 93, 241, 59, 138, 3, 189, 188, 126, 5, 199, 58, 167, 117, 23, 61, 155, 227, 195, 187, 114, 167, 79, 187, 107, 166, 255, 60, 200, 252, 33, 61, 116, 148, 26, 189, 230, 30, 229, 60, 241, 223, 192, 60, 135, 79, 21, 61, 176, 117, 103, 188, 19, 35, 6, 189, 241, 127, 54, 189, 251, 173, 204, 187, 98, 49, 2, 61, 252, 172, 209, 188, 80, 97, 35, 189, 109, 154, 45, 188, 179, 45, 3, 61, 113, 35, 132, 60, 248, 9, 150, 186, 3, 110, 5, 188, 202, 227, 193, 188, 83, 87, 29, 188, 74, 232, 29, 187, 7, 104, 67, 60, 45, 59, 74, 189, 74, 99, 211, 188, 181, 204, 14, 189, 98, 182, 174, 59, 101, 119, 143, 60, 60, 144, 131, 60, 118, 169, 0, 188, 76, 42, 41, 61, 162, 64, 246, 187, 250, 23, 18, 61, 230, 132, 214, 187, 86, 177, 67, 189, 250, 210, 162, 187, 212, 117, 200, 188, 234, 69, 161, 60, 134, 244, 48, 61, 8, 205, 7, 189, 108, 197, 5, 188, 102, 20, 123, 60, 202, 75, 250, 188, 1, 12, 198, 59, 30, 48, 67, 189, 89, 141, 11, 61, 135, 163, 57, 189, 25, 229, 38, 188, 77, 214, 87, 60, 207, 134, 59, 189, 93, 255, 55, 188, 190, 29, 38, 189, 51, 251, 22, 61, 51, 20, 165, 187, 82, 160, 49, 61, 41, 61, 179, 187, 129, 66, 181, 187, 196, 163, 214, 60, 232, 143, 0, 59, 190, 102, 227, 60, 109, 146, 52, 188, 44, 144, 219, 188, 206, 80, 39, 61, 170, 142, 161, 188, 148, 187, 43, 60, 129, 115, 178, 188, 66, 237, 71, 188, 214, 73, 31, 189, 180, 181, 64, 58, 75, 194, 193, 59, 255, 24, 10, 189, 69, 107, 54, 61, 143, 36, 0, 189, 97, 84, 211, 60, 62, 227, 37, 189, 65, 153, 20, 189, 39, 129, 237, 187, 226, 180, 202, 187, 135, 185, 197, 188, 212, 5, 206, 188, 70, 219, 62, 188, 230, 211, 31, 61, 71, 212, 184, 188, 126, 129, 89, 60, 20, 21, 41, 61, 81, 37, 21, 189, 234, 233, 94, 60, 119, 30, 122, 60, 131, 228, 25, 188, 201, 241, 43, 189, 25, 43, 140, 187, 11, 184, 111, 188, 249, 255, 5, 61, 12, 172, 8, 61, 215, 45, 62, 61, 227, 86, 45, 189, 32, 154, 249, 60, 209, 194, 147, 188, 97, 88, 50, 61, 247, 231, 52, 187, 223, 183, 17, 61, 80, 200, 255, 188, 48, 141, 87, 187, 176, 64, 222, 60, 59, 185, 40, 189, 182, 228, 4, 189, 85, 107, 6, 61, 119, 237, 6, 189, 84, 193, 108, 60, 103, 30, 206, 188, 236, 116, 244, 188, 165, 119, 17, 189, 33, 199, 225, 187, 76, 158, 122, 188, 61, 253, 39, 188, 65, 159, 48, 189, 226, 173, 233, 60, 48, 38, 29, 61, 212, 73, 9, 61, 186, 165, 162, 60, 56, 108, 163, 60, 201, 254, 152, 186, 198, 53, 105, 60, 41, 189, 242, 188, 143, 180, 195, 188, 227, 192, 57, 189, 70, 28, 213, 60, 40, 105, 173, 188, 77, 27, 38, 61, 91, 108, 48, 189, 108, 167, 125, 60, 150, 104, 205, 60, 47, 190, 207, 188, 27, 158, 174, 59, 123, 170, 35, 59, 150, 39, 16, 61, 103, 39, 147, 60, 58, 122, 22, 189, 218, 10, 4, 61, 128, 76, 34, 60, 75, 162, 140, 188, 234, 186, 33, 189, 179, 51, 24, 189, 193, 169, 45, 61, 225, 28, 173, 188, 94, 54, 50, 189, 134, 75, 191, 186, 78, 42, 63, 60, 104, 186, 237, 60, 66, 199, 10, 61, 86, 226, 177, 60, 242, 87, 182, 188, 82, 51, 21, 187, 8, 22, 27, 60, 147, 225, 119, 60, 24, 180, 15, 187, 14, 126, 61, 189, 210, 169, 178, 186, 90, 106, 117, 60, 193, 92, 103, 188, 60, 28, 178, 59, 78, 74, 84, 60, 140, 15, 22, 189, 109, 72, 66, 60, 118, 187, 56, 60, 108, 153, 90, 188, 195, 29, 47, 189, 229, 190, 77, 188, 200, 73, 177, 59, 111, 72, 214, 188, 179, 118, 53, 60, 215, 162, 128, 188, 107, 189, 210, 188, 172, 122, 17, 61, 189, 47, 202, 60, 133, 29, 30, 61, 235, 252, 247, 60, 247, 86, 172, 187, 8, 85, 14, 61, 19, 124, 64, 61, 28, 245, 104, 59, 85, 242, 192, 60, 201, 38, 165, 188, 246, 247, 114, 188, 217, 204, 170, 187, 138, 164, 254, 60, 253, 92, 160, 60, 168, 185, 27, 61, 141, 13, 30, 61, 243, 83, 244, 60, 40, 85, 15, 189, 74, 79, 195, 58, 60, 140, 18, 61, 102, 242, 212, 60, 136, 45, 22, 189, 191, 202, 83, 60, 151, 101, 180, 58, 155, 142, 125, 60, 241, 241, 47, 61, 167, 177, 245, 187, 55, 52, 184, 60, 171, 83, 3, 189, 63, 50, 32, 61, 70, 60, 7, 189, 96, 177, 40, 61, 57, 105, 246, 59, 153, 87, 239, 185, 107, 82, 4, 61, 6, 16, 12, 189, 121, 244, 135, 60, 33, 228, 79, 188, 183, 237, 16, 61, 240, 249, 89, 188, 170, 251, 3, 189, 213, 104, 60, 189, 121, 38, 111, 188, 227, 169, 63, 188, 9, 64, 214, 60, 24, 163, 59, 61, 89, 233, 37, 189, 173, 79, 239, 187, 206, 150, 218, 58, 190, 152, 166, 60, 85, 61, 19, 189, 168, 96, 23, 60, 225, 63, 53, 189, 156, 138, 35, 189, 71, 32, 150, 60, 197, 226, 43, 59, 232, 230, 140, 188, 63, 231, 230, 60, 18, 61, 249, 186, 248, 167, 58, 189, 98, 193, 243, 187, 160, 24, 69, 187, 91, 48, 167, 59, 10, 112, 131, 60, 208, 242, 209, 60, 15, 59, 232, 60, 132, 83, 248, 60, 188, 40, 31, 188, 28, 225, 26, 61, 227, 31, 197, 188, 100, 84, 10, 61, 173, 226, 29, 189, 79, 194, 187, 60, 100, 199, 16, 188, 171, 13, 105, 188, 3, 182, 5, 189, 68, 141, 94, 187, 68, 31, 189, 186, 108, 216, 139, 187, 190, 252, 247, 60, 47, 110, 149, 188, 187, 93, 31, 61, 98, 186, 249, 188, 2, 82, 177, 185, 144, 158, 9, 189, 127, 181, 23, 188, 78, 95, 150, 60, 128, 130, 198, 60, 45, 111, 245, 58, 190, 29, 63, 189, 225, 146, 70, 187, 242, 152, 8, 189, 41, 124, 225, 60, 61, 32, 220, 188, 48, 242, 23, 60, 45, 120, 50, 188, 204, 253, 45, 189, 137, 120, 179, 59, 12, 5, 102, 59, 240, 169, 123, 60, 232, 0, 30, 61, 173, 97, 233, 60, 226, 228, 52, 189, 96, 225, 79, 189, 236, 209, 27, 187, 213, 133, 255, 60, 54, 180, 115, 188, 13, 0, 200, 188, 112, 198, 49, 189, 12, 46, 138, 188, 75, 220, 34, 60, 110, 11, 193, 60, 63, 119, 42, 61, 216, 205, 48, 58, 75, 201, 42, 61, 140, 47, 31, 61, 169, 250, 246, 59, 133, 134, 27, 189, 218, 221, 187, 60, 161, 20, 59, 61, 140, 208, 28, 189, 30, 192, 150, 60, 176, 217, 14, 186, 253, 41, 1, 189, 136, 2, 28, 60, 105, 46, 214, 188, 200, 3, 184, 60, 117, 198, 248, 188, 59, 231, 3, 61, 226, 23, 16, 189, 164, 179, 42, 58, 239, 139, 66, 188, 206, 251, 239, 60, 240, 39, 37, 61, 187, 81, 218, 188, 58, 140, 99, 188, 33, 185, 250, 60, 119, 208, 236, 60, 50, 115, 249, 188, 250, 13, 100, 187, 123, 203, 222, 188, 212, 112, 245, 188, 49, 190, 81, 187, 27, 76, 43, 60, 199, 224, 88, 188, 53, 185, 46, 189, 171, 160, 6, 61, 173, 65, 143, 60, 148, 140, 25, 189, 82, 123, 173, 188, 89, 144, 63, 189, 126, 102, 193, 187, 46, 241, 149, 187, 29, 58, 11, 61, 139, 202, 41, 61, 158, 238, 13, 61, 216, 175, 50, 60, 164, 224, 236, 60, 193, 208, 76, 59, 215, 205, 177, 188, 95, 33, 122, 59, 86, 199, 219, 188, 183, 169, 10, 189, 225, 88, 82, 60, 63, 160, 67, 189, 199, 196, 188, 188, 27, 190, 45, 188, 130, 112, 132, 188, 61, 232, 8, 189, 77, 161, 196, 187, 1, 88, 37, 189, 18, 156, 212, 187, 209, 231, 159, 188, 46, 159, 247, 188, 224, 180, 3, 189, 133, 65, 163, 60, 200, 104, 4, 189, 0, 219, 1, 189, 121, 144, 57, 189, 71, 179, 46, 61, 151, 124, 205, 57, 90, 231, 51, 189, 91, 238, 75, 189, 17, 151, 208, 60, 158, 68, 10, 61, 89, 64, 225, 59, 31, 162, 157, 188, 226, 77, 126, 60, 116, 254, 48, 189, 213, 131, 160, 60, 250, 158, 32, 59, 28, 221, 218, 187, 130, 94, 174, 60, 207, 35, 245, 188, 51, 246, 34, 61, 116, 73, 47, 187, 226, 28, 57, 188, 113, 2, 8, 61, 166, 218, 115, 60, 17, 54, 105, 188, 226, 184, 197, 60, 145, 57, 145, 58, 203, 48, 52, 60, 176, 26, 219, 60, 252, 106, 26, 189, 92, 119, 142, 58, 242, 178, 241, 60, 21, 208, 223, 60, 72, 254, 1, 189, 110, 105, 176, 60, 94, 206, 72, 60, 227, 76, 240, 60, 155, 232, 207, 188, 99, 222, 30, 61, 39, 3, 88, 188, 210, 123, 122, 188, 106, 254, 22, 61, 237, 159, 47, 188, 83, 120, 47, 189, 131, 65, 227, 186, 77, 39, 30, 187, 37, 189, 253, 187, 208, 232, 122, 188, 138, 159, 21, 189, 164, 12, 62, 188, 86, 216, 148, 188, 93, 244, 207, 60, 111, 142, 32, 189, 129, 63, 206, 188, 120, 17, 54, 61, 173, 247, 138, 60, 106, 197, 39, 61, 246, 171, 57, 189, 110, 6, 55, 61, 173, 224, 198, 60, 77, 230, 54, 61, 200, 232, 33, 188, 114, 215, 115, 187, 88, 230, 204, 188, 146, 25, 157, 59, 182, 17, 72, 188, 247, 153, 38, 60, 171, 131, 62, 60, 127, 163, 181, 60, 22, 222, 95, 60, 2, 112, 50, 61, 249, 160, 22, 189, 14, 218, 236, 60, 4, 198, 211, 187, 238, 81, 10, 189, 84, 174, 49, 188, 53, 194, 194, 60, 70, 20, 186, 188, 155, 223, 73, 59, 65, 228, 21, 59, 243, 249, 51, 188, 126, 143, 236, 188, 173, 217, 1, 189, 10, 9, 224, 187, 177, 83, 48, 189, 77, 84, 30, 61, 234, 122, 86, 187, 92, 98, 72, 59, 244, 238, 225, 59, 200, 253, 26, 61, 244, 153, 13, 188, 185, 141, 35, 61, 59, 186, 17, 61, 121, 186, 208, 59, 148, 125, 48, 61, 89, 197, 186, 185, 190, 87, 237, 188, 67, 113, 52, 61, 149, 200, 177, 188, 62, 26, 173, 59, 70, 232, 163, 60, 128, 71, 14, 189, 224, 5, 68, 189, 88, 104, 45, 189, 159, 168, 111, 188, 140, 122, 24, 61, 254, 194, 57, 189, 220, 231, 25, 189, 71, 211, 222, 60, 156, 0, 47, 189, 184, 218, 13, 61, 251, 138, 40, 60, 78, 238, 42, 188, 125, 195, 55, 188, 109, 253, 145, 58, 4, 247, 133, 188, 81, 129, 25, 189, 29, 251, 191, 60, 62, 151, 23, 186, 172, 77, 161, 186, 172, 123, 106, 187, 202, 138, 237, 188, 82, 92, 178, 60, 202, 9, 12, 189, 120, 170, 139, 60, 229, 94, 139, 60, 3, 175, 48, 188, 204, 102, 9, 58, 196, 128, 147, 188, 144, 203, 228, 188, 207, 185, 142, 60, 18, 94, 65, 61, 215, 184, 154, 59, 175, 126, 93, 60, 249, 198, 178, 60, 187, 1, 41, 189, 30, 122, 224, 188, 89, 122, 46, 189, 230, 110, 68, 189, 10, 11, 46, 61, 244, 1, 39, 60, 30, 95, 12, 61, 151, 41, 24, 188, 139, 122, 49, 61, 155, 95, 204, 188, 81, 246, 29, 188, 175, 13, 173, 188, 159, 106, 4, 189, 136, 114, 140, 188, 159, 50, 98, 186, 65, 78, 83, 188, 36, 161, 165, 60, 81, 14, 16, 188, 85, 13, 45, 59, 33, 28, 113, 60, 224, 1, 142, 60, 181, 164, 61, 60, 183, 7, 52, 189, 135, 21, 19, 189, 197, 110, 240, 59, 87, 158, 0, 60, 248, 104, 244, 188, 81, 148, 16, 61, 66, 62, 139, 60, 191, 152, 50, 61, 6, 83, 21, 61, 113, 209, 8, 189, 192, 100, 52, 61, 138, 145, 23, 61, 84, 237, 164, 60, 168, 157, 12, 189, 171, 194, 30, 61, 87, 197, 207, 188, 163, 36, 143, 60, 146, 26, 47, 188, 245, 90, 252, 60, 228, 32, 56, 188, 80, 151, 204, 60, 141, 28, 162, 57, 36, 97, 167, 188, 228, 153, 207, 188, 235, 246, 50, 61, 155, 105, 108, 188, 206, 92, 33, 61, 251, 36, 31, 60, 20, 115, 4, 61, 116, 154, 172, 58, 64, 212, 43, 61, 42, 126, 181, 60, 174, 100, 46, 189, 135, 83, 124, 59, 174, 68, 154, 187, 224, 86, 46, 61, 254, 104, 240, 60, 67, 45, 147, 187, 182, 57, 149, 188, 80, 42, 197, 57, 211, 36, 204, 188, 60, 180, 69, 188, 3, 97, 31, 61, 199, 36, 44, 60, 155, 191, 146, 188, 22, 134, 83, 188, 8, 6, 30, 188, 252, 136, 68, 61, 185, 11, 61, 189, 155, 1, 20, 61, 141, 18, 71, 189, 66, 153, 68, 60, 162, 201, 107, 188, 121, 220, 32, 188, 160, 47, 26, 60, 49, 213, 16, 61, 137, 2, 130, 188, 188, 249, 58, 189, 45, 142, 95, 60, 253, 141, 65, 61, 183, 30, 209, 60, 106, 18, 108, 60, 49, 184, 136, 60, 1, 155, 59, 61, 239, 211, 163, 188, 92, 194, 65, 189, 47, 211, 238, 188, 188, 190, 188, 60, 85, 87, 57, 188, 218, 203, 162, 186, 43, 35, 84, 59, 47, 157, 69, 187, 80, 29, 206, 187, 185, 208, 207, 188, 31, 254, 34, 189, 131, 45, 63, 61, 27, 171, 2, 189, 7, 206, 62, 59, 113, 50, 200, 187, 224, 107, 202, 188, 97, 53, 7, 189, 152, 67, 15, 60, 17, 209, 144, 188, 172, 202, 154, 187, 56, 217, 51, 61, 188, 82, 188, 60, 72, 30, 40, 61, 223, 134, 35, 188, 189, 242, 241, 186, 21, 15, 59, 61, 233, 169, 44, 189, 76, 30, 76, 188, 180, 62, 149, 185, 93, 177, 95, 60, 255, 80, 106, 188, 60, 233, 235, 58, 16, 154, 107, 60, 68, 54, 13, 61, 208, 20, 250, 60, 54, 106, 228, 188, 109, 209, 23, 61, 208, 143, 8, 61, 227, 55, 71, 60, 180, 151, 244, 60, 228, 77, 122, 188, 223, 248, 54, 189, 4, 20, 41, 189, 111, 140, 203, 60, 99, 69, 211, 60, 183, 101, 103, 59, 218, 25, 28, 188, 254, 164, 24, 189, 139, 8, 18, 189, 179, 30, 187, 60, 214, 115, 41, 61, 68, 27, 48, 61, 98, 36, 54, 189, 5, 66, 72, 189, 204, 177, 38, 188, 179, 157, 40, 61, 119, 10, 49, 60, 228, 132, 34, 61, 225, 77, 132, 188, 234, 92, 168, 60, 184, 193, 184, 188, 250, 162, 32, 60, 31, 182, 58, 61, 171, 213, 198, 60, 96, 60, 14, 60, 46, 240, 181, 188, 243, 16, 150, 187, 134, 141, 97, 60, 33, 139, 72, 189, 43, 237, 62, 189, 47, 182, 111, 188, 253, 164, 18, 60, 22, 122, 42, 189, 133, 154, 43, 189, 104, 231, 81, 188, 151, 187, 236, 188, 179, 126, 199, 188, 234, 111, 218, 188, 248, 232, 226, 188, 99, 34, 147, 188, 234, 210, 85, 60, 249, 152, 164, 187, 243, 87, 81, 186, 249, 199, 49, 187, 13, 185, 148, 188, 144, 69, 172, 59, 70, 132, 142, 188, 11, 179, 196, 188, 136, 180, 152, 188, 241, 146, 30, 61, 61, 187, 137, 60, 247, 110, 227, 60, 229, 111, 54, 187, 191, 11, 143, 188, 193, 101, 73, 189, 44, 100, 21, 189, 116, 136, 38, 189, 197, 121, 218, 59, 129, 83, 152, 60, 74, 217, 193, 57, 46, 46, 221, 60, 16, 225, 7, 61, 152, 134, 63, 188, 16, 129, 125, 60, 211, 169, 57, 188, 149, 39, 188, 187, 177, 39, 99, 187, 157, 60, 38, 189, 238, 15, 2, 61, 87, 112, 39, 189, 214, 146, 156, 60, 77, 50, 162, 60, 245, 35, 181, 56, 67, 100, 44, 61, 95, 171, 254, 187, 123, 21, 52, 189, 233, 179, 8, 61, 98, 34, 111, 188, 249, 135, 197, 60, 254, 93, 83, 188, 84, 246, 225, 60, 57, 142, 143, 60, 71, 73, 176, 60, 96, 13, 84, 59, 189, 113, 27, 189, 168, 145, 140, 60, 249, 255, 11, 61, 70, 61, 222, 59, 183, 87, 250, 188, 128, 103, 137, 60, 209, 116, 10, 59, 46, 195, 38, 187, 91, 146, 202, 60, 42, 231, 191, 188, 246, 0, 66, 189, 52, 207, 200, 188, 208, 166, 201, 59, 111, 148, 32, 61, 43, 250, 45, 61, 39, 117, 38, 189, 134, 191, 50, 189, 98, 41, 31, 186, 213, 239, 72, 187, 198, 184, 71, 187, 149, 180, 13, 189, 115, 245, 8, 189, 152, 73, 205, 187, 41, 196, 4, 60, 212, 187, 52, 189, 91, 159, 17, 189, 0, 22, 28, 61, 247, 120, 102, 188, 240, 12, 152, 187, 221, 140, 139, 187, 6, 177, 244, 188, 73, 8, 155, 188, 198, 60, 72, 187, 162, 87, 208, 60, 213, 223, 222, 188, 155, 35, 253, 59, 48, 135, 147, 188, 42, 254, 4, 61, 104, 41, 134, 60, 49, 241, 72, 188, 88, 102, 12, 189, 97, 48, 145, 59, 86, 77, 181, 60, 169, 90, 73, 189, 85, 14, 180, 60, 134, 35, 16, 189, 192, 254, 135, 187, 89, 193, 38, 189, 229, 176, 206, 187, 140, 242, 173, 188, 115, 48, 64, 189, 226, 106, 47, 60, 65, 107, 4, 61, 145, 145, 153, 60, 203, 107, 86, 60, 95, 158, 62, 189, 221, 237, 150, 188, 202, 79, 22, 189, 80, 177, 40, 61, 224, 29, 206, 59, 127, 162, 238, 59, 173, 142, 66, 189, 202, 211, 82, 188, 48, 214, 41, 189, 20, 106, 24, 61, 44, 163, 51, 61, 226, 114, 18, 188, 143, 243, 39, 61, 132, 96, 144, 188, 133, 15, 169, 60, 252, 104, 23, 60, 101, 107, 169, 188, 52, 133, 86, 188, 37, 96, 166, 60, 43, 215, 157, 59, 181, 248, 192, 60, 206, 230, 130, 58, 101, 240, 134, 188, 244, 147, 16, 58, 102, 115, 175, 60, 58, 150, 6, 61, 45, 228, 27, 61, 119, 7, 131, 60, 227, 55, 10, 189, 188, 151, 71, 189, 153, 67, 184, 187, 210, 76, 5, 61, 136, 243, 0, 189, 110, 1, 39, 189, 98, 229, 57, 59, 233, 77, 8, 61, 131, 129, 15, 61, 243, 199, 136, 60, 92, 35, 205, 188, 155, 128, 41, 61, 236, 165, 85, 188, 228, 1, 240, 59, 239, 162, 63, 189, 11, 147, 33, 60, 233, 196, 18, 61, 211, 250, 205, 60, 64, 249, 160, 59, 232, 39, 240, 186, 247, 36, 60, 189, 74, 136, 40, 58, 216, 67, 3, 60, 175, 131, 56, 189, 100, 180, 199, 188, 1, 28, 11, 60, 60, 4, 185, 60, 33, 249, 26, 189, 211, 198, 238, 60, 68, 238, 128, 60, 92, 99, 63, 189, 86, 199, 38, 61, 245, 34, 28, 61, 81, 12, 147, 188, 85, 208, 26, 61, 175, 227, 104, 187, 63, 101, 141, 60, 3, 135, 1, 188, 3, 79, 211, 60, 173, 77, 2, 188, 211, 110, 128, 60, 174, 199, 69, 60, 114, 183, 8, 189, 111, 223, 27, 189, 244, 100, 25, 187, 25, 94, 162, 187, 75, 197, 161, 188, 140, 137, 203, 186, 20, 212, 64, 188, 10, 120, 121, 187, 1, 60, 77, 60, 152, 175, 30, 60, 42, 134, 226, 188, 198, 133, 12, 189, 208, 176, 23, 189, 214, 220, 69, 189, 108, 40, 13, 61, 91, 203, 50, 60, 62, 11, 222, 60, 98, 159, 240, 60, 197, 141, 115, 60, 154, 106, 26, 189, 238, 194, 76, 59, 246, 111, 3, 189, 143, 124, 83, 61, 41, 121, 181, 188, 192, 230, 235, 187, 154, 35, 44, 189, 52, 143, 1, 61, 83, 43, 43, 61, 115, 13, 8, 61, 218, 67, 78, 189, 86, 144, 11, 61, 46, 189, 250, 60, 148, 219, 239, 188, 203, 192, 47, 61, 165, 50, 145, 188, 201, 14, 39, 61, 184, 218, 15, 189, 242, 78, 146, 60, 157, 136, 55, 61, 183, 117, 32, 186, 233, 143, 74, 61, 15, 24, 177, 187, 235, 37, 239, 59, 104, 26, 179, 188, 135, 31, 63, 61, 63, 205, 117, 60, 203, 19, 246, 60, 135, 109, 192, 187, 145, 79, 148, 60, 149, 161, 59, 61, 78, 233, 122, 188, 187, 216, 28, 189, 76, 86, 14, 189, 143, 102, 237, 188, 146, 19, 57, 188, 58, 145, 128, 187, 195, 2, 175, 60, 192, 52, 129, 59, 175, 83, 6, 61, 47, 236, 161, 60, 15, 70, 13, 61, 166, 71, 167, 59, 202, 249, 91, 60, 18, 139, 15, 61, 130, 234, 28, 61, 231, 37, 13, 189, 190, 11, 104, 189, 53, 245, 223, 188, 187, 230, 12, 187, 22, 77, 45, 189, 176, 183, 22, 61, 145, 5, 129, 60, 198, 242, 29, 61, 243, 181, 192, 188, 200, 8, 179, 188, 53, 128, 9, 61, 21, 91, 50, 189, 31, 115, 43, 189, 67, 204, 103, 57, 41, 144, 102, 188, 132, 87, 201, 188, 189, 13, 213, 58, 108, 185, 154, 59, 216, 152, 247, 188, 218, 68, 207, 59, 233, 36, 108, 60, 39, 195, 104, 60, 169, 80, 186, 188, 18, 146, 159, 187, 33, 197, 128, 60, 179, 25, 252, 60, 89, 46, 105, 188, 4, 241, 112, 189, 80, 106, 9, 61, 138, 236, 0, 61, 159, 152, 29, 60, 79, 6, 56, 189, 185, 226, 67, 60, 96, 200, 148, 60, 241, 72, 63, 61, 10, 75, 75, 189, 206, 25, 22, 61, 88, 118, 105, 188, 16, 126, 106, 188, 78, 14, 30, 61, 195, 134, 195, 188, 161, 1, 204, 60, 246, 93, 16, 189, 56, 1, 141, 60, 157, 7, 181, 60, 85, 45, 251, 187, 96, 122, 168, 188, 128, 164, 170, 60, 146, 214, 177, 187, 103, 241, 66, 60, 142, 161, 3, 61, 253, 165, 135, 187, 99, 204, 51, 189, 85, 150, 0, 189, 83, 81, 15, 61, 90, 116, 216, 60, 137, 178, 130, 60, 67, 72, 28, 189, 119, 81, 251, 60, 221, 141, 45, 61, 135, 122, 232, 60, 228, 154, 217, 188, 84, 107, 251, 187, 15, 5, 218, 59, 249, 114, 163, 59, 193, 43, 17, 189, 8, 105, 153, 59, 142, 224, 160, 56, 253, 186, 71, 188, 77, 138, 171, 60, 139, 1, 36, 189, 184, 162, 158, 187, 148, 205, 121, 188, 87, 171, 50, 189, 27, 69, 155, 188, 195, 119, 181, 58, 99, 168, 137, 60, 118, 216, 73, 187, 81, 241, 175, 60, 102, 178, 191, 188, 61, 37, 22, 189, 44, 79, 230, 60, 139, 73, 100, 189, 172, 251, 77, 61, 118, 80, 39, 59, 242, 247, 36, 60, 28, 231, 61, 189, 56, 99, 185, 60, 205, 97, 167, 187, 32, 104, 114, 184, 242, 219, 167, 188, 93, 110, 78, 60, 6, 163, 206, 60, 9, 224, 39, 187, 55, 62, 160, 60, 127, 204, 2, 188, 146, 219, 65, 189, 104, 224, 47, 189, 43, 54, 61, 61, 255, 36, 175, 60, 9, 175, 48, 189, 149, 180, 194, 188, 62, 175, 111, 188, 31, 162, 150, 185, 27, 7, 227, 188, 239, 69, 84, 189, 26, 203, 195, 188, 97, 132, 68, 60, 133, 218, 14, 188, 132, 145, 203, 59, 1, 61, 192, 59, 182, 49, 5, 61, 182, 108, 110, 60, 235, 57, 204, 60, 81, 160, 4, 189, 109, 64, 131, 188, 84, 40, 66, 189, 199, 234, 107, 187, 232, 10, 5, 61, 196, 58, 98, 188, 120, 254, 59, 60, 157, 219, 77, 188, 57, 232, 74, 188, 218, 205, 115, 61, 7, 170, 232, 188, 81, 92, 86, 189, 82, 156, 149, 188, 70, 168, 19, 189, 189, 54, 146, 188, 120, 92, 230, 60, 200, 175, 37, 188, 29, 93, 218, 187, 208, 174, 250, 60, 107, 141, 27, 188, 79, 77, 31, 61, 39, 9, 203, 188, 20, 49, 38, 189, 112, 201, 190, 188, 41, 5, 202, 188, 87, 77, 82, 188, 133, 24, 45, 189, 218, 31, 72, 187, 155, 16, 90, 189, 17, 233, 186, 186, 242, 191, 21, 189, 230, 118, 132, 189, 132, 15, 132, 188, 196, 93, 250, 188, 165, 10, 211, 60, 239, 26, 106, 188, 108, 48, 45, 189, 82, 229, 32, 189, 58, 126, 0, 61, 211, 140, 151, 187, 203, 250, 135, 188, 186, 181, 105, 189, 132, 70, 65, 188, 152, 100, 167, 58, 182, 82, 6, 189, 203, 254, 27, 188, 16, 178, 220, 60, 205, 68, 10, 61, 187, 207, 85, 189, 27, 