
const unsigned char model[] = {
  28, 0, 0, 0, 84, 70, 76, 51, 20, 0, 32, 0, 28, 0, 24, 0, 20, 0, 16, 0, 12, 0, 0, 0, 8, 0, 4, 0, 20, 0, 0, 0, 28, 0, 0, 0, 136, 0, 0, 0, 224, 0, 0, 0, 88, 48, 5, 0, 104, 48, 5, 0, 188, 55, 5, 0, 3, 0, 0, 0, 1, 0, 0, 0, 4, 0, 0, 0, 154, 206, 250, 255, 12, 0, 0, 0, 28, 0, 0, 0, 56, 0, 0, 0, 15, 0, 0, 0, 115, 101, 114, 118, 105, 110, 103, 95, 100, 101, 102, 97, 117, 108, 116, 0, 1, 0, 0, 0, 4, 0, 0, 0, 148, 255, 255, 255, 12, 0, 0, 0, 4, 0, 0, 0, 7, 0, 0, 0, 100, 101, 110, 115, 101, 95, 51, 0, 1, 0, 0, 0, 4, 0, 0, 0, 138, 207, 250, 255, 4, 0, 0, 0, 14, 0, 0, 0, 99, 111, 110, 118, 50, 100, 95, 49, 95, 105, 110, 112, 117, 116, 0, 0, 2, 0, 0, 0, 52, 0, 0, 0, 4, 0, 0, 0, 220, 255, 255, 255, 15, 0, 0, 0, 4, 0, 0, 0, 19, 0, 0, 0, 67, 79, 78, 86, 69, 82, 83, 73, 79, 78, 95, 77, 69, 84, 65, 68, 65, 84, 65, 0, 8, 0, 12, 0, 8, 0, 4, 0, 8, 0, 0, 0, 14, 0, 0, 0, 4, 0, 0, 0, 19, 0, 0, 0, 109, 105, 110, 95, 114, 117, 110, 116, 105, 109, 101, 95, 118, 101, 114, 115, 105, 111, 110, 0, 16, 0, 0, 0, 116, 47, 5, 0, 108, 47, 5, 0, 72, 47, 5, 0, 40, 8, 5, 0, 248, 7, 5, 0, 104, 7, 5, 0, 80, 7, 5, 0, 192, 4, 0, 0, 176, 0, 0, 0, 168, 0, 0, 0, 160, 0, 0, 0, 152, 0, 0, 0, 144, 0, 0, 0, 136, 0, 0, 0, 104, 0, 0, 0, 4, 0, 0, 0, 70, 208, 250, 255, 4, 0, 0, 0, 84, 0, 0, 0, 12, 0, 0, 0, 8, 0, 14, 0, 8, 0, 4, 0, 8, 0, 0, 0, 16, 0, 0, 0, 36, 0, 0, 0, 0, 0, 6, 0, 8, 0, 4, 0, 6, 0, 0, 0, 4, 0, 0, 0, 0, 0, 0, 0, 0, 0, 10, 0, 16, 0, 12, 0, 8, 0, 4, 0, 10, 0, 0, 0, 2, 0, 0, 0, 2, 0, 0, 0, 4, 0, 0, 0, 6, 0, 0, 0, 50, 46, 49, 50, 46, 48, 0, 0, 166, 208, 250, 255, 4, 0, 0, 0, 16, 0, 0, 0, 49, 46, 53, 46, 48, 0, 0, 0, 0, 0, 0, 0, 0, 0, 0, 0, 28, 202, 250, 255, 32, 202, 250, 255, 36, 202, 250, 255, 40, 202, 250, 255, 44, 202, 250, 255, 214, 208, 250, 255, 4, 0, 0, 0, 0, 4, 0, 0, 215, 163, 20, 62, 250, 158, 171, 58, 168, 47, 161, 189, 50, 252, 79, 61, 118, 214, 230, 189, 110, 175, 32, 61, 235, 107, 197, 190, 39, 208, 191, 190, 78, 141, 139, 60, 75, 67, 125, 190, 205, 52, 73, 190, 188, 214, 191, 190, 119, 92, 211, 190, 241, 122, 242, 60, 170, 17, 141, 62, 48, 207, 86, 62, 177, 198, 111, 190, 105, 139, 183, 62, 171, 109, 33, 190, 160, 51, 168, 190, 196, 212, 251, 60, 16, 100, 11, 190, 100, 140, 169, 62, 50, 37, 67, 190, 96, 205, 129, 190, 106, 71, 241, 190, 152, 198, 125, 62, 6, 78, 19, 62, 168, 20, 238, 189, 5, 206, 180, 190, 2, 27, 109, 190, 84, 148, 218, 190, 60, 19, 37, 62, 144, 89, 183, 190, 185, 118, 187, 190, 180, 188, 170, 190, 115, 226, 206, 189, 153, 9, 136, 190, 30, 204, 55, 61, 192, 157, 176, 190, 177, 206, 109, 190, 150, 152, 51, 62, 186, 210, 175, 61, 72, 20, 184, 62, 172, 4, 167, 62, 84, 72, 102, 62, 14, 126, 251, 190, 35, 83, 14, 190, 205, 54, 145, 190, 74, 155, 45, 190, 208, 217, 233, 61, 182, 127, 144, 62, 221, 109, 93, 190, 76, 17, 59, 190, 62, 69, 139, 189, 60, 62, 219, 61, 122, 88, 2, 62, 220, 37, 158, 190, 115, 56, 135, 62, 193, 73, 148, 62, 12, 38, 82, 62, 199, 30, 180, 190, 194, 193, 169, 190, 0, 184, 209, 62, 21, 63, 180, 190, 102, 181, 193, 190, 65, 77, 224, 189, 85, 31, 204, 190, 91, 148, 43, 188, 87, 198, 248, 190, 190, 135, 185, 61, 139, 108, 136, 61, 227, 148, 142, 190, 253, 133, 11, 61, 249, 169, 72, 62, 101, 47, 200, 189, 57, 91, 214, 62, 95, 108, 0, 189, 5, 218, 196, 62, 164, 70, 151, 189, 66, 89, 126, 62, 218, 61, 158, 189, 239, 140, 176, 190, 143, 236, 21, 62, 194, 131, 75, 190, 164, 201, 43, 62, 12, 30, 48, 190, 237, 154, 2, 190, 213, 92, 230, 189, 153, 14, 194, 190, 145, 62, 172, 190, 252, 22, 172, 62, 41, 222, 27, 190, 216, 27, 26, 62, 106, 37, 91, 61, 92, 16, 182, 190, 166, 213, 44, 62, 135, 10, 149, 190, 92, 2, 80, 62, 98, 15, 237, 190, 201, 7, 24, 62, 138, 163, 27, 62, 172, 183, 92, 62, 160, 192, 129, 62, 217, 103, 192, 61, 79, 105, 9, 191, 42, 4, 129, 62, 189, 23, 51, 190, 131, 6, 81, 61, 2, 31, 75, 190, 130, 63, 63, 190, 12, 197, 103, 190, 18, 202, 127, 62, 138, 202, 26, 61, 67, 25, 188, 61, 60, 21, 79, 61, 141, 7, 90, 190, 215, 136, 223, 189, 80, 52, 83, 62, 26, 42, 134, 60, 148, 24, 169, 62, 191, 200, 176, 190, 171, 213, 214, 190, 104, 63, 182, 190, 140, 20, 161, 61, 147, 157, 101, 62, 57, 175, 50, 190, 9, 255, 186, 190, 124, 148, 163, 190, 37, 140, 214, 62, 115, 52, 152, 190, 120, 17, 215, 190, 153, 115, 48, 60, 223, 41, 142, 190, 205, 155, 2, 60, 89, 119, 113, 62, 27, 28, 72, 62, 72, 94, 180, 190, 163, 73, 170, 190, 219, 166, 65, 62, 112, 222, 40, 61, 108, 166, 14, 62, 8, 133, 16, 62, 43, 139, 54, 190, 165, 24, 85, 62, 146, 210, 107, 62, 245, 188, 196, 189, 116, 112, 185, 62, 85, 78, 51, 190, 40, 189, 75, 62, 191, 86, 148, 188, 48, 223, 189, 190, 173, 26, 193, 190, 177, 255, 133, 62, 33, 244, 48, 61, 59, 142, 185, 190, 253, 237, 21, 189, 154, 158, 182, 190, 214, 1, 165, 190, 114, 164, 250, 190, 175, 200, 139, 189, 181, 168, 108, 190, 93, 35, 30, 61, 229, 253, 59, 189, 75, 152, 60, 190, 21, 248, 9, 190, 166, 127, 192, 61, 76, 31, 141, 62, 207, 206, 147, 62, 170, 6, 53, 189, 197, 161, 246, 189, 20, 248, 255, 190, 20, 207, 132, 190, 197, 8, 210, 60, 63, 14, 148, 62, 12, 154, 147, 62, 199, 58, 40, 190, 120, 200, 165, 62, 189, 236, 152, 189, 211, 87, 131, 190, 28, 103, 224, 189, 139, 114, 21, 190, 173, 142, 185, 190, 179, 37, 38, 61, 188, 191, 170, 190, 13, 171, 22, 189, 211, 26, 253, 61, 167, 107, 188, 190, 241, 93, 68, 61, 97, 132, 134, 62, 220, 18, 147, 190, 21, 198, 183, 62, 161, 205, 152, 61, 81, 182, 138, 190, 138, 153, 225, 61, 29, 2, 90, 61, 237, 226, 199, 188, 212, 157, 160, 62, 228, 116, 77, 190, 139, 238, 164, 190, 110, 133, 228, 61, 247, 86, 42, 62, 190, 92, 246, 61, 133, 182, 34, 189, 1, 172, 66, 189, 48, 255, 151, 62, 12, 42, 247, 190, 60, 2, 4, 61, 200, 108, 107, 62, 129, 223, 153, 190, 159, 40, 230, 190, 148, 195, 255, 60, 112, 128, 29, 190, 57, 25, 42, 190, 251, 72, 182, 190, 96, 140, 190, 62, 128, 160, 152, 59, 13, 204, 116, 62, 1, 164, 85, 61, 230, 144, 197, 190, 150, 8, 94, 62, 217, 122, 192, 189, 179, 49, 96, 62, 59, 13, 238, 190, 2, 239, 151, 190, 104, 143, 159, 60, 179, 75, 60, 60, 181, 91, 9, 188, 198, 133, 109, 62, 229, 195, 227, 189, 71, 202, 174, 62, 168, 104, 205, 189, 164, 155, 149, 61, 215, 114, 214, 62, 109, 25, 47, 62, 197, 138, 39, 62, 65, 219, 30, 190, 115, 250, 97, 190, 204, 6, 161, 190, 232, 181, 136, 62, 70, 95, 230, 190, 75, 202, 96, 190, 123, 27, 139, 62, 186, 141, 128, 61, 128, 109, 119, 62, 163, 120, 153, 62, 36, 188, 236, 60, 156, 127, 137, 190, 171, 252, 36, 190, 31, 117, 198, 62, 98, 183, 238, 189, 34, 56, 145, 59, 168, 122, 112, 190, 138, 103, 191, 60, 5, 10, 183, 62, 187, 98, 81, 190, 226, 212, 250, 255, 4, 0, 0, 0, 128, 2, 5, 0, 53, 82, 13, 61, 88, 205, 245, 188, 112, 152, 46, 61, 228, 35, 170, 60, 70, 0, 103, 61, 109, 75, 230, 60, 7, 60, 183, 189, 196, 119, 25, 189, 125, 118, 122, 189, 180, 45, 9, 61, 112, 200, 116, 60, 33, 31, 88, 61, 56, 9, 112, 61, 192, 34, 72, 187, 116, 169, 55, 61, 143, 145, 199, 61, 255, 12, 77, 188, 209, 11, 155, 61, 43, 148, 160, 58, 69, 34, 139, 60, 66, 155, 142, 61, 19, 224, 83, 189, 106, 142, 10, 62, 27, 21, 180, 188, 198, 21, 218, 187, 76, 235, 79, 189, 250, 225, 0, 60, 52, 222, 40, 61, 0, 100, 15, 189, 151, 172, 12, 61, 153, 233, 232, 187, 16, 85, 170, 188, 236, 198, 37, 61, 169, 216, 96, 61, 86, 235, 240, 59, 94, 56, 6, 189, 108, 201, 128, 60, 87, 195, 71, 62, 123, 74, 121, 61, 248, 52, 37, 60, 100, 240, 29, 61, 52, 103, 209, 58, 78, 195, 221, 61, 137, 151, 247, 60, 149, 91, 149, 58, 28, 8, 208, 187, 255, 164, 164, 61, 200, 22, 208, 188, 56, 36, 104, 60, 69, 96, 224, 189, 35, 211, 21, 60, 154, 37, 41, 61, 31, 39, 241, 61, 246, 158, 114, 60, 174, 127, 145, 188, 161, 112, 242, 60, 42, 219, 156, 60, 137, 7, 202, 61, 149, 5, 100, 61, 153, 157, 26, 61, 49, 213, 251, 188, 239, 30, 90, 61, 183, 192, 168, 188, 104, 133, 150, 61, 107, 155, 163, 61, 34, 120, 158, 61, 140, 216, 53, 187, 176, 157, 110, 188, 230, 220, 135, 187, 135, 77, 236, 188, 65, 99, 135, 61, 73, 118, 180, 60, 131, 185, 35, 61, 220, 206, 47, 61, 117, 30, 37, 188, 171, 215, 19, 61, 142, 135, 185, 61, 50, 193, 194, 61, 79, 214, 71, 61, 184, 150, 179, 188, 15, 117, 204, 188, 199, 172, 159, 60, 95, 248, 28, 61, 163, 106, 116, 61, 250, 176, 251, 188, 58, 175, 145, 188, 170, 161, 243, 60, 150, 233, 48, 189, 223, 88, 207, 188, 139, 203, 40, 189, 175, 63, 96, 188, 46, 66, 30, 60, 161, 212, 212, 61, 252, 215, 38, 189, 18, 193, 174, 189, 236, 161, 75, 188, 31, 142, 150, 61, 211, 97, 150, 59, 36, 121, 201, 59, 162, 200, 134, 189, 53, 76, 159, 60, 248, 9, 222, 61, 218, 64, 214, 60, 129, 9, 224, 61, 4, 79, 238, 60, 164, 108, 66, 61, 188, 148, 9, 61, 27, 92, 5, 61, 7, 38, 187, 60, 180, 104, 143, 61, 188, 72, 131, 61, 218, 125, 158, 61, 75, 164, 100, 188, 6, 168, 134, 185, 58, 162, 145, 189, 209, 141, 34, 57, 75, 134, 215, 61, 57, 16, 138, 189, 110, 158, 161, 61, 227, 76, 119, 189, 61, 234, 9, 190, 218, 151, 193, 61, 208, 157, 6, 61, 147, 201, 215, 61, 115, 36, 73, 189, 131, 55, 131, 188, 21, 107, 207, 61, 26, 225, 147, 61, 254, 80, 29, 187, 54, 113, 155, 61, 59, 115, 69, 61, 43, 11, 38, 61, 218, 234, 229, 59, 50, 117, 190, 188, 176, 91, 162, 61, 52, 51, 151, 61, 59, 25, 189, 60, 51, 129, 11, 189, 71, 192, 95, 60, 171, 118, 10, 57, 17, 169, 184, 60, 8, 114, 36, 61, 212, 94, 134, 61, 32, 144, 228, 61, 77, 214, 66, 189, 151, 169, 99, 61, 124, 200, 145, 61, 43, 190, 165, 60, 149, 67, 232, 60, 111, 194, 225, 60, 89, 65, 25, 61, 250, 145, 86, 61, 65, 62, 65, 61, 248, 77, 227, 61, 221, 107, 19, 60, 29, 205, 212, 60, 84, 236, 24, 188, 131, 101, 48, 61, 41, 62, 5, 61, 230, 247, 179, 61, 7, 177, 137, 61, 126, 69, 129, 188, 204, 174, 130, 185, 89, 34, 208, 61, 22, 73, 170, 61, 91, 143, 231, 61, 108, 133, 15, 61, 230, 54, 203, 188, 16, 100, 198, 60, 30, 155, 6, 61, 174, 20, 52, 61, 110, 211, 174, 60, 241, 115, 56, 61, 89, 50, 142, 61, 156, 87, 163, 61, 16, 191, 35, 62, 253, 218, 178, 60, 1, 238, 163, 189, 33, 218, 88, 61, 199, 178, 205, 189, 186, 145, 147, 61, 98, 164, 197, 60, 208, 46, 28, 189, 123, 49, 252, 61, 146, 53, 112, 189, 153, 23, 15, 62, 54, 17, 162, 60, 139, 50, 94, 188, 13, 229, 171, 61, 238, 250, 196, 60, 103, 176, 181, 61, 6, 34, 68, 189, 159, 180, 128, 189, 70, 3, 181, 61, 184, 225, 132, 189, 213, 79, 210, 60, 208, 123, 221, 188, 44, 30, 47, 189, 95, 180, 139, 61, 76, 46, 141, 189, 15, 216, 224, 60, 149, 93, 28, 189, 216, 48, 51, 189, 152, 60, 17, 62, 64, 226, 150, 189, 128, 67, 174, 61, 170, 228, 90, 189, 189, 23, 182, 189, 130, 196, 154, 61, 239, 102, 126, 58, 147, 160, 32, 61, 127, 214, 15, 189, 77, 192, 116, 189, 21, 27, 178, 61, 219, 230, 74, 189, 61, 241, 235, 60, 100, 72, 139, 189, 240, 213, 18, 189, 27, 214, 140, 61, 4, 177, 6, 60, 1, 88, 142, 59, 60, 118, 126, 189, 36, 29, 100, 188, 30, 165, 58, 62, 243, 181, 133, 189, 249, 76, 47, 61, 225, 13, 141, 189, 219, 178, 103, 188, 5, 56, 223, 61, 102, 87, 144, 189, 77, 145, 35, 188, 227, 91, 45, 187, 196, 237, 10, 61, 29, 41, 12, 62, 62, 20, 203, 189, 242, 218, 2, 61, 79, 215, 119, 189, 113, 216, 17, 189, 76, 5, 140, 61, 74, 48, 66, 61, 192, 189, 129, 61, 126, 55, 10, 188, 233, 19, 181, 58, 231, 145, 206, 61, 55, 35, 166, 61, 128, 171, 201, 61, 206, 232, 170, 187, 191, 168, 213, 188, 212, 14, 26, 62, 15, 196, 134, 61, 111, 159, 45, 59, 28, 80, 67, 60, 99, 22, 190, 60, 19, 34, 10, 62, 146, 178, 4, 189, 182, 16, 149, 61, 37, 43, 136, 189, 201, 40, 141, 188, 252, 83, 6, 62, 9, 237, 169, 59, 15, 58, 94, 61, 99, 53, 74, 60, 40, 117, 74, 61, 210, 23, 3, 62, 76, 124, 135, 189, 21, 61, 184, 188, 176, 100, 84, 61, 134, 183, 66, 61, 196, 165, 219, 61, 254, 33, 253, 189, 219, 96, 233, 59, 109, 49, 100, 61, 244, 142, 48, 60, 225, 128, 162, 188, 60, 18, 115, 188, 44, 101, 99, 61, 82, 198, 37, 60, 175, 171, 240, 186, 229, 158, 118, 61, 32, 86, 130, 60, 157, 68, 22, 61, 179, 125, 174, 61, 9, 30, 255, 186, 9, 24, 48, 61, 93, 158, 12, 60, 201, 62, 16, 188, 156, 26, 219, 61, 245, 215, 216, 187, 167, 235, 99, 61, 212, 218, 75, 188, 154, 174, 76, 61, 186, 117, 167, 61, 157, 219, 178, 60, 113, 222, 193, 58, 111, 246, 79, 61, 105, 209, 208, 61, 89, 80, 117, 61, 78, 165, 209, 60, 204, 115, 196, 60, 73, 125, 231, 60, 15, 214, 50, 60, 91, 211, 141, 61, 169, 217, 133, 61, 54, 160, 199, 61, 120, 233, 72, 61, 158, 122, 165, 61, 127, 121, 190, 61, 245, 108, 116, 61, 230, 180, 49, 61, 129, 67, 233, 189, 140, 29, 30, 189, 0, 184, 14, 62, 242, 26, 237, 188, 33, 198, 255, 60, 215, 179, 174, 189, 164, 133, 188, 187, 132, 143, 248, 61, 153, 130, 180, 60, 66, 133, 11, 188, 87, 216, 129, 186, 149, 9, 247, 60, 89, 8, 114, 61, 161, 9, 180, 61, 245, 226, 167, 61, 111, 97, 155, 61, 12, 106, 153, 61, 107, 207, 179, 61, 3, 11, 215, 58, 54, 90, 162, 188, 175, 246, 56, 61, 134, 170, 2, 61, 52, 54, 13, 61, 169, 84, 22, 61, 46, 82, 171, 188, 120, 218, 226, 188, 144, 103, 20, 59, 213, 147, 190, 61, 123, 179, 139, 60, 237, 54, 109, 61, 139, 51, 132, 189, 154, 49, 31, 61, 184, 225, 190, 61, 14, 145, 133, 187, 135, 39, 247, 60, 9, 190, 51, 189, 59, 166, 52, 187, 90, 182, 141, 61, 44, 125, 20, 60, 73, 164, 10, 189, 61, 123, 139, 188, 179, 93, 48, 61, 137, 8, 10, 62, 217, 116, 232, 186, 109, 170, 39, 61, 232, 157, 53, 61, 148, 236, 242, 60, 106, 11, 102, 61, 148, 141, 17, 61, 52, 215, 21, 61, 5, 164, 14, 60, 173, 187, 61, 187, 155, 23, 234, 61, 163, 95, 165, 61, 208, 157, 68, 61, 178, 236, 171, 188, 253, 175, 179, 60, 180, 4, 174, 61, 8, 220, 34, 61, 227, 138, 8, 61, 238, 135, 99, 188, 147, 166, 91, 189, 17, 207, 15, 62, 53, 130, 34, 61, 81, 204, 169, 188, 209, 20, 180, 188, 125, 185, 221, 187, 117, 11, 232, 61, 53, 125, 88, 61, 15, 127, 17, 189, 204, 158, 133, 61, 237, 72, 150, 61, 152, 141, 39, 61, 165, 211, 233, 188, 7, 38, 18, 189, 238, 190, 231, 60, 227, 55, 9, 62, 167, 12, 21, 62, 199, 83, 118, 188, 246, 249, 252, 59, 30, 74, 137, 61, 239, 145, 243, 60, 72, 233, 14, 62, 63, 37, 212, 61, 243, 157, 183, 60, 175, 0, 48, 188, 239, 133, 180, 61, 168, 152, 14, 62, 19, 88, 155, 188, 127, 214, 83, 61, 168, 247, 35, 61, 230, 15, 164, 61, 225, 198, 44, 62, 239, 2, 242, 60, 29, 54, 111, 58, 39, 135, 59, 61, 223, 121, 238, 60, 6, 184, 206, 61, 149, 7, 205, 61, 92, 225, 7, 189, 61, 56, 33, 189, 215, 230, 149, 188, 225, 150, 101, 61, 12, 177, 79, 188, 160, 248, 100, 60, 170, 195, 105, 60, 242, 234, 230, 61, 210, 164, 51, 61, 40, 216, 212, 188, 86, 198, 151, 60, 43, 130, 95, 61, 226, 79, 113, 61, 118, 130, 246, 61, 56, 16, 90, 188, 216, 153, 142, 61, 32, 88, 159, 61, 65, 125, 88, 188, 138, 111, 33, 62, 249, 57, 19, 61, 24, 227, 34, 61, 101, 114, 103, 189, 9, 198, 105, 187, 180, 189, 109, 61, 147, 25, 37, 61, 125, 132, 188, 61, 129, 112, 106, 189, 191, 211, 186, 60, 169, 88, 36, 61, 229, 147, 186, 61, 207, 1, 177, 61, 129, 55, 173, 60, 193, 45, 89, 61, 211, 204, 159, 61, 71, 90, 165, 61, 8, 214, 142, 189, 118, 52, 162, 61, 143, 97, 169, 60, 57, 80, 132, 61, 35, 68, 219, 61, 235, 233, 61, 61, 50, 20, 123, 61, 190, 6, 149, 61, 78, 52, 64, 61, 223, 227, 119, 61, 106, 107, 100, 61, 193, 199, 139, 61, 144, 132, 175, 61, 146, 103, 156, 61, 85, 237, 5, 189, 64, 139, 215, 187, 50, 26, 87, 61, 218, 77, 30, 61, 150, 112, 53, 61, 219, 112, 162, 60, 23, 209, 79, 61, 246, 243, 118, 61, 184, 100, 47, 60, 39, 133, 67, 61, 236, 2, 164, 61, 201, 187, 182, 61, 24, 55, 226, 61, 72, 216, 218, 61, 193, 133, 217, 60, 214, 15, 175, 60, 173, 54, 137, 61, 78, 234, 186, 60, 91, 30, 86, 61, 64, 236, 19, 189, 156, 91, 129, 60, 252, 139, 18, 189, 151, 232, 0, 188, 84, 197, 109, 61, 128, 50, 129, 61, 74, 160, 177, 186, 243, 109, 5, 60, 56, 126, 77, 188, 216, 169, 241, 60, 33, 234, 4, 188, 171, 215, 132, 61, 106, 218, 18, 61, 204, 133, 142, 187, 160, 238, 202, 59, 205, 247, 165, 60, 181, 250, 44, 61, 155, 38, 152, 58, 108, 91, 231, 61, 97, 134, 125, 61, 37, 71, 177, 189, 8, 188, 68, 61, 58, 15, 131, 60, 157, 86, 168, 60, 29, 83, 91, 61, 70, 183, 198, 188, 34, 136, 247, 188, 189, 144, 79, 61, 38, 93, 189, 187, 84, 201, 245, 60, 65, 22, 66, 189, 110, 227, 129, 61, 120, 149, 146, 61, 200, 138, 19, 189, 116, 227, 234, 60, 30, 160, 152, 188, 232, 208, 7, 61, 136, 120, 210, 187, 137, 106, 202, 188, 17, 36, 149, 60, 4, 204, 177, 189, 23, 184, 178, 61, 62, 125, 115, 60, 1, 152, 21, 61, 207, 108, 128, 61, 148, 124, 175, 189, 10, 13, 137, 188, 42, 203, 246, 61, 167, 116, 17, 61, 29, 103, 212, 188, 63, 22, 230, 189, 13, 163, 32, 61, 106, 81, 128, 61, 4, 106, 65, 61, 23, 246, 56, 60, 164, 0, 167, 189, 109, 76, 88, 189, 44, 206, 50, 61, 113, 135, 121, 60, 56, 160, 224, 60, 0, 242, 12, 188, 190, 226, 87, 61, 142, 56, 0, 62, 1, 214, 74, 61, 38, 107, 2, 61, 61, 117, 240, 188, 104, 79, 50, 61, 196, 251, 198, 61, 63, 114, 18, 60, 58, 164, 55, 61, 183, 96, 7, 189, 36, 209, 120, 61, 33, 209, 91, 61, 192, 56, 26, 61, 71, 168, 184, 188, 57, 254, 199, 189, 241, 250, 6, 61, 157, 159, 5, 62, 178, 68, 213, 188, 35, 107, 51, 61, 241, 239, 94, 189, 210, 193, 64, 189, 43, 62, 221, 61, 76, 56, 157, 189, 12, 6, 201, 186, 55, 151, 54, 189, 49, 37, 225, 188, 107, 151, 22, 62, 58, 93, 147, 59, 37, 188, 12, 189, 62, 230, 5, 189, 222, 6, 153, 61, 245, 87, 118, 61, 29, 80, 49, 60, 105, 243, 228, 60, 203, 134, 133, 189, 233, 128, 64, 61, 40, 158, 172, 61, 203, 228, 62, 188, 85, 169, 106, 61, 4, 91, 194, 189, 233, 216, 53, 61, 104, 235, 23, 62, 68, 161, 62, 189, 126, 21, 130, 61, 30, 21, 251, 188, 142, 162, 158, 187, 32, 60, 168, 61, 241, 127, 138, 188, 28, 125, 119, 187, 139, 134, 144, 189, 104, 130, 89, 61, 59, 18, 21, 62, 111, 250, 96, 188, 107, 146, 235, 186, 167, 20, 239, 189, 74, 4, 150, 188, 181, 240, 6, 62, 10, 98, 200, 189, 92, 26, 106, 188, 136, 93, 147, 189, 83, 186, 91, 61, 168, 100, 143, 61, 127, 54, 161, 188, 177, 92, 33, 187, 198, 168, 181, 189, 221, 150, 122, 188, 215, 87, 204, 61, 58, 26, 124, 60, 71, 160, 194, 60, 65, 14, 219, 189, 144, 222, 135, 60, 164, 96, 222, 60, 217, 246, 6, 61, 81, 86, 173, 60, 219, 168, 210, 189, 40, 14, 20, 61, 160, 248, 82, 61, 18, 69, 183, 61, 215, 163, 163, 188, 111, 214, 149, 189, 76, 187, 3, 189, 41, 236, 180, 61, 10, 137, 163, 61, 1, 176, 135, 60, 99, 228, 181, 189, 48, 46, 12, 61, 242, 81, 43, 61, 221, 219, 14, 61, 130, 228, 157, 61, 255, 63, 123, 189, 227, 183, 22, 189, 181, 148, 70, 61, 238, 173, 52, 60, 90, 27, 202, 188, 101, 161, 198, 188, 89, 250, 18, 189, 94, 91, 178, 61, 197, 9, 9, 189, 100, 100, 55, 60, 8, 5, 61, 189, 12, 195, 15, 188, 81, 115, 92, 61, 241, 220, 206, 189, 39, 102, 166, 189, 153, 127, 141, 189, 115, 91, 133, 61, 40, 143, 215, 61, 153, 41, 154, 189, 89, 88, 14, 189, 237, 120, 85, 189, 96, 43, 211, 61, 214, 238, 95, 61, 139, 201, 144, 187, 239, 35, 127, 59, 220, 41, 238, 59, 190, 20, 198, 60, 28, 165, 26, 60, 249, 37, 53, 188, 141, 70, 51, 61, 27, 17, 3, 61, 172, 248, 160, 60, 255, 143, 207, 187, 46, 53, 136, 59, 198, 108, 74, 60, 11, 107, 169, 187, 182, 144, 144, 188, 225, 249, 140, 61, 253, 105, 240, 188, 25, 154, 133, 61, 117, 34, 19, 60, 165, 205, 198, 186, 129, 44, 160, 61, 156, 138, 124, 60, 197, 241, 155, 61, 195, 253, 185, 187, 242, 6, 13, 61, 93, 174, 204, 60, 113, 102, 185, 61, 192, 124, 166, 60, 189, 21, 34, 60, 39, 232, 97, 61, 253, 60, 23, 60, 195, 111, 190, 60, 172, 72, 145, 189, 139, 148, 11, 187, 193, 50, 34, 61, 117, 169, 66, 187, 121, 69, 179, 61, 167, 213, 131, 60, 85, 228, 124, 189, 221, 28, 70, 60, 235, 149, 110, 61, 5, 188, 4, 188, 151, 205, 252, 58, 41, 0, 246, 59, 28, 24, 89, 61, 37, 246, 46, 188, 247, 73, 19, 189, 161, 45, 226, 188, 93, 147, 157, 60, 41, 25, 129, 188, 184, 233, 221, 60, 7, 185, 111, 61, 29, 193, 12, 61, 107, 43, 51, 60, 119, 83, 156, 188, 221, 76, 110, 188, 88, 39, 83, 189, 252, 31, 132, 188, 173, 232, 69, 189, 197, 200, 251, 187, 249, 17, 13, 61, 173, 38, 32, 189, 145, 242, 7, 189, 191, 228, 94, 189, 24, 48, 226, 188, 138, 119, 82, 61, 111, 79, 55, 61, 70, 254, 24, 61, 68, 37, 207, 189, 148, 46, 196, 189, 24, 139, 172, 59, 45, 185, 247, 60, 133, 222, 142, 189, 242, 194, 168, 189, 189, 74, 152, 60, 232, 228, 97, 61, 171, 144, 220, 188, 209, 38, 9, 189, 200, 55, 23, 189, 64, 186, 97, 60, 113, 239, 55, 188, 184, 62, 39, 189, 148, 251, 27, 189, 53, 88, 169, 189, 13, 115, 61, 189, 69, 199, 134, 61, 247, 0, 191, 188, 50, 185, 151, 60, 173, 240, 148, 189, 152, 150, 240, 188, 2, 21, 219, 59, 87, 3, 8, 189, 209, 21, 164, 61, 16, 124, 146, 188, 70, 129, 222, 187, 43, 149, 176, 188, 110, 244, 50, 60, 2, 116, 23, 60, 64, 42, 234, 188, 173, 119, 180, 189, 119, 13, 92, 188, 127, 188, 239, 60, 38, 13, 148, 188, 130, 107, 53, 59, 227, 95, 195, 188, 24, 187, 19, 60, 234, 177, 206, 60, 89, 251, 77, 188, 106, 255, 100, 189, 127, 31, 4, 61, 125, 255, 240, 188, 167, 73, 177, 60, 67, 37, 39, 189, 122, 59, 140, 188, 10, 47, 3, 59, 170, 102, 108, 189, 44, 163, 144, 188, 89, 181, 169, 186, 232, 242, 126, 188, 218, 54, 74, 189, 102, 111, 64, 189, 31, 200, 72, 189, 125, 142, 129, 60, 26, 199, 164, 59, 197, 13, 247, 188, 156, 242, 63, 189, 4, 175, 10, 189, 139, 76, 32, 189, 177, 82, 130, 189, 130, 94, 143, 60, 131, 78, 116, 189, 138, 7, 5, 189, 162, 96, 134, 187, 255, 242, 203, 189, 110, 55, 107, 59, 57, 116, 75, 189, 191, 130, 56, 61, 168, 73, 90, 60, 115, 240, 213, 189, 116, 166, 25, 61, 156, 35, 186, 188, 77, 198, 216, 188, 0, 156, 251, 188, 83, 121, 24, 189, 162, 54, 191, 60, 171, 7, 48, 58, 239, 2, 30, 61, 137, 4, 208, 188, 12, 206, 20, 188, 194, 26, 79, 60, 85, 29, 168, 60, 79, 70, 4, 189, 181, 178, 81, 189, 249, 237, 218, 58, 99, 29, 229, 188, 32, 252, 154, 60, 15, 75, 30, 188, 137, 6, 123, 61, 227, 160, 30, 189, 46, 65, 213, 188, 49, 75, 223, 57, 199, 59, 148, 60, 178, 253, 15, 60, 180, 98, 152, 189, 49, 25, 73, 60, 144, 201, 63, 60, 164, 8, 92, 61, 228, 161, 19, 59, 48, 123, 203, 59, 178, 40, 18, 189, 226, 83, 72, 189, 201, 198, 251, 59, 41, 31, 165, 186, 61, 215, 100, 189, 89, 65, 9, 61, 50, 31, 176, 60, 253, 225, 140, 188, 147, 121, 59, 61, 185, 79, 152, 186, 172, 91, 11, 61, 190, 67, 176, 188, 223, 132, 209, 188, 180, 150, 236, 188, 14, 147, 232, 188, 10, 200, 88, 59, 85, 31, 43, 61, 91, 96, 178, 189, 226, 0, 14, 189, 105, 105, 3, 188, 133, 124, 22, 189, 85, 99, 103, 61, 104, 109, 114, 189, 194, 38, 66, 61, 188, 227, 143, 188, 21, 27, 240, 59, 64, 177, 99, 60, 92, 124, 66, 61, 49, 244, 98, 61, 126, 170, 126, 189, 227, 6, 16, 188, 119, 230, 129, 188, 98, 52, 9, 189, 255, 102, 131, 188, 69, 218, 51, 188, 178, 20, 177, 60, 130, 200, 211, 186, 1, 80, 161, 60, 237, 146, 75, 189, 220, 11, 18, 60, 32, 98, 101, 188, 192, 38, 81, 189, 64, 125, 129, 58, 186, 219, 24, 61, 35, 141, 32, 61, 9, 22, 133, 189, 134, 206, 224, 188, 194, 115, 13, 188, 160, 5, 7, 189, 211, 197, 21, 188, 252, 133, 137, 60, 104, 76, 34, 189, 162, 247, 133, 60, 215, 182, 122, 189, 212, 198, 41, 61, 194, 126, 104, 61, 167, 64, 215, 60, 81, 175, 123, 61, 21, 13, 14, 59, 103, 29, 9, 189, 145, 135, 249, 57, 125, 225, 45, 61, 121, 12, 86, 60, 129, 242, 251, 59, 2, 124, 178, 60, 255, 21, 82, 60, 164, 243, 111, 61, 121, 124, 33, 189, 240, 111, 212, 60, 199, 183, 48, 187, 67, 119, 22, 61, 126, 138, 123, 189, 24, 102, 169, 189, 73, 121, 80, 189, 232, 163, 233, 188, 70, 102, 144, 189, 115, 74, 60, 60, 81, 189, 142, 189, 234, 46, 5, 189, 57, 191, 52, 188, 134, 84, 59, 188, 215, 211, 223, 188, 77, 98, 46, 59, 236, 226, 58, 61, 0, 135, 188, 185, 220, 103, 119, 189, 28, 115, 54, 189, 201, 90, 177, 188, 11, 157, 90, 61, 19, 129, 142, 188, 228, 153, 19, 190, 227, 243, 178, 188, 169, 241, 216, 188, 148, 191, 187, 188, 52, 2, 226, 188, 22, 208, 26, 189, 244, 62, 172, 60, 234, 106, 34, 188, 176, 184, 239, 188, 20, 131, 173, 188, 251, 203, 74, 189, 105, 59, 42, 189, 171, 113, 29, 188, 34, 30, 130, 60, 8, 250, 166, 60, 233, 172, 80, 189, 202, 119, 216, 60, 17, 198, 11, 189, 216, 124, 224, 59, 233, 63, 119, 60, 92, 185, 37, 188, 73, 37, 197, 189, 28, 93, 237, 188, 178, 13, 92, 189, 23, 136, 110, 188, 242, 217, 73, 189, 18, 102, 46, 189, 246, 156, 87, 59, 163, 167, 227, 60, 121, 53, 44, 189, 67, 115, 89, 189, 71, 200, 32, 60, 203, 35, 29, 189, 165, 75, 101, 60, 44, 118, 9, 189, 229, 94, 219, 188, 53, 159, 36, 189, 92, 111, 125, 61, 226, 149, 24, 60, 30, 98, 52, 61, 223, 138, 128, 60, 205, 26, 143, 60, 186, 188, 29, 61, 92, 0, 237, 188, 218, 66, 133, 60, 72, 165, 144, 61, 128, 194, 50, 60, 145, 21, 201, 185, 218, 180, 164, 184, 178, 97, 40, 61, 117, 8, 208, 60, 235, 50, 53, 188, 178, 28, 173, 60, 71, 225, 35, 189, 78, 228, 128, 61, 96, 139, 58, 60, 0, 14, 172, 189, 227, 87, 239, 60, 145, 73, 51, 189, 240, 2, 25, 61, 224, 82, 248, 188, 81, 235, 44, 189, 87, 158, 157, 60, 154, 162, 95, 189, 158, 189, 252, 59, 54, 123, 60, 61, 147, 35, 173, 186, 7, 80, 221, 60, 140, 233, 246, 188, 100, 48, 82, 61, 166, 65, 130, 188, 18, 232, 135, 189, 19, 208, 79, 61, 112, 81, 33, 60, 129, 173, 7, 189, 178, 234, 201, 188, 200, 83, 101, 189, 170, 184, 23, 188, 151, 230, 86, 189, 213, 27, 181, 61, 208, 91, 12, 187, 215, 49, 18, 190, 104, 208, 201, 188, 243, 3, 149, 189, 250, 121, 203, 60, 169, 98, 119, 61, 19, 193, 214, 189, 209, 116, 189, 188, 134, 99, 159, 189, 125, 224, 236, 60, 199, 249, 18, 189, 170, 80, 90, 189, 121, 219, 220, 58, 4, 59, 170, 189, 224, 242, 191, 61, 177, 14, 137, 60, 148, 112, 202, 189, 24, 88, 60, 61, 145, 192, 115, 189, 104, 247, 240, 61, 40, 28, 3, 62, 49, 219, 157, 189, 253, 54, 23, 61, 206, 221, 111, 189, 153, 68, 253, 61, 14, 159, 66, 60, 253, 181, 166, 189, 28, 13, 57, 188, 42, 80, 240, 188, 251, 194, 19, 62, 204, 58, 177, 61, 180, 208, 173, 189, 226, 69, 76, 61, 180, 85, 147, 189, 136, 5, 231, 61, 255, 231, 247, 60, 253, 24, 251, 189, 173, 64, 247, 61, 212, 19, 65, 189, 99, 84, 47, 61, 3, 249, 123, 61, 80, 42, 209, 189, 251, 74, 179, 61, 217, 128, 109, 188, 86, 9, 99, 61, 48, 30, 135, 61, 219, 255, 188, 188, 35, 191, 180, 61, 75, 221, 27, 189, 124, 38, 199, 61, 106, 5, 246, 61, 150, 245, 234, 189, 138, 198, 87, 61, 26, 139, 247, 188, 129, 11, 9, 62, 201, 141, 162, 60, 141, 171, 226, 189, 169, 71, 105, 61, 59, 39, 134, 189, 159, 10, 250, 61, 170, 35, 39, 61, 94, 41, 20, 190, 47, 125, 42, 61, 221, 191, 99, 189, 245, 22, 214, 61, 2, 198, 86, 61, 137, 105, 160, 189, 160, 224, 243, 61, 161, 236, 229, 59, 167, 81, 226, 61, 4, 2, 13, 61, 56, 253, 157, 189, 104, 191, 176, 61, 210, 212, 128, 188, 55, 173, 234, 61, 19, 75, 134, 61, 237, 142, 139, 189, 18, 100, 119, 61, 10, 8, 71, 189, 226, 244, 38, 62, 100, 252, 211, 187, 186, 72, 235, 189, 113, 229, 101, 189, 139, 39, 163, 58, 167, 84, 249, 61, 243, 185, 172, 61, 209, 181, 226, 189, 240, 110, 19, 60, 109, 103, 59, 189, 155, 218, 42, 61, 228, 36, 217, 61, 159, 143, 100, 189, 206, 110, 193, 61, 196, 185, 159, 189, 48, 46, 221, 60, 253, 250, 250, 60, 82, 18, 23, 190, 135, 101, 138, 61, 145, 246, 68, 189, 15, 107, 66, 61, 239, 61, 208, 188, 93, 63, 193, 189, 175, 193, 66, 61, 69, 188, 198, 59, 223, 75, 222, 61, 220, 115, 87, 60, 26, 28, 76, 189, 198, 35, 118, 188, 73, 178, 61, 188, 15, 63, 172, 61, 110, 80, 29, 60, 129, 3, 26, 188, 179, 10, 68, 189, 239, 250, 180, 188, 150, 173, 69, 60, 136, 254, 159, 188, 104, 243, 166, 189, 154, 7, 32, 61, 22, 32, 170, 188, 141, 192, 72, 61, 152, 207, 73, 189, 143, 100, 190, 189, 226, 242, 210, 60, 97, 244, 164, 60, 96, 239, 132, 61, 82, 65, 87, 187, 120, 111, 98, 188, 28, 74, 226, 58, 247, 62, 37, 188, 116, 114, 118, 61, 137, 72, 128, 61, 76, 82, 229, 188, 57, 255, 65, 61, 246, 60, 208, 60, 74, 194, 68, 60, 148, 175, 251, 60, 133, 111, 137, 189, 190, 143, 147, 59, 82, 229, 137, 189, 151, 223, 105, 61, 95, 130, 65, 186, 54, 152, 75, 189, 125, 254, 212, 60, 27, 135, 107, 188, 224, 236, 189, 61, 255, 192, 222, 188, 56, 190, 85, 60, 103, 17, 144, 61, 163, 64, 127, 61, 167, 251, 163, 61, 239, 225, 210, 188, 79, 157, 179, 188, 159, 187, 142, 61, 175, 73, 133, 188, 19, 95, 61, 61, 193, 170, 235, 60, 39, 201, 148, 60, 241, 40, 62, 189, 44, 140, 228, 187, 189, 176, 0, 61, 122, 188, 124, 59, 91, 237, 114, 189, 34, 111, 82, 188, 90, 204, 129, 188, 191, 225, 76, 60, 133, 152, 236, 188, 214, 244, 93, 188, 62, 243, 165, 188, 83, 48, 154, 59, 50, 57, 137, 60, 16, 181, 21, 189, 160, 59, 13, 189, 174, 138, 136, 60, 26, 253, 84, 61, 202, 7, 105, 61, 255, 177, 161, 189, 190, 74, 22, 189, 144, 96, 198, 61, 6, 43, 146, 186, 229, 150, 240, 59, 185, 88, 107, 60, 56, 149, 68, 187, 249, 172, 55, 61, 8, 144, 107, 61, 163, 158, 36, 188, 54, 127, 71, 189, 167, 113, 131, 189, 124, 129, 45, 189, 62, 78, 173, 59, 5, 232, 186, 188, 37, 165, 35, 189, 115, 147, 169, 60, 74, 199, 143, 188, 44, 201, 75, 61, 216, 205, 76, 60, 224, 105, 22, 189, 98, 201, 5, 60, 205, 86, 216, 60, 214, 163, 181, 61, 98, 67, 23, 188, 241, 170, 191, 189, 69, 239, 239, 188, 148, 51, 31, 59, 198, 40, 105, 61, 250, 27, 154, 187, 188, 190, 190, 187, 118, 66, 247, 60, 136, 206, 87, 60, 181, 131, 112, 61, 227, 92, 142, 188, 214, 114, 236, 188, 187, 5, 25, 186, 85, 13, 107, 189, 195, 250, 249, 58, 180, 58, 82, 59, 193, 49, 74, 189, 236, 116, 195, 60, 159, 102, 243, 187, 217, 20, 60, 61, 180, 120, 242, 189, 123, 197, 48, 189, 15, 190, 14, 61, 181, 79, 103, 189, 28, 160, 200, 60, 188, 152, 169, 189, 229, 215, 20, 189, 186, 173, 111, 61, 136, 5, 151, 189, 109, 10, 220, 188, 77, 176, 224, 188, 117, 169, 254, 189, 117, 81, 112, 187, 45, 156, 195, 189, 15, 126, 58, 61, 138, 191, 231, 58, 98, 52, 124, 189, 30, 63, 10, 61, 188, 200, 131, 189, 42, 165, 48, 61, 46, 220, 238, 60, 146, 98, 22, 189, 254, 45, 240, 187, 153, 82, 85, 189, 246, 74, 110, 60, 28, 208, 183, 189, 147, 172, 163, 189, 100, 75, 30, 189, 192, 140, 206, 188, 40, 209, 254, 60, 243, 177, 68, 189, 23, 198, 141, 189, 186, 203, 148, 59, 62, 54, 198, 188, 106, 12, 52, 61, 239, 131, 151, 58, 129, 159, 218, 188, 241, 160, 119, 185, 143, 172, 83, 60, 118, 175, 114, 61, 64, 60, 8, 189, 25, 31, 182, 189, 163, 100, 82, 187, 158, 56, 47, 59, 149, 243, 60, 60, 108, 134, 214, 188, 86, 64, 210, 189, 248, 213, 117, 189, 110, 122, 45, 189, 68, 100, 186, 61, 145, 131, 203, 189, 247, 74, 23, 190, 23, 141, 29, 60, 52, 110, 94, 188, 173, 216, 232, 60, 68, 75, 83, 189, 20, 235, 200, 189, 130, 84, 44, 57, 249, 228, 75, 189, 145, 19, 57, 61, 58, 83, 152, 189, 102, 251, 229, 189, 61, 208, 87, 61, 136, 84, 195, 188, 137, 165, 60, 60, 141, 199, 159, 188, 202, 207, 78, 189, 29, 124, 58, 61, 143, 118, 199, 189, 59, 24, 86, 61, 234, 55, 140, 189, 3, 153, 85, 189, 61, 130, 55, 189, 208, 157, 151, 189, 72, 253, 34, 61, 139, 76, 137, 189, 186, 197, 169, 189, 32, 224, 43, 61, 169, 213, 223, 58, 226, 112, 26, 189, 55, 143, 4, 190, 64, 147, 10, 189, 87, 3, 132, 188, 28, 50, 9, 61, 13, 31, 21, 61, 227, 46, 168, 189, 75, 53, 253, 189, 79, 105, 6, 189, 212, 60, 158, 188, 221, 70, 147, 60, 56, 104, 166, 188, 174, 107, 114, 189, 44, 184, 161, 61, 163, 28, 14, 188, 247, 190, 3, 61, 111, 169, 120, 189, 207, 174, 7, 189, 220, 25, 67, 61, 185, 220, 112, 60, 105, 42, 40, 188, 165, 109, 36, 189, 138, 115, 121, 189, 188, 77, 241, 187, 68, 135, 54, 188, 194, 26, 220, 188, 87, 99, 147, 188, 163, 80, 201, 189, 237, 230, 255, 188, 45, 8, 209, 59, 20, 88, 145, 189, 102, 12, 244, 188, 68, 228, 215, 189, 48, 217, 217, 188, 28, 78, 138, 186, 75, 0, 115, 61, 30, 173, 129, 189, 18, 133, 147, 189, 165, 124, 78, 187, 130, 142, 20, 189, 27, 151, 255, 188, 112, 227, 172, 189, 86, 47, 173, 188, 224, 13, 67, 189, 218, 161, 178, 60, 157, 102, 34, 61, 132, 236, 202, 189, 21, 108, 216, 186, 181, 11, 189, 189, 232, 80, 25, 61, 2, 12, 225, 60, 116, 179, 93, 189, 39, 204, 152, 188, 220, 93, 1, 59, 62, 154, 3, 187, 69, 54, 102, 61, 20, 159, 62, 189, 73, 177, 61, 189, 132, 220, 235, 60, 250, 26, 143, 189, 3, 229, 114, 188, 43, 4, 117, 189, 113, 127, 15, 189, 196, 202, 152, 188, 239, 70, 28, 188, 126, 5, 244, 60, 246, 185, 174, 189, 111, 94, 130, 188, 67, 24, 61, 59, 221, 102, 202, 186, 181, 131, 145, 59, 199, 55, 78, 186, 121, 144, 35, 189, 229, 40, 11, 189, 179, 162, 202, 188, 195, 73, 159, 59, 254, 193, 172, 189, 60, 234, 5, 189, 73, 2, 229, 189, 150, 5, 55, 61, 251, 66, 94, 61, 118, 164, 184, 189, 168, 94, 191, 189, 205, 138, 78, 189, 191, 170, 73, 61, 223, 183, 173, 59, 28, 228, 220, 187, 89, 138, 62, 189, 175, 106, 182, 189, 2, 224, 113, 186, 119, 88, 94, 188, 192, 181, 131, 188, 246, 19, 143, 189, 200, 98, 42, 188, 233, 100, 15, 59, 0, 113, 138, 188, 17, 75, 63, 188, 242, 218, 104, 60, 71, 84, 157, 189, 215, 148, 198, 60, 245, 217, 61, 189, 24, 14, 226, 188, 157, 124, 97, 60, 173, 118, 161, 189, 159, 131, 35, 189, 201, 90, 18, 189, 106, 129, 80, 188, 252, 107, 138, 189, 175, 42, 188, 189, 94, 108, 142, 187, 238, 141, 1, 189, 57, 220, 132, 189, 41, 131, 224, 187, 255, 176, 159, 189, 21, 230, 187, 60, 42, 58, 139, 58, 69, 49, 20, 189, 136, 119, 94, 188, 31, 27, 130, 189, 237, 224, 191, 188, 208, 89, 240, 186, 202, 221, 10, 189, 153, 20, 37, 61, 173, 162, 182, 189, 107, 97, 25, 189, 37, 111, 220, 188, 199, 134, 74, 60, 94, 93, 171, 188, 196, 151, 210, 189, 16, 23, 128, 188, 20, 52, 180, 60, 198, 208, 222, 188, 200, 64, 41, 188, 217, 193, 0, 190, 253, 152, 112, 60, 160, 153, 131, 61, 103, 226, 134, 187, 245, 42, 114, 189, 21, 44, 1, 189, 81, 11, 28, 61, 179, 195, 252, 60, 3, 214, 90, 189, 145, 55, 122, 189, 218, 238, 106, 188, 78, 80, 100, 61, 115, 52, 232, 188, 97, 133, 144, 189, 212, 156, 53, 59, 32, 63, 40, 189, 144, 0, 50, 60, 210, 152, 18, 60, 112, 147, 5, 60, 129, 3, 91, 189, 172, 36, 118, 59, 95, 57, 138, 61, 206, 132, 178, 188, 55, 239, 203, 188, 177, 236, 37, 60, 10, 85, 131, 189, 221, 167, 20, 61, 182, 175, 42, 61, 188, 32, 88, 59, 41, 92, 26, 187, 76, 132, 179, 189, 241, 195, 26, 60, 108, 139, 33, 187, 188, 194, 0, 187, 175, 98, 199, 187, 211, 202, 82, 189, 201, 14, 137, 189, 52, 125, 252, 58, 121, 217, 253, 58, 116, 109, 129, 189, 172, 43, 222, 188, 21, 114, 222, 188, 124, 94, 144, 188, 198, 33, 107, 61, 251, 150, 76, 189, 58, 82, 42, 189, 69, 97, 52, 189, 210, 27, 103, 60, 50, 76, 105, 187, 60, 207, 147, 189, 192, 27, 235, 188, 105, 99, 113, 61, 54, 135, 54, 60, 91, 119, 211, 188, 35, 252, 186, 189, 208, 73, 57, 187, 168, 35, 127, 61, 176, 29, 131, 60, 181, 85, 147, 189, 168, 196, 154, 188, 88, 44, 19, 189, 221, 247, 31, 189, 177, 75, 122, 188, 212, 135, 126, 189, 167, 130, 114, 189, 49, 89, 183, 189, 204, 143, 145, 59, 203, 219, 48, 58, 1, 73, 143, 189, 55, 223, 192, 188, 239, 9, 59, 187, 135, 182, 188, 189, 13, 149, 11, 189, 191, 157, 41, 186, 251, 130, 176, 59, 94, 8, 207, 188, 55, 123, 7, 61, 249, 215, 177, 59, 8, 248, 45, 189, 143, 93, 46, 189, 217, 89, 37, 188, 181, 23, 50, 59, 165, 12, 156, 60, 16, 167, 97, 188, 163, 96, 63, 189, 205, 255, 227, 189, 66, 92, 166, 61, 93, 120, 87, 59, 214, 201, 129, 189, 207, 176, 71, 189, 205, 140, 165, 189, 96, 143, 103, 61, 206, 108, 188, 188, 193, 33, 55, 189, 113, 161, 137, 188, 76, 194, 164, 189, 79, 214, 59, 59, 181, 152, 4, 189, 222, 247, 242, 188, 151, 203, 228, 188, 189, 79, 105, 189, 53, 43, 89, 59, 20, 113, 40, 61, 15, 59, 56, 189, 40, 166, 203, 188, 6, 3, 247, 188, 154, 79, 117, 60, 252, 82, 75, 60, 35, 228, 113, 189, 162, 204, 104, 189, 17, 187, 203, 188, 68, 56, 242, 60, 199, 136, 233, 60, 59, 206, 231, 188, 189, 240, 103, 189, 0, 3, 210, 187, 12, 150, 2, 61, 59, 50, 136, 57, 198, 148, 145, 189, 186, 18, 68, 189, 222, 214, 206, 189, 197, 190, 37, 61, 126, 191, 251, 60, 18, 176, 116, 189, 185, 212, 57, 188, 70, 241, 136, 189, 139, 130, 101, 60, 15, 28, 83, 188, 44, 134, 135, 189, 233, 215, 168, 189, 244, 225, 33, 189, 115, 59, 144, 188, 68, 221, 1, 61, 43, 82, 244, 188, 229, 129, 131, 189, 188, 0, 91, 189, 249, 46, 199, 58, 78, 155, 2, 61, 240, 27, 170, 189, 7, 210, 35, 188, 57, 249, 111, 188, 117, 35, 169, 60, 140, 183, 22, 61, 38, 27, 179, 189, 182, 84, 181, 188, 168, 93, 9, 188, 201, 137, 251, 59, 127, 222, 122, 189, 235, 111, 193, 189, 106, 155, 54, 189, 72, 98, 129, 189, 146, 255, 66, 189, 234, 65, 20, 61, 50, 124, 162, 189, 193, 202, 128, 189, 49, 172, 150, 188, 37, 226, 173, 60, 171, 83, 31, 60, 216, 64, 132, 189, 13, 97, 143, 189, 208, 118, 224, 188, 237, 193, 178, 187, 45, 182, 189, 188, 16, 114, 133, 189, 229, 105, 8, 188, 153, 3, 144, 189, 81, 233, 193, 60, 5, 204, 43, 61, 93, 129, 38, 189, 133, 102, 72, 189, 174, 122, 74, 188, 20, 109, 83, 188, 8, 42, 249, 188, 158, 28, 130, 189, 76, 195, 203, 188, 98, 131, 159, 189, 187, 112, 128, 189, 135, 255, 32, 60, 249, 253, 23, 189, 198, 147, 147, 60, 96, 50, 188, 188, 95, 195, 172, 188, 90, 120, 115, 60, 108, 7, 206, 189, 206, 57, 41, 188, 130, 113, 146, 189, 124, 199, 86, 60, 99, 215, 178, 187, 139, 183, 150, 189, 159, 75, 136, 189, 218, 237, 44, 189, 102, 96, 100, 189, 27, 76, 40, 61, 0, 217, 63, 189, 7, 164, 47, 189, 25, 214, 194, 59, 206, 131, 39, 61, 83, 46, 61, 61, 155, 227, 157, 189, 221, 194, 179, 189, 201, 23, 117, 59, 196, 198, 98, 60, 107, 50, 80, 60, 109, 125, 117, 189, 243, 213, 52, 189, 114, 12, 143, 60, 183, 37, 82, 188, 196, 145, 147, 188, 129, 15, 123, 189, 197, 170, 160, 189, 93, 158, 151, 189, 64, 245, 34, 188, 31, 150, 189, 188, 125, 83, 109, 189, 223, 247, 54, 188, 13, 243, 224, 188, 49, 145, 91, 189, 20, 21, 4, 189, 222, 114, 172, 189, 226, 69, 61, 58, 6, 135, 134, 189, 241, 151, 234, 60, 40, 212, 49, 189, 240, 233, 227, 189, 10, 23, 213, 60, 174, 231, 130, 58, 26, 105, 58, 188, 237, 92, 49, 61, 159, 161, 9, 190, 182, 35, 241, 188, 102, 144, 136, 189, 58, 86, 78, 61, 207, 145, 6, 188, 56, 92, 18, 190, 14, 11, 84, 60, 247, 38, 241, 60, 15, 95, 223, 60, 26, 117, 229, 188, 80, 128, 131, 189, 71, 215, 181, 187, 140, 188, 152, 60, 195, 151, 102, 61, 174, 90, 7, 189, 225, 19, 132, 189, 88, 100, 160, 60, 26, 41, 39, 60, 28, 216, 252, 60, 94, 206, 16, 61, 23, 142, 21, 189, 43, 1, 100, 188, 147, 216, 177, 60, 226, 63, 199, 187, 173, 54, 202, 187, 184, 254, 183, 188, 250, 227, 82, 61, 136, 165, 74, 59, 230, 78, 98, 189, 96, 78, 205, 60, 116, 28, 48, 189, 2, 13, 167, 188, 161, 180, 107, 188, 145, 149, 88, 188, 189, 111, 71, 60, 159, 92, 45, 189, 41, 35, 15, 188, 108, 239, 72, 189, 154, 36, 59, 188, 104, 108, 2, 189, 74, 18, 149, 189, 143, 36, 151, 60, 1, 160, 219, 188, 157, 24, 82, 60, 244, 70, 237, 60, 18, 126, 193, 189, 188, 74, 54, 187, 106, 61, 69, 189, 183, 74, 39, 61, 238, 226, 6, 61, 211, 195, 144, 189, 16, 169, 4, 189, 95, 228, 176, 188, 237, 219, 237, 188, 137, 68, 172, 60, 168, 36, 169, 188, 217, 230, 235, 60, 80, 195, 195, 188, 159, 205, 95, 189, 243, 248, 254, 60, 130, 42, 227, 188, 181, 114, 18, 60, 102, 211, 7, 189, 117, 198, 16, 60, 44, 78, 119, 59, 49, 230, 97, 189, 156, 100, 52, 61, 190, 40, 19, 189, 100, 50, 251, 187, 73, 119, 28, 189, 63, 251, 31, 189, 175, 76, 58, 189, 110, 37, 238, 187, 10, 112, 5, 189, 22, 74, 31, 61, 73, 40, 151, 60, 196, 187, 12, 61, 36, 116, 131, 189, 98, 177, 6, 61, 112, 167, 168, 188, 6, 43, 220, 189, 208, 216, 45, 189, 28, 29, 233, 59, 250, 103, 71, 61, 10, 131, 22, 61, 244, 212, 131, 189, 121, 58, 133, 189, 28, 98, 237, 188, 194, 185, 69, 189, 209, 60, 76, 60, 227, 137, 27, 189, 111, 26, 142, 59, 83, 10, 92, 188, 35, 114, 44, 60, 241, 96, 227, 188, 83, 191, 19, 187, 206, 37, 223, 60, 237, 20, 12, 188, 52, 255, 23, 189, 192, 164, 220, 187, 162, 73, 186, 189, 170, 70, 176, 59, 63, 116, 44, 189, 43, 38, 142, 187, 152, 47, 48, 61, 143, 231, 116, 189, 55, 15, 171, 189, 39, 153, 191, 188, 64, 42, 9, 60, 179, 161, 156, 60, 202, 65, 245, 188, 135, 45, 25, 189, 170, 177, 32, 188, 97, 181, 60, 61, 186, 217, 146, 188, 158, 199, 34, 189, 165, 46, 94, 189, 0, 8, 139, 59, 130, 137, 48, 188, 164, 248, 247, 60, 169, 233, 41, 189, 38, 10, 180, 188, 4, 184, 112, 189, 122, 34, 191, 59, 170, 73, 88, 61, 116, 106, 229, 188, 98, 210, 56, 189, 208, 142, 107, 189, 118, 133, 53, 189, 61, 36, 59, 189, 91, 213, 91, 189, 89, 73, 85, 61, 214, 105, 164, 60, 217, 134, 164, 60, 22, 112, 3, 60, 163, 103, 146, 189, 17, 64, 110, 189, 151, 42, 28, 189, 111, 127, 96, 60, 65, 44, 7, 189, 73, 231, 104, 189, 217, 92, 174, 60, 124, 129, 222, 186, 87, 236, 13, 189, 30, 122, 72, 189, 103, 84, 220, 189, 18, 131, 8, 189, 150, 164, 78, 189, 199, 73, 131, 61, 180, 145, 204, 60, 167, 237, 155, 189, 62, 27, 12, 189, 79, 186, 61, 186, 163, 80, 36, 188, 114, 250, 35, 60, 184, 40, 177, 189, 109, 246, 169, 188, 206, 98, 226, 59, 128, 135, 124, 61, 172, 13, 221, 60, 47, 186, 122, 188, 180, 212, 70, 189, 99, 54, 84, 189, 77, 116, 123, 60, 214, 133, 207, 188, 109, 76, 206, 188, 77, 187, 34, 58, 25, 226, 67, 188, 78, 48, 7, 189, 208, 169, 27, 189, 129, 36, 120, 59, 195, 215, 146, 189, 188, 5, 194, 189, 78, 227, 23, 61, 117, 191, 255, 59, 204, 137, 253, 189, 185, 20, 239, 188, 154, 13, 254, 59, 186, 200, 167, 188, 33, 55, 172, 188, 212, 40, 60, 189, 21, 203, 70, 59, 209, 190, 117, 189, 105, 78, 246, 188, 127, 93, 21, 189, 15, 91, 251, 188, 113, 98, 40, 59, 252, 87, 118, 189, 57, 90, 183, 60, 172, 132, 69, 59, 192, 53, 212, 188, 232, 223, 79, 189, 44, 254, 99, 189, 194, 49, 244, 185, 160, 146, 148, 60, 81, 249, 151, 189, 222, 147, 5, 189, 194, 88, 79, 189, 69, 209, 56, 61, 113, 37, 172, 60, 70, 33, 211, 189, 50, 84, 15, 189, 148, 92, 190, 60, 0, 146, 78, 61, 213, 101, 53, 59, 182, 229, 242, 188, 92, 97, 221, 187, 208, 196, 34, 189, 228, 22, 67, 61, 75, 184, 50, 189, 33, 190, 128, 189, 200, 86, 242, 58, 243, 169, 140, 189, 163, 103, 250, 188, 111, 36, 53, 188, 90, 35, 145, 188, 141, 191, 194, 60, 198, 135, 86, 189, 191, 131, 50, 188, 84, 36, 126, 189, 226, 173, 138, 189, 76, 42, 234, 188, 49, 215, 117, 189, 95, 168, 23, 61, 97, 120, 105, 188, 221, 12, 192, 189, 124, 65, 159, 61, 251, 132, 193, 189, 190, 90, 119, 188, 104, 133, 63, 61, 178, 124, 86, 189, 132, 31, 237, 187, 142, 189, 241, 188, 48, 162, 143, 61, 205, 160, 74, 188, 218, 35, 94, 189, 0, 223, 221, 188, 124, 45, 180, 189, 245, 104, 9, 189, 50, 62, 8, 188, 37, 168, 129, 189, 214, 51, 77, 60, 178, 19, 6, 58, 27, 244, 103, 61, 73, 161, 136, 60, 95, 67, 149, 188, 150, 29, 11, 60, 232, 135, 153, 189, 176, 172, 128, 61, 61, 94, 5, 61, 172, 23, 102, 188, 8, 161, 190, 188, 114, 223, 37, 189, 61, 204, 95, 61, 106, 218, 21, 61, 1, 68, 13, 189, 133, 199, 250, 186, 181, 64, 32, 189, 242, 2, 65, 61, 89, 169, 70, 60, 140, 156, 116, 189, 105, 46, 158, 60, 240, 133, 129, 189, 76, 96, 244, 60, 70, 168, 27, 61, 195, 106, 198, 188, 115, 154, 233, 188, 150, 62, 163, 60, 107, 190, 244, 60, 156, 147, 27, 189, 68, 225, 72, 60, 80, 27, 147, 189, 98, 145, 152, 189, 109, 167, 9, 189, 81, 172, 215, 188, 164, 250, 163, 187, 19, 192, 166, 187, 128, 161, 113, 60, 249, 21, 60, 188, 129, 248, 126, 188, 202, 31, 55, 189, 164, 187, 156, 60, 78, 135, 35, 189, 97, 67, 91, 185, 211, 101, 12, 189, 92, 91, 217, 60, 210, 122, 120, 189, 247, 172, 198, 189, 236, 15, 155, 188, 155, 112, 25, 189, 174, 145, 188, 59, 22, 84, 150, 189, 228, 231, 178, 188, 64, 162, 89, 60, 76, 87, 214, 188, 242, 160, 23, 60, 7, 141, 140, 188, 174, 144, 100, 59, 47, 114, 9, 188, 155, 44, 136, 188, 20, 210, 2, 187, 164, 36, 105, 189, 51, 13, 103, 57, 184, 191, 39, 61, 134, 171, 180, 188, 160, 96, 79, 189, 15, 116, 140, 188, 197, 190, 62, 189, 191, 96, 83, 188, 148, 92, 101, 59, 85, 137, 138, 188, 233, 15, 107, 188, 166, 249, 108, 189, 239, 178, 11, 59, 193, 43, 21, 60, 19, 67, 70, 188, 96, 3, 8, 189, 23, 175, 123, 189, 180, 139, 53, 189, 193, 172, 207, 185, 121, 8, 134, 188, 104, 178, 93, 189, 153, 79, 245, 187, 206, 106, 141, 188, 105, 252, 31, 189, 118, 130, 26, 189, 176, 122, 23, 189, 143, 201, 176, 188, 131, 170, 246, 60, 4, 237, 76, 60, 141, 139, 132, 189, 120, 141, 140, 60, 240, 144, 194, 188, 157, 233, 84, 61, 217, 169, 154, 61, 208, 236, 232, 188, 93, 220, 20, 61, 167, 38, 217, 186, 224, 189, 139, 61, 167, 99, 194, 187, 106, 226, 147, 58, 99, 253, 142, 189, 246, 58, 106, 189, 108, 10, 6, 61, 128, 222, 187, 59, 238, 244, 68, 189, 14, 127, 7, 189, 33, 164, 185, 188, 118, 252, 8, 60, 251, 65, 214, 188, 68, 84, 134, 60, 62, 201, 185, 59, 103, 189, 122, 188, 145, 0, 233, 188, 215, 159, 250, 59, 123, 205, 32, 189, 150, 255, 104, 189, 150, 53, 241, 188, 39, 79, 103, 61, 155, 90, 208, 60, 88, 114, 130, 189, 88, 211, 171, 188, 97, 155, 182, 189, 30, 112, 196, 60, 141, 215, 160, 187, 221, 127, 38, 189, 35, 154, 143, 188, 146, 109, 139, 188, 241, 64, 82, 189, 39, 74, 245, 58, 155, 80, 30, 189, 120, 30, 158, 189, 15, 64, 89, 188, 217, 141, 16, 189, 48, 2, 196, 188, 210, 83, 97, 189, 242, 142, 74, 189, 172, 127, 211, 60, 98, 97, 202, 188, 58, 27, 110, 61, 16, 2, 236, 188, 236, 250, 209, 188, 149, 66, 187, 189, 205, 48, 105, 61, 167, 6, 120, 59, 238, 211, 148, 189, 132, 226, 150, 189, 16, 194, 173, 189, 130, 169, 62, 188, 29, 35, 111, 188, 17, 232, 7, 188, 34, 166, 18, 189, 15, 69, 76, 189, 41, 49, 80, 189, 63, 220, 122, 59, 97, 137, 89, 189, 75, 31, 9, 189, 252, 21, 46, 188, 126, 155, 15, 61, 109, 39, 9, 189, 184, 228, 62, 189, 225, 102, 132, 61, 180, 68, 97, 60, 125, 2, 131, 60, 61, 2, 122, 189, 115, 47, 255, 188, 158, 16, 100, 61, 83, 186, 7, 189, 151, 238, 139, 59, 23, 71, 94, 61, 129, 135, 224, 59, 220, 143, 113, 188, 73, 127, 233, 188, 210, 98, 228, 188, 143, 203, 134, 61, 19, 118, 203, 187, 199, 147, 38, 189, 55, 35, 141, 189, 19, 50, 45, 59, 255, 195, 45, 188, 23, 142, 106, 186, 5, 159, 141, 189, 92, 56, 186, 188, 233, 217, 65, 61, 73, 113, 128, 187, 243, 195, 109, 188, 235, 174, 171, 188, 63, 96, 139, 189, 62, 112, 202, 186, 60, 48, 137, 60, 20, 109, 137, 60, 56, 137, 198, 60, 232, 187, 131, 188, 23, 13, 206, 60, 98, 35, 175, 60, 187, 159, 20, 189, 120, 94, 136, 188, 161, 40, 191, 59, 21, 160, 129, 186, 114, 168, 142, 188, 72, 59, 5, 189, 140, 236, 132, 188, 23, 0, 89, 189, 211, 145, 136, 188, 179, 28, 130, 61, 115, 105, 105, 187, 134, 36, 167, 58, 177, 188, 98, 189, 201, 219, 191, 188, 28, 66, 197, 60, 116, 255, 136, 189, 198, 203, 183, 187, 98, 129, 134, 189, 73, 62, 235, 187, 61, 211, 223, 60, 239, 44, 105, 189, 201, 103, 117, 60, 196, 201, 118, 60, 23, 6, 35, 189, 193, 166, 255, 187, 48, 137, 160, 189, 229, 97, 154, 60, 73, 76, 161, 60, 143, 49, 180, 60, 76, 164, 31, 60, 51, 11, 29, 187, 66, 90, 225, 188, 6, 24, 27, 189, 108, 27, 1, 60, 135, 68, 202, 187, 111, 182, 146, 189, 116, 160, 17, 189, 170, 215, 127, 187, 190, 32, 0, 189, 246, 127, 246, 60, 122, 236, 151, 60, 172, 204, 1, 61, 139, 133, 71, 189, 165, 61, 82, 61, 25, 175, 114, 188, 239, 107, 62, 189, 6, 237, 68, 61, 248, 239, 193, 189, 115, 132, 8, 61, 135, 101, 51, 61, 151, 250, 47, 189, 97, 98, 116, 188, 87, 88, 63, 189, 6, 232, 34, 61, 155, 196, 136, 61, 149, 146, 63, 189, 80, 206, 253, 187, 28, 206, 100, 188, 125, 105, 154, 189, 186, 102, 22, 188, 126, 159, 210, 60, 193, 81, 34, 59, 12, 119, 77, 188, 83, 114, 166, 188, 122, 152, 199, 60, 248, 214, 196, 187, 89, 148, 238, 58, 3, 130, 13, 189, 240, 221, 61, 186, 255, 94, 25, 61, 135, 2, 128, 184, 50, 50, 2, 59, 103, 206, 58, 58, 237, 34, 41, 60, 205, 73, 196, 60, 249, 158, 63, 189, 7, 118, 165, 189, 141, 21, 186, 187, 234, 196, 161, 60, 134, 58, 147, 188, 72, 115, 48, 59, 215, 119, 116, 189, 137, 162, 186, 188, 222, 107, 118, 60, 152, 108, 88, 188, 189, 56, 103, 189, 47, 100, 177, 60, 238, 89, 220, 59, 63, 208, 49, 189, 137, 105, 190, 188, 184, 36, 42, 59, 193, 254, 68, 189, 154, 117, 156, 186, 89, 203, 162, 189, 127, 179, 196, 188, 131, 240, 18, 188, 145, 34, 247, 60, 76, 141, 187, 187, 25, 86, 128, 188, 179, 247, 56, 189, 28, 230, 112, 60, 28, 253, 39, 189, 24, 65, 190, 188, 59, 75, 216, 187, 240, 93, 108, 60, 197, 202, 56, 60, 236, 234, 26, 61, 92, 153, 2, 189, 226, 61, 20, 61, 222, 107, 159, 188, 91, 25, 18, 189, 121, 252, 185, 188, 231, 228, 38, 189, 144, 160, 69, 61, 76, 224, 62, 59, 173, 43, 231, 187, 194, 160, 210, 188, 18, 227, 144, 189, 53, 5, 0, 189, 207, 15, 132, 60, 156, 63, 40, 187, 105, 127, 72, 189, 26, 226, 112, 189, 254, 17, 51, 189, 34, 73, 149, 187, 110, 121, 98, 188, 133, 198, 77, 61, 196, 45, 72, 189, 205, 181, 117, 58, 210, 200, 170, 188, 203, 166, 141, 189, 245, 93, 32, 189, 230, 199, 172, 188, 146, 140, 148, 59, 210, 194, 203, 60, 96, 232, 245, 186, 172, 31, 48, 60, 114, 106, 230, 188, 195, 14, 192, 60, 225, 248, 79, 60, 26, 117, 240, 60, 122, 61, 62, 61, 90, 196, 17, 189, 212, 165, 200, 60, 79, 135, 42, 61, 151, 40, 8, 188, 25, 92, 63, 189, 204, 207, 190, 189, 234, 221, 39, 189, 253, 84, 15, 61, 210, 207, 43, 189, 146, 247, 36, 189, 152, 107, 214, 59, 42, 189, 255, 59, 176, 137, 66, 60, 136, 136, 134, 189, 113, 12, 108, 189, 7, 182, 130, 189, 36, 216, 129, 61, 128, 35, 253, 60, 115, 21, 155, 189, 104, 250, 114, 60, 21, 247, 181, 188, 235, 0, 248, 188, 46, 102, 70, 189, 251, 43, 19, 61, 41, 6, 120, 60, 1, 186, 171, 60, 203, 192, 64, 189, 127, 153, 54, 61, 124, 86, 17, 61, 70, 219, 128, 189, 169, 38, 5, 189, 252, 8, 207, 60, 101, 105, 116, 60, 33, 43, 177, 60, 43, 99, 107, 189, 189, 124, 179, 60, 95, 118, 163, 60, 142, 101, 90, 61, 64, 63, 150, 188, 222, 188, 191, 59, 3, 180, 193, 186, 133, 52, 101, 61, 70, 126, 221, 60, 252, 31, 4, 189, 69, 108, 65, 189, 75, 224, 139, 60, 233, 164, 247, 60, 210, 84, 28, 188, 8, 238, 58, 189, 181, 93, 173, 59, 71, 15, 159, 60, 155, 117, 253, 60, 235, 221, 22, 59, 232, 184, 6, 189, 162, 121, 35, 60, 192, 167, 150, 188, 15, 0, 59, 189, 228, 104, 28, 61, 131, 201, 85, 60, 196, 174, 36, 61, 167, 132, 180, 188, 177, 187, 166, 189, 204, 104, 43, 188, 3, 71, 51, 59, 2, 61, 23, 61, 171, 123, 55, 189, 69, 17, 22, 61, 86, 222, 19, 61, 174, 101, 79, 188, 113, 37, 134, 187, 157, 78, 84, 59, 87, 247, 130, 61, 64, 138, 136, 188, 62, 129, 59, 189, 108, 0, 154, 187, 145, 21, 207, 188, 189, 50, 85, 61, 107, 241, 42, 61, 123, 163, 150, 60, 139, 61, 148, 60, 136, 94, 132, 189, 124, 160, 219, 60, 166, 4, 88, 188, 99, 192, 199, 188, 101, 166, 245, 188, 8, 211, 175, 60, 35, 79, 76, 60, 93, 122, 25, 189, 51, 159, 195, 186, 52, 251, 59, 59, 248, 245, 121, 187, 195, 48, 145, 187, 87, 201, 95, 189, 246, 116, 182, 59, 244, 211, 122, 189, 133, 104, 157, 189, 89, 18, 81, 189, 125, 195, 163, 60, 121, 104, 166, 188, 232, 91, 92, 189, 23, 132, 231, 59, 175, 111, 58, 189, 154, 55, 131, 61, 142, 215, 19, 189, 55, 6, 76, 189, 133, 39, 238, 188, 41, 84, 246, 188, 160, 199, 111, 61, 87, 215, 49, 189, 211, 114, 128, 60, 83, 151, 139, 60, 129, 150, 50, 189, 79, 166, 214, 188, 233, 56, 130, 189, 156, 235, 26, 189, 197, 47, 84, 59, 102, 242, 58, 61, 150, 235, 24, 61, 217, 101, 30, 189, 188, 251, 45, 60, 105, 247, 94, 189, 22, 220, 100, 188, 179, 49, 96, 189, 108, 142, 26, 188, 168, 126, 129, 188, 126, 109, 112, 189, 70, 57, 5, 188, 22, 135, 18, 61, 48, 207, 117, 189, 54, 69, 104, 60, 2, 39, 195, 189, 208, 13, 82, 188, 173, 80, 123, 60, 206, 97, 61, 189, 226, 113, 242, 188, 102, 81, 49, 188, 121, 121, 86, 188, 228, 100, 4, 189, 109, 172, 49, 189, 206, 57, 205, 60, 77, 191, 77, 189, 197, 64, 51, 188, 223, 15, 140, 187, 184, 143, 132, 189, 251, 221, 36, 61, 120, 200, 170, 189, 185, 49, 42, 61, 225, 200, 56, 61, 73, 100, 22, 188, 81, 155, 128, 189, 247, 108, 186, 188, 172, 163, 158, 188, 83, 2, 155, 188, 66, 223, 132, 59, 31, 192, 41, 60, 179, 113, 94, 60, 103, 133, 123, 58, 61, 90, 135, 61, 112, 63, 171, 188, 154, 191, 244, 188, 71, 231, 219, 188, 66, 162, 230, 60, 59, 228, 42, 61, 211, 85, 0, 189, 132, 200, 56, 187, 198, 111, 236, 188, 30, 234, 180, 60, 245, 103, 226, 60, 41, 219, 98, 60, 104, 74, 90, 189, 27, 224, 77, 189, 131, 24, 206, 59, 33, 173, 89, 189, 181, 191, 136, 187, 154, 90, 138, 188, 44, 11, 18, 189, 17, 91, 3, 189, 200, 53, 0, 61, 6, 152, 165, 189, 95, 74, 165, 189, 153, 240, 155, 59, 53, 61, 54, 189, 28, 242, 100, 60, 147, 227, 169, 189, 35, 72, 134, 189, 17, 96, 166, 58, 5, 121, 35, 61, 168, 248, 54, 61, 102, 178, 102, 188, 51, 150, 156, 188, 246, 172, 33, 60, 114, 48, 234, 188, 147, 229, 23, 61, 204, 14, 157, 189, 57, 54, 159, 189, 135, 232, 82, 189, 91, 179, 36, 61, 197, 81, 19, 189, 80, 194, 30, 60, 56, 138, 17, 188, 171, 170, 156, 188, 138, 14, 72, 61, 51, 254, 204, 57, 15, 77, 167, 59, 145, 131, 128, 60, 5, 19, 136, 188, 39, 77, 102, 189, 76, 44, 136, 188, 226, 115, 137, 189, 246, 50, 86, 60, 166, 191, 46, 59, 110, 55, 25, 61, 214, 204, 146, 60, 110, 152, 131, 60, 69, 85, 210, 60, 246, 2, 70, 189, 38, 37, 183, 188, 229, 232, 19, 61, 211, 169, 49, 60, 21, 174, 208, 60, 106, 48, 230, 188, 241, 205, 223, 188, 93, 14, 35, 61, 208, 148, 44, 188, 58, 31, 46, 188, 202, 108, 171, 189, 162, 29, 78, 189, 33, 143, 192, 60, 208, 218, 139, 60, 18, 173, 128, 189, 72, 204, 149, 189, 89, 235, 223, 188, 211, 80, 185, 187, 29, 37, 80, 188, 247, 64, 60, 189, 227, 27, 82, 60, 251, 35, 33, 188, 101, 182, 132, 60, 18, 221, 235, 188, 129, 191, 65, 189, 234, 217, 63, 189, 239, 105, 18, 189, 6, 16, 36, 189, 37, 235, 18, 189, 50, 245, 106, 188, 120, 103, 152, 187, 169, 132, 99, 59, 83, 236, 136, 60, 73, 132, 84, 189, 57, 137, 205, 188, 213, 3, 4, 60, 239, 12, 254, 60, 255, 155, 44, 188, 73, 228, 176, 60, 145, 51, 87, 60, 107, 146, 199, 188, 210, 152, 154, 60, 221, 15, 223, 59, 41, 107, 90, 187, 123, 152, 36, 60, 33, 137, 12, 189, 231, 182, 24, 60, 215, 164, 75, 60, 170, 65, 17, 189, 16, 80, 189, 60, 119, 170, 184, 59, 1, 217, 82, 61, 108, 4, 60, 61, 47, 141, 199, 188, 216, 166, 120, 186, 153, 39, 89, 186, 49, 118, 10, 189, 11, 8, 212, 188, 211, 214, 137, 189, 92, 254, 15, 61, 194, 67, 40, 188, 203, 30, 18, 61, 76, 235, 145, 187, 11, 253, 126, 188, 172, 209, 221, 187, 41, 178, 96, 189, 180, 47, 10, 189, 219, 227, 148, 61, 236, 3, 243, 186, 74, 81, 82, 188, 220, 10, 165, 60, 249, 105, 41, 189, 162, 17, 113, 188, 5, 197, 140, 188, 24, 44, 170, 60, 168, 119, 238, 187, 9, 97, 254, 187, 55, 100, 195, 59, 138, 34, 83, 189, 213, 107, 167, 188, 126, 57, 23, 188, 109, 112, 210, 60, 254, 243, 109, 61, 130, 196, 172, 189, 123, 66, 118, 189, 15, 50, 64, 61, 20, 171, 94, 189, 179, 176, 48, 189, 25, 195, 133, 189, 129, 254, 192, 60, 27, 45, 44, 188, 5, 143, 202, 59, 27, 255, 48, 188, 139, 92, 138, 188, 214, 19, 132, 60, 176, 219, 247, 60, 205, 101, 171, 187, 110, 117, 6, 189, 136, 37, 103, 189, 138, 0, 211, 188, 202, 125, 64, 188, 44, 31, 162, 187, 92, 93, 106, 189, 244, 79, 128, 188, 247, 171, 221, 188, 183, 7, 176, 187, 91, 126, 106, 61, 156, 53, 139, 60, 121, 1, 23, 189, 208, 106, 156, 188, 19, 26, 186, 189, 78, 30, 48, 61, 221, 68, 35, 61, 188, 148, 145, 60, 201, 100, 141, 59, 180, 69, 199, 186, 57, 7, 138, 59, 113, 220, 198, 60, 212, 170, 170, 188, 250, 158, 60, 60, 27, 229, 195, 187, 26, 108, 39, 189, 151, 111, 161, 186, 158, 169, 15, 189, 119, 48, 142, 186, 78, 210, 67, 60, 133, 4, 1, 60, 119, 224, 3, 61, 69, 185, 223, 61, 56, 14, 157, 188, 170, 56, 48, 189, 153, 225, 237, 187, 125, 16, 13, 61, 53, 129, 23, 62, 28, 203, 198, 61, 42, 109, 178, 188, 253, 186, 239, 187, 116, 198, 51, 189, 132, 185, 180, 60, 114, 91, 176, 61, 143, 190, 54, 189, 91, 233, 119, 60, 4, 238, 17, 190, 26, 147, 17, 61, 141, 167, 222, 189, 5, 93, 66, 61, 222, 250, 165, 188, 21, 192, 47, 58, 87, 176, 7, 62, 120, 161, 140, 189, 120, 138, 125, 188, 87, 22, 149, 187, 173, 57, 168, 61, 50, 203, 158, 61, 16, 13, 58, 189, 218, 59, 149, 61, 52, 217, 100, 61, 116, 53, 210, 61, 8, 87, 157, 188, 122, 194, 182, 188, 200, 153, 204, 56, 29, 82, 153, 61, 3, 125, 29, 59, 97, 174, 126, 188, 40, 107, 57, 189, 97, 62, 54, 60, 237, 21, 142, 60, 36, 19, 34, 61, 187, 182, 87, 60, 211, 245, 42, 188, 83, 59, 26, 61, 163, 123, 129, 189, 26, 98, 26, 61, 209, 130, 171, 188, 187, 57, 249, 60, 205, 202, 154, 61, 81, 174, 1, 189, 199, 161, 129, 61, 14, 56, 171, 189, 190, 153, 93, 60, 62, 147, 161, 61, 87, 20, 36, 189, 255, 125, 156, 60, 87, 17, 243, 59, 103, 191, 54, 189, 144, 80, 247, 61, 34, 194, 131, 189, 88, 188, 32, 61, 89, 238, 237, 188, 143, 78, 88, 189, 39, 189, 60, 61, 140, 223, 138, 188, 193, 11, 229, 188, 188, 237, 103, 188, 118, 177, 219, 189, 45, 199, 149, 61, 182, 26, 133, 188, 38, 62, 183, 59, 68, 187, 220, 188, 143, 213, 80, 189, 247, 182, 159, 61, 214, 197, 22, 60, 122, 105, 5, 189, 176, 180, 192, 189, 40, 31, 67, 189, 241, 19, 77, 61, 212, 53, 72, 189, 82, 210, 152, 189, 163, 72, 23, 189, 91, 231, 127, 61, 51, 229, 121, 60, 1, 82, 139, 189, 217, 168, 140, 189, 251, 6, 138, 189, 163, 221, 234, 59, 112, 178, 148, 60, 248, 133, 139, 187, 1, 23, 240, 188, 251, 221, 14, 59, 82, 44, 16, 61, 211, 39, 134, 61, 97, 122, 54, 189, 136, 225, 42, 61, 181, 181, 111, 189, 109, 102, 99, 189, 115, 97, 49, 60, 108, 198, 198, 60, 100, 113, 61, 60, 208, 6, 131, 189, 180, 127, 131, 189, 11, 17, 161, 188, 119, 218, 227, 59, 158, 20, 156, 188, 195, 93, 8, 189, 184, 109, 170, 189, 103, 34, 181, 60, 188, 227, 27, 58, 61, 181, 184, 187, 217, 122, 117, 188, 153, 182, 151, 60, 131, 50, 46, 61, 199, 202, 235, 60, 145, 94, 163, 61, 154, 9, 154, 189, 85, 134, 233, 60, 22, 84, 244, 60, 244, 59, 41, 61, 120, 171, 174, 61, 194, 248, 19, 189, 219, 222, 32, 189, 248, 237, 140, 189, 212, 23, 244, 60, 58, 218, 141, 61, 250, 122, 212, 188, 255, 88, 27, 61, 198, 32, 119, 189, 94, 192, 32, 61, 9, 104, 142, 60, 137, 88, 38, 188, 195, 32, 51, 189, 28, 23, 127, 61, 37, 143, 75, 189, 173, 67, 125, 61, 164, 143, 68, 61, 171, 247, 5, 188, 30, 23, 34, 60, 73, 91, 207, 60, 228, 157, 87, 60, 227, 233, 90, 59, 88, 250, 222, 189, 30, 111, 165, 189, 176, 91, 28, 189, 197, 226, 226, 60, 19, 135, 13, 189, 128, 233, 143, 189, 196, 163, 74, 189, 57, 195, 25, 188, 13, 26, 51, 60, 52, 233, 143, 189, 46, 205, 245, 189, 50, 253, 139, 188, 90, 64, 68, 61, 134, 207, 80, 61, 29, 164, 56, 187, 7, 184, 221, 189, 237, 173, 143, 188, 192, 184, 32, 184, 141, 67, 85, 189, 198, 151, 40, 189, 172, 150, 47, 186, 107, 29, 3, 189, 108, 221, 30, 189, 114, 151, 166, 189, 225, 101, 194, 188, 119, 231, 232, 188, 129, 29, 35, 58, 219, 208, 125, 189, 102, 173, 165, 188, 130, 14, 151, 187, 165, 85, 196, 188, 66, 235, 4, 59, 7, 20, 8, 189, 251, 238, 112, 188, 32, 190, 46, 189, 132, 38, 91, 188, 5, 228, 226, 60, 182, 148, 20, 187, 103, 248, 194, 189, 69, 199, 96, 60, 133, 2, 143, 188, 6, 94, 93, 189, 108, 2, 247, 60, 136, 75, 204, 188, 193, 157, 150, 60, 157, 194, 236, 60, 192, 64, 131, 61, 100, 147, 7, 189, 120, 1, 131, 189, 78, 155, 3, 61, 3, 182, 108, 60, 146, 131, 192, 187, 163, 94, 30, 188, 99, 169, 78, 189, 165, 197, 62, 189, 88, 126, 177, 59, 192, 87, 145, 60, 137, 145, 5, 61, 181, 160, 235, 188, 147, 114, 249, 186, 184, 42, 171, 188, 88, 149, 167, 187, 146, 58, 82, 187, 21, 161, 150, 189, 250, 138, 54, 60, 60, 142, 246, 60, 123, 93, 106, 61, 7, 76, 3, 189, 125, 14, 142, 189, 181, 198, 90, 58, 41, 0, 111, 60, 165, 246, 135, 61, 225, 70, 29, 189, 177, 183, 206, 188, 239, 60, 90, 187, 207, 140, 32, 61, 225, 33, 174, 59, 131, 142, 63, 189, 33, 212, 130, 189, 59, 154, 95, 189, 219, 75, 12, 61, 74, 161, 118, 187, 172, 97, 8, 188, 93, 140, 118, 188, 216, 199, 27, 61, 125, 247, 177, 60, 176, 205, 240, 188, 113, 211, 157, 61, 88, 6, 126, 186, 63, 89, 247, 60, 102, 234, 234, 188, 107, 132, 201, 188, 87, 27, 238, 60, 57, 202, 176, 188, 123, 58, 33, 60, 102, 36, 6, 189, 183, 112, 43, 188, 197, 76, 55, 189, 162, 243, 143, 189, 131, 27, 221, 61, 95, 102, 36, 61, 80, 55, 154, 189, 239, 59, 42, 189, 69, 174, 238, 188, 229, 225, 161, 61, 232, 88, 178, 60, 12, 247, 36, 189, 192, 239, 16, 189, 65, 61, 147, 189, 57, 28, 178, 60, 198, 160, 180, 60, 157, 137, 183, 189, 255, 32, 179, 60, 172, 162, 17, 189, 41, 242, 33, 61, 213, 119, 55, 61, 128, 68, 28, 190, 198, 154, 36, 61, 130, 205, 99, 189, 68, 70, 241, 60, 173, 206, 175, 59, 9, 74, 228, 189, 178, 12, 39, 61, 111, 1, 114, 60, 212, 162, 113, 61, 99, 214, 141, 187, 1, 114, 72, 189, 89, 245, 132, 61, 181, 110, 93, 189, 103, 218, 175, 61, 78, 37, 145, 61, 218, 241, 154, 188, 177, 138, 92, 61, 62, 154, 125, 189, 96, 217, 161, 61, 12, 203, 209, 60, 141, 225, 226, 188, 106, 241, 130, 60, 151, 187, 160, 59, 147, 152, 31, 61, 44, 212, 111, 61, 82, 47, 136, 189, 2, 57, 170, 60, 196, 252, 55, 61, 89, 135, 72, 61, 86, 244, 41, 61, 114, 132, 169, 60, 71, 209, 153, 61, 242, 192, 188, 189, 64, 49, 52, 61, 102, 139, 138, 187, 188, 93, 170, 59, 59, 32, 130, 187, 127, 92, 92, 189, 129, 158, 2, 61, 132, 17, 172, 188, 108, 41, 105, 189, 133, 27, 12, 61, 39, 169, 39, 189, 12, 144, 41, 61, 170, 28, 1, 61, 128, 209, 224, 59, 161, 245, 154, 188, 35, 27, 131, 188, 246, 115, 209, 60, 64, 1, 36, 61, 220, 129, 99, 60, 47, 80, 163, 61, 13, 242, 143, 188, 140, 190, 207, 59, 255, 31, 223, 60, 55, 229, 56, 60, 44, 238, 232, 59, 27, 61, 43, 60, 127, 126, 15, 189, 16, 62, 208, 188, 234, 173, 227, 60, 244, 107, 196, 60, 130, 200, 156, 188, 213, 27, 215, 188, 115, 93, 176, 188, 111, 176, 59, 189, 214, 185, 75, 61, 234, 171, 234, 60, 103, 67, 20, 61, 113, 90, 162, 188, 13, 157, 94, 61, 169, 14, 243, 59, 53, 91, 131, 61, 61, 242, 231, 60, 174, 150, 61, 61, 170, 239, 76, 61, 105, 37, 20, 61, 134, 80, 21, 61, 34, 96, 137, 188, 121, 82, 7, 59, 199, 4, 203, 60, 186, 243, 133, 188, 163, 97, 55, 60, 18, 248, 164, 188, 188, 18, 80, 189, 54, 252, 3, 189, 170, 80, 36, 188, 158, 30, 6, 189, 45, 181, 180, 188, 66, 83, 94, 189, 234, 80, 99, 61, 129, 111, 31, 59, 46, 237, 113, 188, 198, 117, 168, 188, 252, 18, 24, 60, 192, 92, 22, 188, 64, 241, 69, 187, 106, 6, 131, 188, 214, 32, 40, 188, 4, 19, 18, 188, 40, 112, 109, 61, 202, 201, 50, 187, 201, 7, 114, 61, 152, 153, 84, 61, 23, 160, 7, 189, 142, 80, 90, 60, 244, 226, 219, 187, 177, 198, 35, 61, 198, 51, 1, 59, 239, 131, 175, 189, 145, 167, 84, 61, 82, 174, 237, 60, 2, 188, 198, 61, 249, 72, 171, 58, 120, 131, 77, 188, 200, 175, 128, 60, 52, 101, 60, 188, 241, 52, 43, 61, 251, 138, 238, 60, 67, 170, 26, 189, 249, 141, 94, 61, 44, 185, 76, 188, 149, 130, 160, 60, 159, 243, 172, 60, 66, 34, 136, 189, 247, 73, 19, 188, 221, 142, 124, 189, 250, 203, 145, 60, 78, 110, 231, 188, 71, 16, 170, 189, 57, 95, 12, 60, 164, 56, 25, 189, 198, 225, 173, 60, 161, 16, 85, 189, 94, 142, 147, 189, 144, 253, 79, 61, 105, 238, 143, 187, 58, 47, 232, 188, 253, 210, 246, 186, 39, 165, 220, 186, 57, 75, 40, 60, 118, 235, 2, 189, 93, 66, 47, 189, 192, 154, 218, 188, 1, 210, 130, 189, 237, 137, 247, 188, 19, 158, 10, 189, 87, 239, 243, 188, 159, 34, 131, 188, 152, 116, 5, 189, 194, 56, 65, 61, 44, 253, 73, 189, 82, 33, 131, 60, 12, 192, 200, 188, 40, 112, 140, 186, 119, 179, 150, 187, 209, 24, 195, 186, 114, 63, 189, 188, 214, 43, 54, 59, 42, 162, 13, 61, 138, 159, 151, 61, 87, 255, 106, 188, 25, 218, 128, 189, 41, 138, 8, 189, 178, 70, 196, 188, 136, 242, 22, 61, 135, 97, 204, 60, 228, 207, 108, 60, 189, 176, 85, 189, 167, 126, 28, 188, 94, 203, 85, 61, 101, 20, 137, 189, 207, 150, 24, 189, 116, 152, 164, 58, 126, 138, 157, 188, 171, 142, 19, 61, 25, 10, 45, 189, 216, 186, 142, 189, 25, 229, 33, 60, 204, 206, 171, 60, 182, 67, 71, 189, 111, 212, 182, 60, 203, 248, 138, 188, 68, 228, 43, 188, 72, 207, 5, 60, 100, 179, 239, 60, 173, 176, 64, 61, 63, 142, 131, 189, 234, 162, 46, 61, 129, 107, 78, 58, 170, 109, 42, 188, 233, 1, 97, 60, 204, 7, 63, 189, 63, 251, 106, 60, 165, 175, 211, 188, 34, 210, 144, 189, 4, 210, 162, 188, 21, 114, 130, 187, 71, 3, 98, 61, 217, 186, 168, 60, 159, 141, 35, 61, 125, 250, 134, 188, 8, 27, 71, 187, 221, 84, 38, 187, 212, 207, 133, 188, 9, 184, 138, 189, 190, 208, 249, 60, 188, 20, 158, 60, 66, 44, 84, 61, 184, 13, 54, 189, 148, 24, 216, 189, 155, 122, 213, 59, 45, 133, 86, 189, 56, 74, 189, 61, 244, 202, 178, 187, 60, 69, 211, 189, 229, 41, 77, 61, 46, 83, 16, 189, 51, 86, 158, 61, 92, 70, 228, 188, 236, 150, 238, 60, 25, 193, 111, 61, 151, 162, 155, 188, 128, 231, 46, 61, 124, 225, 158, 189, 200, 94, 246, 59, 82, 15, 191, 60, 220, 68, 18, 60, 129, 114, 173, 60, 80, 146, 5, 187, 112, 142, 16, 188, 211, 125, 226, 60, 151, 12, 30, 188, 213, 210, 78, 187, 109, 187, 181, 189, 21, 214, 106, 189, 246, 218, 251, 189, 99, 128, 31, 189, 165, 241, 155, 61, 2, 155, 160, 189, 103, 175, 137, 61, 215, 108, 210, 188, 245, 6, 75, 60, 249, 48, 128, 61, 74, 190, 14, 61, 143, 98, 184, 188, 35, 148, 205, 188, 225, 17, 114, 189, 85, 8, 231, 60, 61, 56, 140, 188, 129, 69, 141, 189, 231, 63, 24, 189, 244, 175, 135, 189, 249, 218, 112, 61, 174, 138, 130, 61, 110, 212, 87, 60, 175, 79, 27, 189, 201, 175, 12, 61, 71, 119, 159, 61, 41, 179, 199, 188, 146, 108, 139, 188, 59, 116, 108, 189, 83, 136, 2, 187, 177, 121, 188, 61, 128, 216, 137, 61, 157, 11, 41, 189, 192, 97, 72, 188, 3, 182, 140, 187, 9, 166, 215, 61, 183, 149, 49, 188, 97, 253, 178, 189, 249, 68, 234, 61, 4, 116, 73, 60, 129, 247, 225, 61, 186, 148, 38, 189, 39, 226, 95, 189, 133, 169, 33, 61, 159, 69, 79, 189, 2, 202, 52, 61, 32, 203, 67, 61, 123, 222, 170, 189, 53, 243, 78, 61, 0, 213, 168, 189, 106, 162, 115, 61, 92, 118, 76, 60, 21, 254, 182, 189, 157, 121, 104, 188, 31, 103, 2, 189, 184, 115, 159, 61, 61, 121, 83, 189, 33, 150, 234, 188, 6, 54, 96, 60, 199, 151, 36, 189, 218, 54, 199, 61, 105, 24, 65, 61, 116, 11, 15, 190, 213, 10, 113, 61, 71, 29, 132, 188, 128, 155, 254, 60, 86, 3, 130, 61, 148, 217, 181, 188, 4, 157, 8, 61, 53, 51, 215, 60, 75, 65, 91, 61, 57, 135, 10, 189, 244, 45, 142, 189, 233, 117, 135, 59, 91, 197, 121, 188, 126, 92, 134, 60, 121, 134, 76, 188, 105, 165, 166, 188, 97, 77, 84, 188, 9, 7, 169, 60, 236, 23, 175, 60, 76, 184, 115, 60, 17, 117, 161, 189, 21, 64, 115, 188, 226, 0, 254, 188, 230, 171, 173, 61, 65, 142, 152, 61, 90, 135, 1, 189, 145, 163, 107, 188, 100, 210, 95, 189, 235, 52, 162, 59, 182, 113, 205, 188, 202, 247, 162, 189, 95, 173, 164, 60, 110, 57, 187, 188, 36, 71, 169, 60, 141, 14, 155, 188, 55, 28, 179, 189, 42, 110, 91, 61, 19, 62, 120, 188, 52, 253, 79, 60, 6, 81, 143, 189, 195, 159, 107, 189, 33, 78, 247, 60, 5, 229, 14, 60, 9, 102, 95, 61, 123, 129, 149, 189, 246, 82, 59, 58, 134, 99, 23, 61, 113, 6, 161, 60, 59, 56, 203, 61, 89, 69, 52, 189, 71, 89, 216, 187, 72, 216, 176, 60, 229, 182, 47, 189, 242, 19, 154, 61, 193, 228, 41, 188, 8, 75, 13, 189, 70, 123, 39, 188, 186, 31, 29, 188, 140, 42, 4, 61, 81, 113, 46, 189, 107, 237, 130, 59, 247, 235, 120, 189, 58, 34, 174, 60, 74, 78, 36, 61, 224, 236, 115, 189, 120, 70, 54, 189, 244, 98, 151, 189, 238, 201, 40, 188, 192, 46, 129, 60, 16, 107, 33, 188, 131, 11, 48, 189, 91, 86, 231, 60, 241, 95, 132, 61, 133, 149, 80, 61, 250, 117, 182, 189, 152, 82, 236, 188, 0, 68, 208, 60, 21, 3, 173, 188, 55, 24, 160, 60, 118, 109, 235, 188, 17, 108, 136, 186, 97, 105, 17, 189, 29, 255, 148, 186, 186, 59, 61, 60, 42, 194, 13, 189, 52, 255, 244, 60, 120, 15, 175, 188, 7, 34, 101, 61, 160, 165, 146, 60, 231, 182, 205, 189, 30, 239, 27, 61, 47, 164, 17, 187, 129, 167, 49, 189, 116, 89, 93, 57, 201, 178, 40, 189, 178, 249, 171, 59, 27, 214, 141, 188, 9, 0, 25, 61, 223, 13, 196, 60, 150, 102, 40, 189, 229, 246, 17, 61, 92, 16, 47, 189, 159, 27, 185, 60, 178, 195, 246, 188, 44, 76, 107, 60, 167, 50, 73, 61, 80, 209, 7, 189, 41, 1, 105, 189, 57, 241, 11, 189, 231, 40, 148, 186, 152, 229, 184, 187, 132, 245, 40, 189, 229, 194, 64, 188, 155, 8, 1, 61, 152, 129, 57, 189, 218, 192, 88, 60, 18, 230, 253, 185, 152, 148, 63, 189, 136, 98, 169, 58, 137, 107, 179, 187, 198, 11, 226, 188, 98, 1, 111, 188, 170, 8, 73, 189, 168, 92, 130, 59, 33, 243, 13, 188, 255, 5, 234, 188, 138, 196, 199, 60, 68, 154, 75, 60, 198, 187, 110, 187, 4, 173, 72, 189, 200, 5, 45, 61, 145, 35, 99, 60, 168, 218, 107, 60, 216, 232, 70, 61, 238, 9, 31, 188, 61, 40, 46, 189, 142, 29, 16, 189, 218, 195, 131, 189, 83, 162, 167, 61, 158, 33, 190, 188, 189, 94, 162, 188, 37, 191, 18, 189, 84, 171, 199, 188, 76, 99, 45, 61, 226, 46, 81, 189, 99, 241, 67, 189, 68, 133, 220, 188, 152, 198, 8, 189, 146, 41, 1, 189, 91, 228, 22, 189, 172, 62, 224, 188, 4, 141, 246, 60, 67, 197, 31, 186, 16, 20, 233, 186, 105, 238, 206, 187, 95, 244, 192, 188, 80, 156, 185, 188, 40, 183, 192, 188, 93, 224, 213, 188, 87, 156, 222, 189, 59, 61, 46, 189, 182, 87, 65, 188, 40, 178, 250, 188, 43, 87, 147, 60, 15, 229, 208, 188, 37, 69, 43, 61, 65, 123, 5, 186, 181, 50, 43, 60, 88, 96, 159, 60, 216, 114, 123, 189, 47, 176, 121, 188, 156, 93, 247, 60, 142, 180, 145, 188, 254, 152, 5, 189, 159, 144, 161, 188, 30, 208, 7, 188, 14, 91, 83, 188, 122, 92, 250, 188, 97, 50, 49, 189, 158, 212, 108, 188, 1, 230, 44, 189, 85, 141, 18, 189, 73, 88, 5, 61, 156, 38, 52, 189, 28, 44, 119, 189, 160, 13, 29, 186, 189, 190, 150, 189, 14, 155, 118, 189, 70, 66, 131, 187, 29, 5, 161, 188, 150, 68, 5, 189, 122, 74, 111, 189, 153, 131, 1, 188, 42, 162, 156, 60, 226, 231, 82, 188, 186, 138, 41, 61, 213, 141, 183, 189, 220, 208, 88, 61, 54, 20, 132, 60, 149, 88, 3, 188, 133, 251, 242, 187, 58, 175, 131, 188, 71, 249, 26, 61, 200, 5, 129, 60, 169, 90, 141, 189, 85, 204, 251, 59, 224, 142, 28, 61, 23, 234, 58, 61, 77, 12, 41, 60, 116, 238, 176, 188, 252, 16, 108, 189, 18, 101, 125, 60, 161, 43, 67, 188, 8, 104, 221, 60, 58, 210, 142, 188, 22, 238, 196, 60, 52, 141, 251, 60, 48, 66, 52, 188, 28, 77, 77, 61, 30, 0, 143, 59, 124, 72, 37, 189, 28, 162, 143, 189, 152, 55, 21, 61, 224, 216, 85, 60, 208, 147, 73, 189, 215, 102, 114, 60, 191, 109, 8, 189, 77, 188, 191, 188, 210, 87, 214, 188, 49, 142, 166, 189, 171, 190, 87, 60, 118, 188, 252, 187, 146, 195, 84, 188, 123, 197, 171, 60, 227, 150, 147, 60, 221, 85, 100, 61, 99, 88, 103, 189, 136, 13, 155, 60, 28, 191, 125, 188, 162, 241, 28, 189, 185, 119, 151, 60, 107, 52, 112, 59, 67, 151, 151, 188, 72, 188, 39, 61, 40, 209, 32, 61, 110, 52, 185, 189, 228, 222, 102, 189, 240, 233, 144, 189, 158, 17, 145, 188, 40, 218, 155, 187, 42, 252, 187, 189, 3, 125, 96, 189, 219, 178, 79, 189, 95, 50, 68, 60, 54, 150, 245, 60, 243, 168, 30, 188, 128, 174, 188, 188, 188, 193, 73, 60, 45, 18, 228, 60, 214, 252, 7, 61, 254, 104, 63, 189, 16, 208, 34, 61, 208, 15, 58, 188, 253, 109, 152, 61, 47, 123, 177, 60, 118, 69, 220, 188, 26, 175, 206, 60, 137, 243, 209, 189, 255, 195, 255, 60, 64, 220, 199, 185, 130, 149, 36, 189, 253, 7, 26, 61, 167, 121, 128, 188, 156, 251, 175, 61, 56, 96, 40, 61, 190, 184, 59, 189, 139, 171, 98, 61, 32, 237, 35, 61, 105, 248, 203, 61, 113, 38, 224, 60, 110, 164, 121, 189, 149, 145, 29, 61, 146, 28, 70, 189, 197, 3, 241, 61, 184, 80, 120, 59, 213, 76, 87, 189, 137, 227, 76, 61, 217, 192, 17, 61, 53, 255, 225, 60, 111, 237, 16, 60, 100, 55, 191, 189, 215, 1, 156, 60, 38, 126, 154, 60, 227, 215, 157, 61, 176, 152, 91, 60, 161, 39, 206, 188, 161, 242, 18, 61, 58, 65, 182, 60, 90, 215, 130, 60, 105, 87, 19, 61, 49, 149, 25, 188, 40, 133, 78, 189, 82, 89, 24, 189, 35, 230, 107, 61, 172, 23, 120, 188, 86, 128, 134, 189, 227, 42, 114, 189, 223, 80, 144, 60, 23, 50, 25, 61, 55, 155, 94, 61, 140, 99, 18, 189, 82, 99, 85, 188, 24, 206, 121, 189, 171, 119, 252, 188, 123, 53, 171, 59, 108, 148, 211, 186, 238, 10, 10, 189, 131, 0, 139, 60, 251, 141, 14, 59, 232, 128, 135, 188, 2, 159, 25, 189, 119, 183, 44, 188, 151, 194, 94, 60, 47, 164, 90, 189, 215, 253, 152, 60, 100, 9, 214, 188, 21, 205, 190, 60, 29, 222, 86, 188, 51, 56, 35, 59, 47, 19, 253, 60, 219, 32, 166, 188, 15, 19, 25, 61, 146, 2, 40, 189, 108, 59, 220, 59, 161, 208, 198, 59, 231, 31, 141, 60, 147, 14, 141, 188, 218, 139, 130, 189, 241, 131, 231, 187, 12, 246, 25, 188, 61, 161, 234, 60, 208, 220, 72, 61, 99, 112, 141, 187, 236, 204, 151, 58, 89, 243, 64, 61, 151, 138, 214, 189, 13, 135, 157, 188, 183, 159, 111, 60, 23, 88, 128, 60, 31, 45, 6, 60, 45, 253, 232, 189, 158, 174, 156, 61, 247, 187, 123, 60, 177, 212, 161, 61, 208, 218, 57, 60, 240, 147, 123, 189, 159, 124, 214, 61, 208, 217, 160, 61, 217, 80, 144, 61, 88, 128, 11, 189, 79, 195, 209, 189, 130, 82, 249, 60, 34, 187, 171, 60, 172, 141, 11, 61, 13, 8, 141, 187, 18, 8, 238, 188, 155, 42, 157, 61, 22, 240, 201, 188, 8, 206, 195, 60, 48, 124, 45, 61, 124, 52, 73, 189, 187, 252, 52, 61, 140, 36, 206, 186, 9, 11, 73, 61, 86, 7, 103, 61, 239, 44, 18, 189, 77, 19, 1, 61, 53, 249, 134, 189, 202, 235, 87, 60, 7, 233, 150, 56, 142, 55, 53, 188, 79, 153, 194, 188, 243, 140, 48, 188, 232, 189, 87, 61, 55, 5, 28, 189, 163, 166, 157, 188, 176, 206, 176, 188, 80, 113, 170, 59, 78, 179, 98, 61, 46, 86, 38, 189, 23, 30, 137, 189, 192, 40, 142, 189, 23, 177, 7, 189, 28, 76, 227, 60, 20, 228, 5, 189, 138, 102, 133, 189, 172, 54, 107, 189, 174, 211, 99, 60, 100, 113, 249, 60, 187, 76, 185, 188, 234, 164, 78, 189, 24, 230, 110, 189, 234, 244, 84, 189, 106, 121, 214, 59, 239, 162, 151, 60, 225, 94, 159, 188, 168, 237, 226, 187, 172, 177, 78, 189, 11, 201, 160, 60, 88, 76, 82, 59, 27, 133, 73, 189, 32, 147, 67, 189, 157, 46, 150, 188, 204, 5, 196, 60, 35, 118, 118, 187, 9, 2, 170, 188, 179, 251, 85, 60, 28, 230, 240, 59, 103, 103, 47, 189, 152, 243, 2, 188, 32, 64, 165, 58, 99, 85, 203, 188, 90, 71, 61, 59, 46, 19, 0, 189, 145, 76, 234, 188, 92, 201, 228, 188, 131, 202, 218, 188, 113, 142, 0, 189, 119, 116, 131, 188, 109, 172, 46, 60, 203, 109, 28, 59, 145, 97, 82, 189, 98, 237, 51, 59, 22, 129, 39, 188, 18, 169, 127, 60, 145, 116, 169, 60, 145, 65, 138, 189, 6, 52, 175, 188, 199, 214, 170, 189, 188, 161, 73, 189, 25, 186, 121, 189, 197, 0, 141, 188, 214, 118, 190, 60, 125, 56, 96, 189, 175, 116, 124, 189, 82, 88, 128, 189, 150, 117, 101, 189, 216, 187, 69, 61, 81, 147, 62, 187, 76, 207, 240, 189, 245, 95, 211, 60, 143, 74, 117, 189, 107, 219, 87, 188, 22, 227, 171, 57, 123, 28, 114, 189, 124, 252, 218, 188, 207, 177, 84, 189, 198, 124, 0, 189, 3, 198, 157, 189, 194, 39, 184, 189, 2, 6, 169, 60, 15, 107, 72, 189, 245, 25, 19, 189, 196, 24, 216, 189, 155, 143, 91, 189, 105, 23, 170, 59, 241, 109, 76, 60, 133, 75, 165, 188, 227, 249, 58, 188, 187, 134, 58, 189, 195, 100, 247, 186, 178, 90, 136, 189, 199, 186, 110, 189, 153, 29, 29, 59, 74, 51, 86, 188, 220, 151, 117, 61, 151, 124, 98, 188, 222, 222, 144, 188, 168, 84, 152, 189, 7, 234, 238, 189, 197, 207, 26, 60, 134, 150, 81, 189, 80, 1, 156, 189, 40, 16, 34, 189, 167, 1, 166, 189, 60, 151, 36, 61, 1, 213, 180, 188, 88, 223, 94, 189, 198, 248, 43, 189, 189, 71, 108, 189, 121, 207, 105, 60, 135, 187, 67, 188, 168, 98, 41, 61, 212, 85, 150, 189, 252, 65, 197, 189, 246, 121, 138, 61, 29, 144, 221, 187, 211, 80, 39, 60, 214, 243, 193, 188, 247, 233, 187, 189, 127, 96, 27, 187, 34, 229, 216, 60, 60, 217, 221, 188, 10, 39, 35, 189, 251, 192, 233, 189, 83, 227, 40, 60, 211, 51, 241, 60, 115, 112, 99, 189, 169, 254, 178, 189, 229, 157, 30, 189, 41, 31, 145, 60, 157, 124, 112, 189, 251, 194, 89, 188, 111, 200, 16, 190, 57, 68, 89, 188, 208, 255, 139, 61, 105, 175, 155, 60, 185, 34, 29, 59, 199, 50, 21, 190, 39, 8, 3, 190, 36, 157, 70, 188, 124, 40, 169, 59, 80, 43, 157, 60, 68, 81, 83, 189, 218, 84, 131, 189, 219, 248, 15, 189, 26, 135, 194, 188, 162, 133, 30, 60, 167, 194, 213, 189, 233, 2, 241, 188, 240, 108, 36, 61, 163, 216, 82, 59, 239, 79, 165, 60, 26, 93, 15, 190, 205, 90, 35, 188, 135, 147, 47, 61, 151, 138, 197, 189, 57, 75, 181, 189, 169, 19, 11, 190, 106, 103, 54, 61, 8, 63, 159, 60, 12, 111, 144, 189, 131, 88, 60, 189, 46, 203, 107, 189, 132, 207, 111, 60, 149, 232, 122, 60, 232, 192, 180, 189, 232, 219, 170, 188, 218, 92, 28, 189, 113, 128, 177, 188, 250, 178, 125, 61, 52, 193, 64, 189, 141, 83, 21, 189, 174, 245, 233, 188, 68, 105, 144, 188, 53, 92, 138, 188, 243, 140, 199, 60, 105, 53, 149, 60, 198, 156, 46, 188, 233, 212, 77, 189, 133, 180, 156, 189, 216, 24, 8, 188, 170, 105, 235, 60, 231, 143, 171, 60, 3, 154, 91, 189, 87, 57, 58, 61, 69, 229, 213, 188, 39, 34, 252, 188, 193, 21, 195, 188, 46, 0, 59, 189, 8, 209, 142, 60, 242, 75, 3, 61, 204, 138, 190, 187, 97, 168, 132, 189, 173, 77, 33, 189, 52, 240, 23, 61, 103, 220, 71, 189, 110, 142, 127, 60, 169, 212, 67, 189, 82, 109, 153, 189, 190, 30, 132, 60, 234, 137, 105, 189, 199, 85, 66, 189, 154, 9, 177, 188, 228, 20, 65, 189, 23, 140, 150, 188, 241, 248, 161, 189, 195, 9, 84, 189, 132, 82, 195, 189, 203, 197, 202, 189, 151, 221, 34, 61, 24, 116, 59, 189, 196, 69, 23, 189, 131, 132, 220, 188, 245, 86, 252, 59, 70, 177, 134, 60, 139, 145, 174, 186, 56, 63, 168, 188, 102, 236, 74, 189, 32, 12, 113, 59, 253, 63, 9, 186, 123, 228, 36, 188, 249, 221, 40, 60, 243, 161, 243, 188, 126, 6, 182, 187, 171, 192, 152, 61, 231, 94, 216, 60, 101, 137, 182, 60, 55, 220, 248, 188, 72, 1, 49, 61, 185, 55, 206, 188, 41, 117, 12, 189, 21, 182, 183, 187, 137, 67, 30, 60, 75, 241, 200, 188, 192, 32, 37, 61, 51, 216, 55, 189, 205, 49, 109, 189, 104, 48, 0, 61, 194, 88, 213, 187, 224, 201, 188, 60, 208, 28, 19, 189, 139, 200, 157, 189, 36, 223, 10, 189, 35, 25, 88, 60, 169, 194, 207, 58, 82, 107, 128, 189, 87, 252, 71, 189, 13, 134, 239, 60, 41, 6, 142, 61, 228, 61, 165, 188, 163, 169, 75, 60, 143, 114, 78, 189, 148, 181, 177, 59, 47, 97, 242, 187, 21, 107, 252, 188, 88, 41, 179, 60, 173, 42, 153, 56, 241, 41, 145, 61, 5, 43, 216, 60, 151, 209, 57, 188, 27, 168, 183, 61, 147, 52, 87, 189, 202, 15, 78, 61, 55, 178, 6, 188, 115, 8, 148, 187, 61, 104, 124, 61, 183, 122, 202, 59, 87, 197, 10, 61, 52, 23, 17, 61, 243, 154, 162, 60, 198, 226, 154, 59, 3, 26, 128, 189, 14, 181, 207, 60, 54, 16, 36, 189, 158, 151, 145, 188, 63, 74, 14, 60, 100, 120, 219, 60, 216, 221, 130, 56, 164, 198, 178, 59, 5, 71, 215, 188, 239, 83, 110, 58, 160, 165, 66, 189, 250, 55, 44, 61, 244, 199, 17, 61, 162, 173, 65, 61, 223, 5, 22, 61, 224, 98, 218, 188, 237, 109, 23, 61, 61, 28, 150, 61, 225, 1, 31, 61, 10, 237, 212, 188, 200, 96, 252, 60, 78, 39, 30, 189, 19, 232, 177, 60, 179, 180, 45, 188, 153, 252, 183, 61, 228, 144, 221, 59, 139, 250, 13, 189, 215, 16, 158, 61, 23, 147, 22, 61, 233, 41, 97, 60, 246, 118, 59, 189, 29, 113, 60, 61, 144, 89, 51, 189, 85, 93, 218, 60, 14, 35, 26, 61, 253, 252, 186, 187, 205, 156, 222, 60, 144, 62, 160, 188, 189, 241, 131, 61, 26, 119, 94, 188, 55, 31, 221, 188, 169, 105, 180, 59, 161, 105, 226, 60, 88, 205, 136, 60, 6, 170, 40, 189, 54, 62, 196, 187, 149, 35, 103, 61, 154, 11, 152, 61, 213, 208, 143, 61, 107, 188, 68, 189, 112, 225, 43, 189, 140, 108, 27, 61, 134, 16, 44, 61, 120, 142, 79, 61, 13, 136, 33, 61, 23, 173, 171, 189, 209, 245, 145, 61, 185, 115, 81, 61, 157, 52, 63, 189, 130, 201, 250, 188, 166, 102, 241, 188, 81, 184, 210, 59, 73, 46, 86, 61, 93, 100, 242, 188, 55, 156, 243, 188, 201, 67, 26, 60, 218, 173, 208, 61, 246, 114, 193, 188, 73, 61, 233, 187, 22, 96, 111, 61, 237, 2, 27, 189, 14, 25, 113, 61, 235, 91, 13, 59, 34, 19, 96, 188, 127, 114, 55, 61, 33, 214, 12, 60, 0, 240, 22, 60, 45, 69, 17, 189, 38, 110, 12, 58, 94, 217, 172, 61, 83, 81, 215, 60, 135, 115, 70, 61, 61, 90, 178, 60, 44, 201, 149, 59, 23, 51, 35, 61, 167, 74, 64, 61, 199, 19, 131, 61, 70, 186, 242, 187, 188, 254, 103, 61, 100, 52, 187, 60, 32, 241, 34, 59, 216, 3, 39, 61, 39, 151, 78, 187, 95, 165, 102, 189, 106, 225, 179, 60, 248, 225, 181, 188, 140, 102, 19, 61, 154, 145, 14, 188, 126, 94, 204, 60, 72, 140, 158, 188, 99, 126, 237, 188, 170, 62, 168, 59, 250, 86, 165, 59, 142, 50, 17, 61, 102, 67, 23, 186, 66, 35, 71, 61, 119, 174, 184, 60, 222, 146, 189, 60, 71, 88, 4, 189, 106, 148, 129, 188, 80, 0, 48, 61, 2, 218, 1, 61, 216, 97, 157, 187, 34, 57, 16, 189, 60, 241, 82, 189, 184, 46, 45, 61, 104, 236, 189, 187, 181, 65, 122, 60, 237, 190, 232, 187, 147, 88, 76, 189, 82, 183, 125, 189, 235, 148, 114, 60, 0, 228, 98, 189, 189, 179, 98, 187, 159, 188, 52, 189, 3, 86, 44, 189, 197, 246, 97, 60, 187, 17, 144, 59, 105, 120, 122, 61, 78, 52, 184, 60, 31, 189, 237, 59, 141, 100, 29, 189, 205, 255, 197, 188, 179, 64, 101, 189, 128, 244, 218, 188, 116, 180, 226, 59, 125, 123, 9, 189, 5, 143, 103, 60, 121, 254, 211, 59, 17, 122, 61, 61, 22, 127, 109, 186, 43, 235, 169, 187, 129, 160, 14, 60, 239, 215, 236, 59, 247, 141, 79, 189, 142, 44, 82, 189, 233, 46, 93, 61, 60, 143, 11, 189, 135, 209, 102, 189, 166, 127, 10, 61, 231, 174, 147, 189, 87, 73, 106, 188, 22, 76, 53, 60, 35, 123, 121, 188, 217, 47, 44, 189, 229, 101, 128, 189, 203, 43, 118, 61, 105, 20, 182, 59, 204, 77, 65, 61, 18, 109, 238, 60, 119, 110, 67, 59, 137, 232, 253, 60, 126, 152, 61, 189, 221, 152, 155, 60, 76, 254, 72, 60, 80, 20, 177, 188, 180, 95, 50, 189, 209, 211, 104, 189, 145, 76, 12, 189, 230, 210, 54, 188, 5, 27, 212, 60, 170, 76, 114, 189, 107, 95, 222, 188, 131, 117, 7, 61, 188, 214, 254, 60, 235, 196, 198, 188, 174, 33, 139, 58, 230, 71, 168, 60, 144, 248, 73, 60, 111, 232, 247, 187, 174, 57, 19, 189, 164, 82, 50, 188, 23, 28, 134, 187, 65, 3, 147, 188, 96, 5, 40, 188, 202, 240, 160, 188, 235, 101, 203, 187, 35, 241, 186, 188, 37, 79, 70, 189, 170, 186, 86, 188, 80, 103, 210, 188, 247, 43, 137, 188, 132, 237, 75, 189, 101, 64, 2, 188, 148, 58, 50, 189, 25, 126, 41, 60, 87, 252, 144, 60, 121, 69, 96, 60, 227, 86, 108, 189, 157, 60, 43, 189, 81, 81, 138, 187, 87, 210, 160, 188, 35, 66, 235, 188, 19, 10, 118, 188, 216, 136, 52, 61, 16, 232, 200, 60, 81, 43, 123, 188, 98, 183, 109, 189, 195, 143, 61, 189, 199, 181, 210, 188, 6, 146, 46, 189, 105, 209, 26, 189, 115, 238, 242, 187, 205, 222, 143, 188, 74, 18, 163, 187, 54, 140, 147, 189, 248, 31, 243, 60, 119, 15, 17, 60, 174, 189, 56, 189, 212, 157, 220, 188, 103, 15, 9, 189, 99, 140, 164, 187, 8, 5, 174, 60, 211, 75, 236, 188, 166, 138, 66, 188, 244, 64, 91, 188, 60, 238, 215, 59, 106, 191, 115, 61, 146, 148, 195, 188, 200, 175, 1, 188, 246, 216, 148, 188, 114, 100, 174, 188, 175, 162, 42, 189, 2, 69, 48, 189, 203, 76, 13, 188, 70, 94, 60, 59, 161, 45, 163, 61, 149, 26, 40, 59, 183, 219, 60, 57, 102, 94, 230, 60, 54, 79, 15, 60, 165, 210, 82, 60, 121, 113, 200, 60, 4, 70, 205, 188, 151, 118, 105, 60, 70, 94, 51, 61, 141, 203, 208, 61, 235, 68, 127, 60, 151, 246, 165, 59, 210, 115, 148, 61, 195, 18, 132, 189, 198, 0, 107, 61, 117, 72, 192, 188, 167, 6, 9, 189, 70, 216, 34, 188, 118, 54, 209, 59, 19, 67, 212, 188, 8, 197, 230, 60, 198, 196, 166, 188, 132, 152, 17, 60, 109, 82, 29, 188, 83, 179, 146, 61, 161, 106, 117, 60, 183, 217, 138, 188, 248, 13, 187, 188, 200, 65, 157, 188, 150, 134, 216, 60, 102, 202, 212, 60, 168, 79, 108, 189, 24, 88, 126, 189, 27, 109, 236, 188, 14, 91, 133, 61, 251, 193, 201, 185, 218, 106, 55, 189, 222, 75, 237, 187, 93, 206, 207, 188, 50, 57, 136, 61, 253, 126, 145, 188, 158, 69, 179, 60, 81, 74, 29, 58, 115, 234, 163, 187, 221, 156, 139, 61, 76, 204, 47, 188, 170, 197, 149, 189, 107, 56, 31, 61, 14, 193, 66, 189, 113, 217, 197, 61, 182, 81, 237, 188, 0, 84, 94, 60, 226, 46, 240, 188, 78, 67, 5, 189, 180, 54, 253, 60, 212, 38, 78, 60, 15, 48, 54, 189, 237, 203, 116, 187, 117, 220, 141, 188, 223, 102, 115, 61, 120, 187, 83, 189, 172, 204, 170, 59, 112, 138, 85, 189, 173, 206, 145, 60, 58, 51, 162, 61, 83, 62, 190, 60, 67, 81, 246, 188, 132, 2, 80, 189, 205, 58, 47, 187, 211, 220, 180, 61, 211, 27, 150, 61, 202, 73, 202, 188, 72, 255, 55, 189, 119, 32, 31, 189, 248, 120, 129, 61, 5, 147, 71, 189, 195, 108, 117, 189, 0, 229, 62, 61, 78, 8, 180, 60, 181, 226, 7, 62, 7, 171, 150, 60, 13, 158, 210, 188, 58, 90, 101, 61, 96, 117, 189, 60, 84, 0, 214, 61, 217, 130, 195, 57, 153, 198, 226, 188, 190, 119, 69, 188, 68, 215, 94, 188, 162, 125, 130, 61, 40, 158, 138, 60, 10, 92, 193, 189, 12, 113, 241, 60, 249, 54, 3, 60, 237, 103, 159, 61, 71, 112, 2, 60, 63, 177, 231, 188, 30, 219, 59, 60, 2, 47, 88, 61, 155, 128, 191, 61, 185, 87, 229, 60, 228, 101, 22, 188, 192, 100, 53, 187, 206, 45, 223, 188, 13, 186, 5, 62, 34, 57, 127, 60, 135, 154, 133, 189, 154, 123, 198, 59, 26, 38, 219, 188, 110, 70, 241, 61, 34, 239, 206, 188, 22, 118, 159, 189, 149, 38, 33, 189, 52, 184, 220, 188, 88, 1, 27, 62, 17, 214, 149, 187, 54, 166, 94, 189, 221, 192, 140, 188, 15, 150, 234, 60, 23, 26, 151, 61, 164, 20, 102, 61, 38, 50, 81, 188, 108, 254, 91, 61, 133, 164, 150, 188, 178, 164, 211, 61, 96, 64, 13, 61, 169, 7, 50, 189, 165, 249, 162, 188, 228, 22, 245, 60, 39, 215, 70, 61, 156, 245, 142, 188, 183, 45, 182, 188, 185, 160, 31, 189, 61, 103, 15, 61, 36, 76, 215, 61, 23, 25, 84, 60, 36, 33, 36, 189, 135, 173, 147, 59, 31, 19, 14, 59, 195, 85, 158, 61, 212, 49, 232, 60, 67, 238, 138, 188, 45, 245, 231, 187, 17, 24, 95, 60, 6, 137, 99, 61, 104, 239, 39, 189, 167, 180, 192, 188, 90, 17, 152, 59, 251, 24, 13, 189, 48, 78, 186, 61, 62, 155, 126, 61, 195, 230, 48, 189, 156, 220, 85, 188, 9, 3, 52, 189, 183, 45, 155, 61, 144, 250, 94, 61, 113, 45, 152, 189, 131, 104, 168, 188, 95, 231, 152, 188, 146, 116, 26, 62, 50, 17, 58, 61, 201, 44, 229, 188, 54, 63, 90, 188, 148, 79, 30, 61, 239, 241, 152, 61, 238, 118, 129, 61, 31, 118, 179, 186, 239, 80, 21, 61, 254, 168, 241, 59, 171, 231, 40, 62, 253, 82, 55, 188, 9, 32, 107, 188, 58, 88, 41, 61, 75, 21, 241, 188, 143, 150, 248, 61, 197, 131, 248, 60, 14, 63, 69, 189, 245, 156, 56, 189, 43, 199, 200, 188, 122, 182, 44, 62, 101, 166, 148, 187, 235, 122, 164, 189, 17, 164, 84, 189, 201, 55, 229, 188, 193, 46, 27, 62, 120, 152, 151, 61, 118, 198, 27, 189, 166, 239, 70, 188, 69, 215, 24, 189, 41, 241, 12, 62, 170, 65, 6, 61, 69, 223, 26, 189, 108, 55, 138, 188, 136, 31, 185, 60, 224, 184, 110, 61, 85, 125, 60, 61, 101, 245, 144, 189, 205, 123, 241, 60, 138, 103, 223, 188, 237, 226, 164, 61, 131, 120, 17, 61, 155, 144, 168, 189, 241, 97, 137, 188, 74, 65, 3, 189, 129, 155, 30, 62, 28, 186, 100, 61, 54, 240, 154, 60, 62, 78, 6, 61, 104, 221, 209, 188, 165, 49, 39, 62, 172, 97, 85, 61, 234, 53, 166, 189, 93, 37, 136, 187, 55, 157, 68, 61, 238, 217, 43, 62, 103, 178, 187, 61, 177, 25, 85, 188, 90, 136, 241, 188, 92, 129, 103, 61, 143, 121, 228, 61, 155, 19, 82, 61, 42, 116, 248, 188, 3, 18, 221, 187, 191, 65, 152, 188, 30, 138, 48, 62, 129, 88, 134, 60, 240, 80, 26, 189, 244, 178, 148, 188, 41, 180, 210, 60, 233, 206, 204, 61, 114, 252, 9, 189, 52, 202, 178, 188, 36, 67, 125, 60, 248, 125, 35, 189, 244, 13, 2, 62, 80, 241, 127, 61, 141, 112, 137, 189, 115, 192, 88, 188, 42, 67, 69, 188, 238, 184, 6, 62, 31, 83, 228, 188, 253, 129, 144, 189, 27, 102, 145, 187, 92, 251, 128, 189, 121, 190, 248, 61, 108, 184, 12, 60, 250, 52, 13, 189, 170, 50, 231, 60, 131, 68, 222, 187, 48, 32, 215, 61, 236, 88, 39, 60, 59, 27, 0, 188, 217, 124, 33, 189, 177, 38, 247, 188, 18, 218, 242, 61, 17, 42, 195, 59, 10, 38, 226, 188, 8, 59, 140, 188, 155, 12, 217, 188, 241, 193, 13, 62, 214, 137, 178, 188, 2, 226, 174, 189, 77, 102, 16, 189, 135, 209, 192, 60, 82, 198, 232, 61, 145, 34, 212, 188, 27, 88, 103, 188, 100, 89, 59, 188, 116, 9, 143, 188, 233, 116, 2, 62, 228, 68, 127, 188, 182, 252, 103, 60, 100, 11, 124, 189, 85, 67, 236, 188, 66, 237, 200, 61, 7, 218, 98, 61, 65, 181, 84, 189, 102, 125, 70, 60, 56, 130, 32, 189, 231, 145, 149, 61, 53, 30, 140, 61, 68, 91, 96, 189, 194, 125, 189, 60, 122, 143, 53, 189, 1, 163, 22, 62, 14, 222, 5, 61, 231, 199, 57, 189, 147, 133, 31, 189, 4, 146, 112, 188, 190, 251, 228, 61, 69, 239, 202, 61, 159, 109, 126, 59, 25, 200, 81, 188, 135, 132, 224, 59, 245, 4, 42, 62, 177, 117, 88, 61, 137, 28, 43, 188, 228, 109, 0, 61, 5, 188, 95, 59, 216, 107, 227, 61, 182, 234, 145, 60, 180, 73, 64, 189, 169, 98, 138, 187, 143, 249, 88, 189, 244, 72, 9, 62, 30, 205, 30, 60, 226, 164, 67, 189, 134, 11, 44, 61, 138, 197, 5, 189, 55, 118, 79, 62, 166, 212, 168, 61, 5, 203, 148, 189, 48, 47, 172, 61, 234, 100, 51, 189, 16, 226, 20, 62, 68, 98, 93, 61, 219, 165, 145, 189, 213, 61, 191, 60, 31, 174, 10, 61, 213, 105, 33, 62, 228, 69, 190, 61, 103, 61, 175, 189, 204, 210, 54, 60, 95, 207, 59, 189, 178, 221, 33, 62, 68, 54, 108, 61, 250, 211, 132, 59, 205, 253, 170, 60, 252, 138, 194, 187, 95, 111, 14, 62, 81, 122, 70, 188, 229, 138, 126, 60, 152, 107, 130, 61, 44, 247, 94, 189, 111, 87, 24, 62, 194, 59, 161, 187, 253, 248, 132, 188, 77, 170, 42, 189, 44, 121, 177, 60, 1, 15, 181, 61, 112, 53, 130, 61, 109, 239, 64, 60, 157, 224, 7, 189, 71, 241, 64, 189, 196, 126, 19, 62, 157, 39, 159, 188, 139, 224, 106, 189, 60, 98, 222, 187, 62, 69, 229, 60, 32, 4, 5, 62, 230, 160, 26, 188, 104, 28, 175, 58, 18, 86, 230, 60, 173, 96, 172, 60, 226, 191, 47, 62, 56, 21, 249, 60, 48, 145, 113, 58, 147, 95, 41, 189, 253, 202, 32, 60, 108, 42, 199, 61, 250, 147, 143, 189, 141, 158, 158, 189, 97, 30, 13, 189, 130, 168, 217, 58, 118, 187, 25, 62, 28, 21, 212, 188, 88, 80, 148, 188, 167, 224, 222, 188, 26, 21, 203, 187, 113, 225, 185, 61, 164, 3, 1, 189, 111, 248, 218, 60, 55, 252, 64, 189, 20, 66, 9, 61, 14, 98, 219, 61, 101, 84, 140, 61, 63, 91, 142, 58, 15, 54, 8, 61, 138, 197, 32, 189, 251, 232, 38, 62, 32, 23, 243, 187, 85, 133, 17, 189, 236, 129, 159, 60, 106, 93, 147, 61, 143, 140, 60, 62, 135, 221, 37, 189, 110, 100, 149, 189, 138, 35, 133, 189, 157, 142, 36, 61, 111, 238, 34, 62, 26, 58, 104, 61, 42, 216, 217, 188, 15, 36, 203, 188, 46, 204, 178, 61, 222, 82, 17, 62, 109, 242, 166, 188, 50, 46, 81, 189, 240, 83, 123, 188, 45, 210, 158, 61, 188, 26, 253, 61, 107, 86, 144, 60, 140, 52, 93, 189, 117, 35, 154, 188, 144, 60, 114, 61, 210, 250, 61, 62, 145, 200, 145, 188, 163, 177, 253, 188, 120, 206, 105, 187, 224, 79, 63, 60, 159, 49, 202, 61, 43, 160, 22, 189, 202, 155, 53, 189, 48, 209, 102, 189, 40, 204, 19, 189, 196, 50, 254, 61, 48, 27, 123, 61, 74, 187, 14, 189, 129, 154, 107, 189, 185, 124, 235, 58, 114, 79, 9, 62, 32, 231, 141, 188, 223, 12, 35, 189, 172, 6, 21, 61, 203, 195, 9, 61, 19, 29, 1, 62, 45, 103, 11, 186, 26, 122, 7, 189, 55, 183, 217, 59, 51, 123, 16, 61, 176, 60, 46, 62, 86, 182, 241, 188, 54, 117, 203, 189, 205, 145, 53, 189, 118, 67, 31, 188, 174, 4, 60, 62, 42, 190, 42, 189, 208, 79, 125, 189, 250, 60, 164, 188, 64, 249, 201, 60, 147, 159, 229, 61, 142, 24, 128, 61, 52, 38, 78, 189, 64, 247, 45, 61, 124, 206, 176, 60, 159, 51, 163, 61, 14, 196, 124, 188, 208, 186, 138, 60, 89, 134, 230, 60, 227, 205, 88, 59, 1, 54, 158, 61, 185, 17, 3, 189, 28, 64, 92, 189, 153, 14, 158, 60, 116, 24, 208, 60, 249, 29, 244, 61, 20, 194, 162, 60, 78, 89, 216, 187, 86, 64, 4, 61, 118, 46, 35, 61, 241, 50, 13, 62, 93, 0, 85, 59, 241, 247, 45, 189, 142, 147, 219, 188, 53, 40, 17, 60, 181, 129, 183, 61, 25, 51, 189, 188, 246, 22, 151, 188, 133, 198, 200, 59, 98, 189, 156, 60, 128, 205, 158, 61, 143, 83, 30, 60, 233, 209, 213, 188, 105, 236, 96, 61, 113, 243, 229, 60, 225, 244, 170, 61, 138, 128, 130, 188, 241, 114, 201, 189, 116, 18, 63, 189, 128, 165, 52, 189, 107, 245, 36, 62, 183, 40, 184, 188, 217, 143, 136, 189, 207, 192, 118, 189, 209, 35, 51, 188, 3, 250, 184, 61, 68, 247, 211, 60, 44, 3, 88, 58, 90, 73, 137, 188, 149, 55, 65, 61, 234, 17, 19, 62, 135, 29, 175, 60, 255, 237, 183, 188, 229, 247, 47, 189, 12, 27, 246, 60, 10, 38, 20, 62, 62, 252, 132, 61, 69, 233, 232, 186, 68, 55, 19, 189, 62, 63, 166, 60, 244, 115, 249, 61, 76, 175, 102, 60, 112, 59, 19, 187, 99, 113, 43, 60, 192, 93, 124, 60, 193, 239, 146, 61, 29, 57, 160, 61, 49, 213, 51, 189, 170, 48, 64, 61, 90, 22, 237, 188, 173, 134, 245, 61, 227, 42, 7, 60, 250, 7, 15, 187, 45, 66, 147, 60, 114, 65, 46, 189, 145, 202, 23, 62, 163, 184, 84, 186, 183, 183, 239, 188, 166, 64, 24, 61, 39, 66, 78, 61, 77, 68, 210, 61, 2, 100, 55, 189, 157, 221, 135, 189, 238, 81, 77, 61, 127, 50, 69, 61, 126, 95, 209, 61, 216, 247, 188, 188, 190, 126, 147, 188, 2, 82, 226, 187, 25, 77, 68, 187, 154, 131, 215, 61, 29, 139, 85, 61, 240, 126, 70, 189, 185, 89, 61, 60, 119, 202, 34, 60, 72, 197, 249, 61, 159, 191, 231, 188, 182, 73, 99, 60, 206, 130, 127, 60, 71, 38, 73, 60, 223, 52, 234, 61, 109, 179, 83, 188, 81, 236, 45, 188, 7, 148, 217, 60, 214, 117, 23, 189, 167, 176, 229, 61, 230, 247, 90, 189, 240, 80, 190, 58, 35, 130, 66, 188, 147, 245, 29, 189, 111, 94, 92, 61, 236, 176, 179, 188, 70, 58, 44, 189, 174, 46, 228, 188, 67, 20, 80, 60, 236, 41, 187, 61, 87, 56, 235, 188, 16, 38, 247, 188, 35, 249, 84, 189, 250, 33, 210, 188, 70, 47, 2, 62, 145, 82, 106, 61, 117, 146, 50, 189, 132, 136, 41, 189, 126, 152, 218, 188, 251, 108, 12, 62, 117, 149, 131, 61, 231, 8, 2, 60, 245, 97, 169, 189, 150, 227, 67, 189, 5, 56, 217, 61, 17, 242, 54, 59, 240, 109, 26, 189, 246, 201, 18, 189, 14, 77, 14, 60, 129, 2, 176, 61, 110, 192, 147, 60, 197, 251, 62, 189, 242, 232, 30, 61, 231, 251, 8, 61, 206, 161, 171, 61, 230, 108, 158, 60, 15, 174, 47, 189, 70, 157, 125, 60, 206, 164, 81, 189, 53, 253, 1, 62, 196, 18, 25, 61, 81, 224, 12, 189, 184, 230, 27, 59, 119, 80, 26, 189, 184, 209, 253, 61, 58, 117, 114, 61, 135, 15, 39, 189, 46, 152, 150, 60, 182, 1, 244, 60, 166, 114, 180, 61, 44, 164, 215, 60, 182, 147, 214, 188, 212, 15, 142, 60, 61, 176, 32, 189, 182, 240, 181, 61, 79, 241, 213, 60, 134, 242, 55, 188, 54, 117, 84, 60, 163, 108, 255, 188, 211, 92, 242, 61, 184, 34, 58, 189, 104, 193, 131, 187, 11, 138, 25, 61, 238, 204, 182, 60, 145, 45, 42, 61, 116, 53, 81, 60, 158, 232, 146, 188, 130, 176, 150, 187, 168, 26, 131, 60, 225, 193, 112, 61, 91, 224, 154, 61, 105, 8, 93, 189, 139, 188, 227, 188, 153, 164, 187, 59, 31, 221, 31, 187, 58, 119, 19, 189, 62, 110, 38, 189, 231, 33, 187, 60, 133, 97, 20, 189, 205, 226, 118, 61, 194, 245, 158, 59, 163, 42, 245, 187, 5, 204, 199, 188, 22, 16, 20, 60, 112, 38, 55, 61, 178, 84, 220, 188, 255, 116, 63, 189, 224, 95, 171, 60, 224, 67, 118, 61, 88, 221, 26, 61, 162, 198, 14, 189, 165, 172, 29, 189, 55, 40, 3, 60, 146, 54, 177, 59, 59, 42, 63, 61, 239, 179, 55, 189, 223, 168, 41, 61, 176, 18, 78, 60, 194, 240, 8, 58, 225, 97, 140, 60, 21, 157, 95, 189, 167, 202, 64, 187, 90, 253, 150, 189, 56, 191, 56, 60, 139, 92, 158, 61, 203, 27, 90, 189, 26, 255, 109, 61, 218, 15, 93, 189, 115, 223, 125, 60, 225, 179, 43, 59, 211, 181, 110, 58, 215, 141, 121, 188, 38, 144, 243, 60, 20, 108, 144, 189, 200, 180, 15, 61, 158, 254, 177, 188, 2, 36, 177, 60, 73, 56, 15, 188, 142, 48, 33, 60, 107, 181, 77, 59, 255, 183, 61, 61, 103, 43, 61, 61, 120, 154, 31, 189, 172, 146, 165, 188, 248, 254, 63, 61, 4, 183, 236, 60, 102, 13, 140, 188, 209, 236, 0, 60, 105, 130, 176, 59, 168, 76, 204, 60, 112, 70, 45, 61, 13, 125, 37, 188, 150, 137, 92, 189, 234, 20, 29, 189, 224, 67, 83, 60, 43, 132, 54, 61, 22, 214, 192, 60, 1, 113, 16, 189, 66, 17, 65, 61, 252, 231, 134, 60, 79, 49, 85, 189, 44, 148, 60, 58, 18, 238, 41, 189, 9, 228, 16, 60, 182, 44, 7, 61, 73, 193, 173, 60, 14, 187, 69, 59, 228, 117, 29, 189, 227, 53, 100, 188, 67, 134, 16, 61, 157, 147, 254, 60, 229, 142, 2, 61, 41, 211, 209, 188, 207, 196, 204, 188, 13, 11, 193, 60, 33, 9, 53, 187, 135, 214, 61, 61, 247, 198, 71, 61, 26, 144, 12, 61, 60, 222, 172, 60, 58, 60, 180, 188, 232, 104, 11, 189, 59, 167, 74, 61, 81, 84, 220, 60, 242, 83, 181, 60, 13, 161, 200, 60, 102, 243, 135, 59, 83, 100, 212, 58, 71, 238, 17, 188, 83, 235, 139, 60, 85, 216, 93, 61, 82, 99, 95, 61, 116, 74, 91, 189, 244, 135, 52, 189, 58, 62, 46, 61, 228, 237, 46, 189, 247, 117, 225, 59, 232, 198, 251, 187, 187, 39, 68, 61, 65, 15, 40, 61, 101, 0, 44, 189, 75, 241, 249, 188, 219, 60, 59, 187, 59, 117, 186, 188, 186, 204, 112, 61, 194, 192, 68, 189, 5, 27, 80, 61, 122, 102, 85, 188, 204, 109, 216, 60, 198, 120, 60, 61, 136, 41, 189, 59, 138, 93, 171, 187, 102, 74, 230, 188, 140, 106, 217, 60, 103, 64, 164, 187, 149, 145, 48, 189, 110, 253, 174, 186, 98, 9, 146, 188, 165, 237, 100, 59, 52, 156, 159, 61, 158, 162, 132, 189, 236, 253, 225, 60, 126, 208, 40, 189, 122, 63, 164, 59, 178, 177, 191, 60, 203, 154, 243, 188, 144, 196, 123, 60, 249, 56, 51, 188, 69, 161, 143, 188, 146, 144, 133, 61, 47, 210, 241, 60, 16, 198, 30, 60, 228, 201, 216, 188, 165, 189, 43, 61, 134, 20, 90, 188, 52, 165, 202, 60, 196, 45, 217, 188, 106, 234, 47, 60, 201, 74, 5, 189, 20, 11, 138, 188, 133, 250, 212, 57, 70, 181, 141, 60, 52, 177, 192, 59, 124, 129, 115, 189, 231, 242, 130, 61, 169, 31, 90, 61, 167, 184, 87, 61, 76, 138, 179, 188, 212, 166, 135, 189, 165, 141, 62, 61, 250, 130, 4, 61, 57, 96, 204, 187, 31, 40, 158, 188, 128, 148, 250, 188, 209, 93, 111, 61, 48, 65, 72, 61, 61, 56, 67, 188, 212, 176, 39, 60, 231, 1, 219, 60, 6, 255, 147, 59, 117, 44, 39, 61, 124, 110, 93, 189, 97, 129, 231, 59, 56, 242, 64, 189, 228, 41, 43, 61, 50, 105, 174, 60, 229, 202, 200, 60, 253, 113, 17, 189, 189, 24, 128, 60, 232, 178, 132, 61, 47, 81, 156, 60, 24, 225, 149, 60, 85, 31, 159, 56, 134, 209, 3, 189, 219, 128, 164, 60, 222, 51, 36, 61, 111, 228, 137, 59, 162, 142, 237, 60, 73, 90, 95, 189, 213, 148, 114, 61, 46, 218, 104, 59, 25, 83, 96, 61, 38, 187, 192, 188, 76, 4, 209, 186, 208, 173, 183, 60, 133, 231, 52, 61, 28, 54, 154, 60, 23, 194, 80, 60, 156, 117, 174, 187, 45, 101, 11, 61, 60, 147, 4, 61, 210, 104, 218, 188, 170, 91, 248, 59, 138, 196, 95, 188, 158, 177, 206, 60, 124, 203, 89, 189, 237, 165, 36, 188, 177, 62, 15, 189, 33, 127, 132, 189, 134, 189, 183, 61, 48, 93, 191, 60, 18, 172, 3, 189, 23, 34, 102, 189, 148, 94, 134, 189, 17, 10, 252, 58, 229, 224, 160, 59, 247, 105, 192, 188, 97, 136, 116, 60, 159, 254, 180, 187, 14, 173, 80, 61, 63, 31, 144, 188, 192, 38, 2, 60, 111, 77, 240, 60, 52, 90, 35, 189, 120, 106, 72, 61, 161, 252, 144, 187, 112, 181, 245, 60, 117, 205, 27, 61, 99, 151, 46, 189, 213, 164, 131, 61, 143, 227, 74, 187, 182, 94, 151, 188, 251, 31, 71, 189, 44, 121, 52, 189, 147, 92, 129, 61, 147, 209, 24, 61, 25, 156, 204, 59, 148, 146, 139, 187, 97, 19, 210, 188, 243, 179, 171, 61, 46, 49, 193, 188, 209, 85, 245, 185, 249, 174, 83, 60, 191, 27, 214, 56, 74, 233, 138, 61, 213, 143, 130, 60, 237, 14, 44, 61, 107, 231, 44, 189, 219, 184, 193, 188, 248, 232, 114, 61, 80, 25, 34, 61, 186, 20, 67, 188, 175, 40, 114, 61, 28, 178, 222, 187, 96, 145, 69, 61, 188, 117, 125, 61, 226, 0, 55, 61, 249, 170, 117, 61, 222, 182, 18, 61, 66, 33, 104, 188, 248, 206, 193, 187, 57, 242, 47, 188, 209, 248, 44, 188, 198, 223, 9, 61, 96, 242, 190, 61, 128, 35, 11, 188, 98, 121, 62, 61, 228, 187, 176, 187, 147, 197, 129, 186, 42, 67, 46, 61, 6, 155, 155, 61, 42, 19, 50, 61, 21, 54, 120, 189, 193, 159, 68, 188, 135, 60, 132, 61, 160, 37, 168, 188, 23, 156, 223, 187, 149, 163, 27, 61, 160, 92, 7, 61, 104, 84, 117, 61, 133, 91, 246, 60, 24, 170, 17, 189, 3, 120, 84, 60, 81, 235, 23, 188, 196, 180, 133, 61, 77, 11, 90, 59, 30, 138, 42, 185, 142, 9, 3, 60, 30, 146, 145, 187, 83, 15, 209, 60, 105, 24, 244, 187, 156, 25, 150, 61, 115, 55, 145, 189, 214, 81, 116, 188, 250, 201, 13, 60, 146, 148, 45, 189, 143, 162, 10, 61, 146, 3, 230, 188, 68, 207, 15, 189, 175, 19, 139, 61, 30, 217, 23, 61, 8, 124, 208, 60, 167, 6, 137, 59, 41, 58, 63, 189, 64, 227, 185, 60, 158, 37, 23, 189, 181, 109, 17, 61, 106, 15, 49, 189, 78, 14, 188, 186, 208, 63, 58, 61, 176, 58, 3, 60, 32, 66, 143, 60, 89, 239, 174, 60, 136, 70, 191, 60, 175, 255, 143, 188, 108, 88, 19, 60, 187, 103, 49, 61, 142, 221, 75, 189, 219, 201, 49, 188, 95, 63, 78, 61, 45, 88, 197, 188, 232, 102, 214, 60, 196, 250, 251, 60, 56, 141, 114, 189, 84, 170, 114, 61, 97, 87, 94, 188, 35, 233, 31, 59, 7, 132, 150, 187, 83, 66, 155, 59, 120, 128, 151, 61, 225, 245, 177, 60, 194, 146, 128, 60, 155, 94, 47, 187, 188, 152, 67, 188, 196, 206, 44, 60, 81, 179, 163, 58, 144, 196, 118, 61, 180, 130, 238, 60, 25, 47, 37, 189, 204, 210, 19, 61, 215, 27, 220, 60, 224, 241, 43, 61, 70, 232, 191, 59, 124, 124, 228, 60, 142, 152, 195, 61, 42, 13, 101, 188, 47, 126, 198, 188, 252, 151, 42, 61, 169, 222, 25, 189, 196, 130, 244, 60, 146, 42, 89, 60, 55, 241, 2, 189, 52, 34, 1, 188, 41, 166, 129, 188, 132, 54, 108, 61, 95, 147, 125, 61, 26, 130, 146, 188, 161, 217, 130, 59, 254, 195, 107, 187, 143, 189, 167, 60, 229, 237, 183, 188, 202, 168, 48, 61, 35, 182, 28, 61, 220, 234, 11, 189, 92, 147, 2, 61, 52, 86, 33, 189, 137, 50, 96, 61, 63, 24, 71, 60, 180, 246, 198, 187, 203, 204, 169, 60, 238, 186, 34, 61, 64, 209, 223, 60, 113, 113, 43, 189, 184, 169, 163, 188, 148, 71, 244, 59, 49, 34, 198, 187, 51, 100, 122, 61, 57, 45, 255, 188, 107, 241, 191, 188, 129, 102, 160, 60, 39, 235, 69, 189, 219, 64, 19, 61, 33, 206, 132, 186, 129, 40, 58, 59, 69, 70, 27, 188, 143, 154, 127, 61, 254, 15, 250, 60, 26, 120, 156, 188, 125, 191, 142, 188, 131, 206, 228, 60, 88, 96, 8, 189, 192, 15, 161, 61, 120, 122, 18, 61, 213, 41, 62, 189, 62, 69, 6, 60, 234, 236, 170, 60, 206, 126, 248, 188, 180, 170, 163, 188, 252, 12, 187, 188, 105, 16, 203, 59, 253, 21, 14, 61, 158, 226, 30, 188, 105, 173, 151, 60, 92, 194, 121, 61, 190, 137, 158, 60, 254, 161, 192, 60, 8, 253, 93, 61, 20, 41, 45, 188, 237, 47, 213, 187, 25, 6, 77, 61, 187, 211, 37, 189, 37, 112, 66, 61, 145, 224, 169, 60, 224, 11, 182, 187, 224, 49, 179, 60, 44, 88, 35, 61, 24, 111, 79, 188, 96, 88, 137, 60, 47, 229, 6, 61, 153, 182, 154, 60, 154, 122, 109, 60, 66, 94, 148, 188, 148, 211, 57, 189, 134, 65, 112, 189, 199, 145, 201, 59, 27, 178, 58, 189, 130, 23, 177, 188, 245, 133, 214, 187, 214, 254, 22, 189, 37, 85, 85, 60, 234, 96, 115, 189, 14, 187, 75, 61, 160, 209, 246, 60, 152, 126, 159, 59, 180, 25, 70, 58, 74, 16, 103, 61, 162, 182, 191, 187, 193, 71, 40, 189, 91, 197, 170, 188, 12, 209, 8, 61, 10, 228, 84, 61, 16, 39, 43, 61, 28, 50, 47, 189, 35, 137, 21, 189, 21, 92, 121, 60, 12, 151, 248, 187, 204, 60, 27, 61, 56, 180, 47, 189, 240, 226, 220, 54, 172, 236, 191, 60, 73, 89, 216, 60, 151, 233, 71, 188, 247, 94, 138, 188, 129, 222, 0, 189, 14, 154, 168, 60, 23, 164, 129, 188, 32, 105, 77, 188, 240, 133, 203, 60, 205, 2, 10, 61, 207, 162, 133, 61, 233, 95, 52, 189, 163, 190, 36, 61, 50, 138, 122, 188, 214, 86, 120, 60, 63, 7, 116, 60, 162, 142, 250, 60, 210, 96, 48, 61, 190, 76, 1, 188, 214, 203, 149, 58, 225, 139, 19, 61, 81, 68, 47, 188, 214, 237, 177, 60, 2, 90, 32, 61, 220, 148, 166, 59, 99, 145, 139, 187, 30, 14, 196, 60, 255, 79, 35, 61, 126, 112, 174, 187, 180, 55, 23, 60, 237, 136, 31, 61, 22, 166, 150, 59, 162, 165, 126, 188, 77, 70, 168, 60, 34, 66, 129, 60, 36, 170, 251, 188, 255, 17, 22, 58, 23, 186, 116, 60, 110, 251, 165, 59, 54, 238, 41, 61, 36, 8, 135, 59, 7, 104, 138, 188, 251, 197, 45, 61, 85, 88, 141, 189, 110, 191, 16, 61, 117, 92, 29, 61, 91, 139, 160, 60, 64, 140, 199, 187, 202, 189, 32, 61, 55, 204, 52, 61, 98, 94, 76, 61, 181, 167, 216, 60, 233, 184, 198, 188, 4, 143, 168, 187, 217, 99, 253, 60, 173, 254, 60, 61, 136, 13, 62, 58, 86, 63, 95, 189, 127, 9, 153, 60, 180, 58, 94, 60, 34, 105, 78, 189, 48, 255, 42, 59, 103, 24, 1, 189, 0, 211, 193, 59, 0, 207, 198, 188, 162, 181, 148, 188, 4, 24, 43, 189, 26, 39, 2, 60, 79, 87, 189, 60, 72, 